{
  "version": "1.0",
  "truncation": null,
  "padding": {
    "strategy": {
      "Fixed": 10000
    },
    "direction": "Right",
    "pad_to_multiple_of": null,
    "pad_id": 3,
    "pad_type_id": 0,
    "pad_token": "[PAD]"
  },
  "added_tokens": [
    {
      "id": 0,
      "content": "[UNK]",
      "single_word": false,
      "lstrip": false,
      "rstrip": false,
      "normalized": false,
      "special": true
    },
    {
      "id": 1,
      "content": "[CLS]",
      "single_word": false,
      "lstrip": false,
      "rstrip": false,
      "normalized": false,
      "special": true
    },
    {
      "id": 2,
      "content": "[SEP]",
      "single_word": false,
      "lstrip": false,
      "rstrip": false,
      "normalized": false,
      "special": true
    },
    {
      "id": 3,
      "content": "[PAD]",
      "single_word": false,
      "lstrip": false,
      "rstrip": false,
      "normalized": false,
      "special": true
    },
    {
      "id": 4,
      "content": "[MASK]",
      "single_word": false,
      "lstrip": false,
      "rstrip": false,
      "normalized": false,
      "special": true
    }
  ],
  "normalizer": null,
  "pre_tokenizer": {
    "type": "Whitespace"
  },
  "post_processor": {
    "type": "TemplateProcessing",
    "single": [
      {
        "SpecialToken": {
          "id": "[CLS]",
          "type_id": 0
        }
      },
      {
        "Sequence": {
          "id": "A",
          "type_id": 0
        }
      },
      {
        "SpecialToken": {
          "id": "[SEP]",
          "type_id": 0
        }
      }
    ],
    "pair": [
      {
        "SpecialToken": {
          "id": "[CLS]",
          "type_id": 0
        }
      },
      {
        "Sequence": {
          "id": "A",
          "type_id": 0
        }
      },
      {
        "SpecialToken": {
          "id": "[SEP]",
          "type_id": 0
        }
      },
      {
        "Sequence": {
          "id": "B",
          "type_id": 1
        }
      },
      {
        "SpecialToken": {
          "id": "[SEP]",
          "type_id": 1
        }
      }
    ],
    "special_tokens": {
      "[CLS]": {
        "id": "[CLS]",
        "ids": [
          1
        ],
        "tokens": [
          "[CLS]"
        ]
      },
      "[SEP]": {
        "id": "[SEP]",
        "ids": [
          2
        ],
        "tokens": [
          "[SEP]"
        ]
      }
    }
  },
  "decoder": null,
  "model": {
    "type": "BPE",
    "dropout": null,
    "unk_token": "[UNK]",
    "continuing_subword_prefix": null,
    "end_of_word_suffix": null,
    "fuse_unk": false,
    "vocab": {
      "[UNK]": 0,
      "[CLS]": 1,
      "[SEP]": 2,
      "[PAD]": 3,
      "[MASK]": 4,
      "\u0010": 5,
      "!": 6,
      "\"": 7,
      "#": 8,
      "$": 9,
      "%": 10,
      "&": 11,
      "'": 12,
      "(": 13,
      ")": 14,
      "*": 15,
      "+": 16,
      ",": 17,
      "-": 18,
      ".": 19,
      "/": 20,
      "0": 21,
      "1": 22,
      "2": 23,
      "3": 24,
      "4": 25,
      "5": 26,
      "6": 27,
      "7": 28,
      "8": 29,
      "9": 30,
      ":": 31,
      ";": 32,
      "<": 33,
      "=": 34,
      ">": 35,
      "?": 36,
      "@": 37,
      "A": 38,
      "B": 39,
      "C": 40,
      "D": 41,
      "E": 42,
      "F": 43,
      "G": 44,
      "H": 45,
      "I": 46,
      "J": 47,
      "K": 48,
      "L": 49,
      "M": 50,
      "N": 51,
      "O": 52,
      "P": 53,
      "Q": 54,
      "R": 55,
      "S": 56,
      "T": 57,
      "U": 58,
      "V": 59,
      "W": 60,
      "X": 61,
      "Y": 62,
      "Z": 63,
      "[": 64,
      "\\": 65,
      "]": 66,
      "^": 67,
      "_": 68,
      "`": 69,
      "a": 70,
      "b": 71,
      "c": 72,
      "d": 73,
      "e": 74,
      "f": 75,
      "g": 76,
      "h": 77,
      "i": 78,
      "j": 79,
      "k": 80,
      "l": 81,
      "m": 82,
      "n": 83,
      "o": 84,
      "p": 85,
      "q": 86,
      "r": 87,
      "s": 88,
      "t": 89,
      "u": 90,
      "v": 91,
      "w": 92,
      "x": 93,
      "y": 94,
      "z": 95,
      "{": 96,
      "|": 97,
      "}": 98,
      "~": 99,
      "": 100,
      "": 101,
      "¡": 102,
      "£": 103,
      "©": 104,
      "«": 105,
      "­": 106,
      "®": 107,
      "¯": 108,
      "°": 109,
      "±": 110,
      "²": 111,
      "´": 112,
      "·": 113,
      "»": 114,
      "¿": 115,
      "×": 116,
      "à": 117,
      "á": 118,
      "å": 119,
      "ç": 120,
      "è": 121,
      "é": 122,
      "ê": 123,
      "ë": 124,
      "ì": 125,
      "í": 126,
      "ï": 127,
      "ñ": 128,
      "ò": 129,
      "ó": 130,
      "ö": 131,
      "ø": 132,
      "ú": 133,
      "ü": 134,
      "ā": 135,
      "ď": 136,
      "ē": 137,
      "ī": 138,
      "ĺ": 139,
      "ō": 140,
      "ŕ": 141,
      "ś": 142,
      "ş": 143,
      "ť": 144,
      "̇": 145,
      "̐": 146,
      "̶": 147,
      "͟": 148,
      "е": 149,
      "з": 150,
      "р": 151,
      "ч": 152,
      "،": 153,
      "آ": 154,
      "ا": 155,
      "ب": 156,
      "ت": 157,
      "د": 158,
      "ر": 159,
      "س": 160,
      "ش": 161,
      "ظ": 162,
      "ع": 163,
      "ف": 164,
      "ق": 165,
      "ل": 166,
      "م": 167,
      "ن": 168,
      "ه": 169,
      "و": 170,
      "ى": 171,
      "پ": 172,
      "چ": 173,
      "ڑ": 174,
      "ک": 175,
      "گ": 176,
      "ھ": 177,
      "ی": 178,
      "ے": 179,
      "۔": 180,
      "ँ": 181,
      "ं": 182,
      "ः": 183,
      "अ": 184,
      "आ": 185,
      "इ": 186,
      "ई": 187,
      "उ": 188,
      "ऊ": 189,
      "ऋ": 190,
      "ए": 191,
      "ओ": 192,
      "क": 193,
      "ख": 194,
      "ग": 195,
      "घ": 196,
      "ङ": 197,
      "च": 198,
      "ज": 199,
      "झ": 200,
      "ट": 201,
      "ठ": 202,
      "ड": 203,
      "ढ": 204,
      "ण": 205,
      "त": 206,
      "थ": 207,
      "द": 208,
      "ध": 209,
      "न": 210,
      "प": 211,
      "फ": 212,
      "ब": 213,
      "भ": 214,
      "म": 215,
      "य": 216,
      "र": 217,
      "ल": 218,
      "ळ": 219,
      "व": 220,
      "श": 221,
      "ष": 222,
      "स": 223,
      "ह": 224,
      "़": 225,
      "ा": 226,
      "ि": 227,
      "ी": 228,
      "ु": 229,
      "ू": 230,
      "ृ": 231,
      "ॅ": 232,
      "े": 233,
      "ै": 234,
      "ॉ": 235,
      "ो": 236,
      "ौ": 237,
      "्": 238,
      "।": 239,
      "॥": 240,
      "०": 241,
      "१": 242,
      "२": 243,
      "३": 244,
      "४": 245,
      "५": 246,
      "६": 247,
      "९": 248,
      "ঁ": 249,
      "ং": 250,
      "ক": 251,
      "খ": 252,
      "চ": 253,
      "ত": 254,
      "ন": 255,
      "য": 256,
      "শ": 257,
      "হ": 258,
      "়": 259,
      "া": 260,
      "ি": 261,
      "ী": 262,
      "ূ": 263,
      "ে": 264,
      "ৈ": 265,
      "ো": 266,
      "ৌ": 267,
      "্": 268,
      "ৰ": 269,
      "ં": 270,
      "આ": 271,
      "ક": 272,
      "ચ": 273,
      "ત": 274,
      "ન": 275,
      "પ": 276,
      "બ": 277,
      "ભ": 278,
      "ર": 279,
      "સ": 280,
      "ા": 281,
      "િ": 282,
      "ી": 283,
      "ુ": 284,
      "ૂ": 285,
      "ે": 286,
      "ો": 287,
      "્": 288,
      "ଁ": 289,
      "ଆ": 290,
      "କ": 291,
      "ଗ": 292,
      "ଜ": 293,
      "ଟ": 294,
      "ଣ": 295,
      "ନ": 296,
      "ପ": 297,
      "ଲ": 298,
      "ା": 299,
      "ି": 300,
      "ୀ": 301,
      "ୁ": 302,
      "େ": 303,
      "ୋ": 304,
      "୍": 305,
      "அ": 306,
      "உ": 307,
      "க": 308,
      "ச": 309,
      "ண": 310,
      "த": 311,
      "ன": 312,
      "ப": 313,
      "ம": 314,
      "ய": 315,
      "ர": 316,
      "ற": 317,
      "ல": 318,
      "ழ": 319,
      "வ": 320,
      "ா": 321,
      "ி": 322,
      "ீ": 323,
      "ு": 324,
      "ூ": 325,
      "ெ": 326,
      "ே": 327,
      "ை": 328,
      "ொ": 329,
      "ோ": 330,
      "்": 331,
      "ం": 332,
      "ఎ": 333,
      "క": 334,
      "త": 335,
      "ప": 336,
      "బ": 337,
      "మ": 338,
      "య": 339,
      "ల": 340,
      "స": 341,
      "ా": 342,
      "ి": 343,
      "ీ": 344,
      "ు": 345,
      "ూ": 346,
      "ృ": 347,
      "ె": 348,
      "ే": 349,
      "ై": 350,
      "ొ": 351,
      "ో": 352,
      "ౌ": 353,
      "్": 354,
      "ಂ": 355,
      "ಅ": 356,
      "ಆ": 357,
      "ಇ": 358,
      "ಉ": 359,
      "ಒ": 360,
      "ಕ": 361,
      "ಗ": 362,
      "ಜ": 363,
      "ಣ": 364,
      "ತ": 365,
      "ದ": 366,
      "ನ": 367,
      "ಪ": 368,
      "ಬ": 369,
      "ಭ": 370,
      "ಮ": 371,
      "ಯ": 372,
      "ರ": 373,
      "ಲ": 374,
      "ಳ": 375,
      "ವ": 376,
      "ಷ": 377,
      "ಸ": 378,
      "ಹ": 379,
      "ಾ": 380,
      "ಿ": 381,
      "ೀ": 382,
      "ು": 383,
      "ೂ": 384,
      "ೃ": 385,
      "ೆ": 386,
      "ೇ": 387,
      "ೈ": 388,
      "ೊ": 389,
      "ೋ": 390,
      "ೌ": 391,
      "್": 392,
      "ം": 393,
      "ഇ": 394,
      "ട": 395,
      "ണ": 396,
      "പ": 397,
      "മ": 398,
      "യ": 399,
      "റ": 400,
      "ാ": 401,
      "ി": 402,
      "ീ": 403,
      "ു": 404,
      "െ": 405,
      "േ": 406,
      "്": 407,
      "ൻ": 408,
      "ก": 409,
      "จ": 410,
      "แ": 411,
      "ḍ": 412,
      "ṭ": 413,
      "ạ": 414,
      "ỉ": 415,
      "​": 416,
      "‌": 417,
      "‍": 418,
      "–": 419,
      "—": 420,
      "―": 421,
      "‘": 422,
      "’": 423,
      "‛": 424,
      "“": 425,
      "”": 426,
      "„": 427,
      "•": 428,
      "…": 429,
      "›": 430,
      "‼": 431,
      "‽": 432,
      "⁉": 433,
      "⁠": 434,
      "⁦": 435,
      "⁩": 436,
      "€": 437,
      "₹": 438,
      "⃣": 439,
      "℅": 440,
      "™": 441,
      "↑": 442,
      "→": 443,
      "↓": 444,
      "↗": 445,
      "↪": 446,
      "∂": 447,
      "√": 448,
      "≠": 449,
      "⌚": 450,
      "⏩": 451,
      "⏫": 452,
      "⏰": 453,
      "⏺": 454,
      "└": 455,
      "═": 456,
      "╩": 457,
      "╬": 458,
      "▀": 459,
      "▂": 460,
      "▄": 461,
      "█": 462,
      "▌": 463,
      "▓": 464,
      "▪": 465,
      "▬": 466,
      "▶": 467,
      "►": 468,
      "◀": 469,
      "◆": 470,
      "○": 471,
      "●": 472,
      "◙": 473,
      "◢": 474,
      "◤": 475,
      "◥": 476,
      "◯": 477,
      "◾": 478,
      "☀": 479,
      "☄": 480,
      "★": 481,
      "☆": 482,
      "☎": 483,
      "☑": 484,
      "☕": 485,
      "☝": 486,
      "☞": 487,
      "☠": 488,
      "☭": 489,
      "☮": 490,
      "☹": 491,
      "☺": 492,
      "☻": 493,
      "♀": 494,
      "♂": 495,
      "♛": 496,
      "♡": 497,
      "♥": 498,
      "♦": 499,
      "♨": 500,
      "♻": 501,
      "⚖": 502,
      "⚘": 503,
      "⚛": 504,
      "⚠": 505,
      "⚡": 506,
      "⛅": 507,
      "⛔": 508,
      "⛤": 509,
      "⛱": 510,
      "⛳": 511,
      "⛵": 512,
      "⛽": 513,
      "✅": 514,
      "✈": 515,
      "✊": 516,
      "✋": 517,
      "✌": 518,
      "✍": 519,
      "✏": 520,
      "✓": 521,
      "✔": 522,
      "✡": 523,
      "✨": 524,
      "❁": 525,
      "❌": 526,
      "❎": 527,
      "❓": 528,
      "❔": 529,
      "❗": 530,
      "❝": 531,
      "❞": 532,
      "❣": 533,
      "❤": 534,
      "➕": 535,
      "➖": 536,
      "➗": 537,
      "➝": 538,
      "➡": 539,
      "➿": 540,
      "⠀": 541,
      "⤴": 542,
      "⤵": 543,
      "⬇": 544,
      "⭐": 545,
      "⭕": 546,
      "。": 547,
      "〰": 548,
      "・": 549,
      "东": 550,
      "北": 551,
      "南": 552,
      "西": 553,
      "️": 554,
      "＆": 555,
      "：": 556,
      "＿": 557,
      "￣": 558,
      "�": 559,
      "th": 560,
      "in": 561,
      "er": 562,
      "an": 563,
      "the": 564,
      "re": 565,
      "on": 566,
      "is": 567,
      "at": 568,
      "ou": 569,
      "or": 570,
      "it": 571,
      "as": 572,
      "ed": 573,
      "en": 574,
      "ing": 575,
      "es": 576,
      "al": 577,
      "and": 578,
      "to": 579,
      "mo": 580,
      "di": 581,
      "ar": 582,
      "st": 583,
      "le": 584,
      "ot": 585,
      "ch": 586,
      "se": 587,
      "ly": 588,
      "ve": 589,
      "for": 590,
      "ll": 591,
      "me": 592,
      "ut": 593,
      "ic": 594,
      "of": 595,
      "ha": 596,
      "ro": 597,
      "modi": 598,
      "ct": 599,
      "be": 600,
      "wh": 601,
      "ow": 602,
      "ver": 603,
      "wi": 604,
      "li": 605,
      "ion": 606,
      "he": 607,
      "oo": 608,
      "ke": 609,
      "gh": 610,
      "ad": 611,
      "ay": 612,
      "this": 613,
      "not": 614,
      "you": 615,
      "ld": 616,
      "are": 617,
      "was": 618,
      "ter": 619,
      "but": 620,
      "co": 621,
      "so": 622,
      "ent": 623,
      "ra": 624,
      "that": 625,
      "de": 626,
      "ri": 627,
      "all": 628,
      "ce": 629,
      "ge": 630,
      "one": 631,
      "ab": 632,
      "with": 633,
      "ur": 634,
      "un": 635,
      "vi": 636,
      "pp": 637,
      "ther": 638,
      "lo": 639,
      "ne": 640,
      "sh": 641,
      "pe": 642,
      "have": 643,
      "am": 644,
      "out": 645,
      "ould": 646,
      "ght": 647,
      "ti": 648,
      "..": 649,
      "ir": 650,
      "we": 651,
      "su": 652,
      "The": 653,
      "con": 654,
      "fe": 655,
      "ac": 656,
      "my": 657,
      "very": 658,
      "do": 659,
      "si": 660,
      "ul": 661,
      "ust": 662,
      "ma": 663,
      "wor": 664,
      "ood": 665,
      "his": 666,
      "pro": 667,
      "gre": 668,
      "It": 669,
      "like": 670,
      "ast": 671,
      "com": 672,
      "us": 673,
      "po": 674,
      "ag": 675,
      "pl": 676,
      "they": 677,
      "use": 678,
      "il": 679,
      "ally": 680,
      "will": 681,
      "up": 682,
      "ain": 683,
      "ice": 684,
      "ex": 685,
      "id": 686,
      "est": 687,
      "ks": 688,
      "ere": 689,
      "per": 690,
      "qu": 691,
      "ant": 692,
      "indi": 693,
      "vie": 694,
      "ate": 695,
      "oun": 696,
      "go": 697,
      "act": 698,
      "ment": 699,
      "thing": 700,
      "end": 701,
      "ca": 702,
      "any": 703,
      "get": 704,
      "ple": 705,
      "ess": 706,
      "just": 707,
      "good": 708,
      "can": 709,
      "tr": 710,
      "der": 711,
      "ak": 712,
      "ation": 713,
      "hi": 714,
      "te": 715,
      "rom": 716,
      "has": 717,
      "du": 718,
      "art": 719,
      "ss": 720,
      "dis": 721,
      "if": 722,
      "ack": 723,
      "from": 724,
      "now": 725,
      "ill": 726,
      "would": 727,
      "our": 728,
      "them": 729,
      "what": 730,
      "ity": 731,
      "ho": 732,
      "pre": 733,
      "no": 734,
      "ven": 735,
      "did": 736,
      "some": 737,
      "ist": 738,
      "than": 739,
      "ite": 740,
      "pr": 741,
      "ook": 742,
      "sa": 743,
      "great": 744,
      "ers": 745,
      "other": 746,
      "ig": 747,
      "had": 748,
      "more": 749,
      "movie": 750,
      "This": 751,
      "ind": 752,
      "et": 753,
      "ough": 754,
      "too": 755,
      "india": 756,
      "way": 757,
      "ure": 758,
      "ard": 759,
      "mu": 760,
      "time": 761,
      "sp": 762,
      "don": 763,
      "sc": 764,
      "these": 765,
      "only": 766,
      "who": 767,
      "when": 768,
      "ction": 769,
      "ong": 770,
      "bo": 771,
      "does": 772,
      "wat": 773,
      "able": 774,
      "work": 775,
      "lit": 776,
      "bl": 777,
      "ear": 778,
      "see": 779,
      "af": 780,
      "well": 781,
      "its": 782,
      "your": 783,
      "ought": 784,
      "ive": 785,
      "ble": 786,
      "about": 787,
      "el": 788,
      "whi": 789,
      "um": 790,
      "ap": 791,
      "app": 792,
      "ep": 793,
      "ine": 794,
      "again": 795,
      "fo": 796,
      "ru": 797,
      "Th": 798,
      "ck": 799,
      "bu": 800,
      "int": 801,
      "ink": 802,
      "urn": 803,
      "ms": 804,
      "la": 805,
      "jo": 806,
      "ade": 807,
      "ace": 808,
      "much": 809,
      "were": 810,
      "ick": 811,
      "bet": 812,
      "ved": 813,
      "che": 814,
      "really": 815,
      "day": 816,
      "look": 817,
      "how": 818,
      "cause": 819,
      "ty": 820,
      "tle": 821,
      "ort": 822,
      "ff": 823,
      "off": 824,
      "after": 825,
      "...": 826,
      "even": 827,
      "produ": 828,
      "nd": 829,
      "im": 830,
      "des": 831,
      "want": 832,
      "mis": 833,
      "ase": 834,
      "year": 835,
      "own": 836,
      "because": 837,
      "20": 838,
      "min": 839,
      "ound": 840,
      "ie": 841,
      "over": 842,
      "ality": 843,
      "say": 844,
      "ish": 845,
      "ous": 846,
      "ta": 847,
      "peo": 848,
      "there": 849,
      "every": 850,
      "fa": 851,
      "love": 852,
      "try": 853,
      "need": 854,
      "sm": 855,
      "people": 856,
      "ight": 857,
      "om": 858,
      "back": 859,
      "pect": 860,
      "ies": 861,
      "made": 862,
      "pt": 863,
      "ans": 864,
      "product": 865,
      "bj": 866,
      "which": 867,
      "!!": 868,
      "ful": 869,
      "mat": 870,
      "better": 871,
      "red": 872,
      "watch": 873,
      "ts": 874,
      "ting": 875,
      "eas": 876,
      "ele": 877,
      "little": 878,
      "turn": 879,
      "fir": 880,
      "part": 881,
      "ves": 882,
      "read": 883,
      "cle": 884,
      "gu": 885,
      "know": 886,
      "man": 887,
      "bjp": 888,
      "quality": 889,
      "small": 890,
      "age": 891,
      "col": 892,
      "Not": 893,
      "coun": 894,
      "tw": 895,
      "nice": 896,
      "ory": 897,
      "gr": 898,
      "could": 899,
      "fect": 900,
      "ass": 901,
      "pur": 902,
      "cor": 903,
      "ever": 904,
      "buy": 905,
      "then": 906,
      "make": 907,
      "ving": 908,
      "ach": 909,
      "less": 910,
      "00": 911,
      "should": 912,
      "vot": 913,
      "fil": 914,
      "new": 915,
      "been": 916,
      "They": 917,
      "she": 918,
      "ery": 919,
      "pen": 920,
      "put": 921,
      "ci": 922,
      "why": 923,
      "gress": 924,
      "comm": 925,
      "reat": 926,
      "ry": 927,
      "also": 928,
      "first": 929,
      "mone": 930,
      "used": 931,
      "think": 932,
      "ser": 933,
      "ze": 934,
      "sha": 935,
      "didn": 936,
      "hand": 937,
      "under": 938,
      "their": 939,
      "na": 940,
      "price": 941,
      "come": 942,
      "ily": 943,
      "show": 944,
      "expect": 945,
      "got": 946,
      "gi": 947,
      "mak": 948,
      "congress": 949,
      "top": 950,
      "cl": 951,
      "cont": 952,
      "set": 953,
      "right": 954,
      "ang": 955,
      "ooks": 956,
      "med": 957,
      "years": 958,
      "most": 959,
      "ated": 960,
      "fore": 961,
      "ese": 962,
      "him": 963,
      "money": 964,
      "view": 965,
      "still": 966,
      "201": 967,
      "pa": 968,
      "supp": 969,
      "her": 970,
      "nation": 971,
      "by": 972,
      "big": 973,
      "happ": 974,
      "fin": 975,
      "keep": 976,
      "long": 977,
      "diff": 978,
      "fun": 979,
      "election": 980,
      "nare": 981,
      "ue": 982,
      "bought": 983,
      "lf": 984,
      "son": 985,
      "doesn": 986,
      "ence": 987,
      "dy": 988,
      "ok": 989,
      "Very": 990,
      "mon": 991,
      "low": 992,
      "narend": 993,
      "les": 994,
      "sit": 995,
      "where": 996,
      "narendra": 997,
      "br": 998,
      "side": 999,
      "purch": 1000,
      "pic": 1001,
      "tra": 1002,
      "bit": 1003,
      "hold": 1004,
      "ave": 1005,
      "mes": 1006,
      "gov": 1007,
      "light": 1008,
      "ber": 1009,
      "order": 1010,
      "ased": 1011,
      "inter": 1012,
      "ste": 1013,
      "clo": 1014,
      "ors": 1015,
      "bro": 1016,
      "last": 1017,
      "ree": 1018,
      "kid": 1019,
      "bad": 1020,
      "ise": 1021,
      "sure": 1022,
      "two": 1023,
      "ps": 1024,
      "down": 1025,
      "return": 1026,
      "into": 1027,
      "lot": 1028,
      "won": 1029,
      "oint": 1030,
      "add": 1031,
      "pow": 1032,
      "sion": 1033,
      "These": 1034,
      "stand": 1035,
      "appoint": 1036,
      "spe": 1037,
      "ars": 1038,
      "ical": 1039,
      "gl": 1040,
      "cut": 1041,
      "govt": 1042,
      "hard": 1043,
      "We": 1044,
      "tal": 1045,
      "story": 1046,
      "old": 1047,
      "fit": 1048,
      "ture": 1049,
      "tast": 1050,
      "though": 1051,
      "never": 1052,
      "may": 1053,
      "ign": 1054,
      "give": 1055,
      "same": 1056,
      "air": 1057,
      "tty": 1058,
      "enough": 1059,
      "many": 1060,
      "job": 1061,
      "clean": 1062,
      "best": 1063,
      "lead": 1064,
      "ason": 1065,
      "self": 1066,
      "before": 1067,
      "wr": 1068,
      "place": 1069,
      "vote": 1070,
      "So": 1071,
      "size": 1072,
      "works": 1073,
      "commend": 1074,
      "power": 1075,
      "film": 1076,
      "easy": 1077,
      "feel": 1078,
      "Great": 1079,
      "high": 1080,
      "ni": 1081,
      "pri": 1082,
      "ress": 1083,
      "tain": 1084,
      "ance": 1085,
      "thought": 1086,
      "pu": 1087,
      "tri": 1088,
      "using": 1089,
      "perfect": 1090,
      "sto": 1091,
      "astic": 1092,
      "real": 1093,
      "fl": 1094,
      "disappoint": 1095,
      "recommend": 1096,
      "row": 1097,
      "str": 1098,
      "country": 1099,
      "cheap": 1100,
      "har": 1101,
      "bed": 1102,
      "came": 1103,
      "times": 1104,
      "sur": 1105,
      "If": 1106,
      "rough": 1107,
      "av": 1108,
      "differ": 1109,
      "looks": 1110,
      "sing": 1111,
      "But": 1112,
      "cr": 1113,
      "going": 1114,
      "done": 1115,
      "ol": 1116,
      "dont": 1117,
      "take": 1118,
      "ces": 1119,
      "cur": 1120,
      "modis": 1121,
      "water": 1122,
      "something": 1123,
      "pretty": 1124,
      "opp": 1125,
      "few": 1126,
      "start": 1127,
      "said": 1128,
      "hul": 1129,
      "far": 1130,
      "My": 1131,
      "wa": 1132,
      "cre": 1133,
      "vor": 1134,
      "offe": 1135,
      "open": 1136,
      "another": 1137,
      "ating": 1138,
      "ba": 1139,
      "shi": 1140,
      "pak": 1141,
      "ash": 1142,
      "mer": 1143,
      "offee": 1144,
      "au": 1145,
      "worth": 1146,
      "month": 1147,
      "being": 1148,
      "looking": 1149,
      "room": 1150,
      "char": 1151,
      "ways": 1152,
      "space": 1153,
      "ose": 1154,
      "ark": 1155,
      "let": 1156,
      "rahul": 1157,
      "ister": 1158,
      "ince": 1159,
      "bot": 1160,
      "ool": 1161,
      "polit": 1162,
      "poor": 1163,
      "lar": 1164,
      "color": 1165,
      "gover": 1166,
      "find": 1167,
      "....": 1168,
      "dr": 1169,
      "tak": 1170,
      "Lo": 1171,
      "against": 1172,
      "through": 1173,
      "govern": 1174,
      "coffee": 1175,
      "while": 1176,
      "aw": 1177,
      "picture": 1178,
      "par": 1179,
      "review": 1180,
      "expected": 1181,
      "lid": 1182,
      "cup": 1183,
      "joy": 1184,
      "ary": 1185,
      "ial": 1186,
      "fort": 1187,
      "ger": 1188,
      "mp": 1189,
      "ted": 1190,
      "cra": 1191,
      "Wh": 1192,
      "war": 1193,
      "cent": 1194,
      "fam": 1195,
      "ud": 1196,
      "ions": 1197,
      "ning": 1198,
      "support": 1199,
      "fi": 1200,
      "cess": 1201,
      "ny": 1202,
      "ked": 1203,
      "wash": 1204,
      "plastic": 1205,
      "indian": 1206,
      "ren": 1207,
      "TH": 1208,
      "pie": 1209,
      "ient": 1210,
      "pack": 1211,
      "res": 1212,
      "dra": 1213,
      "thin": 1214,
      "hel": 1215,
      "ls": 1216,
      "fla": 1217,
      "oft": 1218,
      "pped": 1219,
      "ually": 1220,
      "gg": 1221,
      "cond": 1222,
      "ists": 1223,
      "without": 1224,
      "itch": 1225,
      "says": 1226,
      "nothing": 1227,
      "ef": 1228,
      "ments": 1229,
      "enjoy": 1230,
      "cover": 1231,
      "such": 1232,
      "since": 1233,
      "person": 1234,
      "gand": 1235,
      "ready": 1236,
      "play": 1237,
      "sed": 1238,
      "hai": 1239,
      "fact": 1240,
      "iz": 1241,
      "proble": 1242,
      "ank": 1243,
      "taste": 1244,
      "fine": 1245,
      "cook": 1246,
      "here": 1247,
      "ia": 1248,
      "box": 1249,
      "disappointed": 1250,
      "car": 1251,
      "bag": 1252,
      "fri": 1253,
      "Good": 1254,
      "cy": 1255,
      "lic": 1256,
      "away": 1257,
      "lie": 1258,
      "minister": 1259,
      "happy": 1260,
      "cred": 1261,
      "different": 1262,
      "win": 1263,
      "vies": 1264,
      "--": 1265,
      "around": 1266,
      "bre": 1267,
      "bab": 1268,
      "government": 1269,
      "kind": 1270,
      "always": 1271,
      "king": 1272,
      "ild": 1273,
      "pill": 1274,
      "fu": 1275,
      "movies": 1276,
      "sive": 1277,
      "Love": 1278,
      "comp": 1279,
      "ange": 1280,
      "llow": 1281,
      "ja": 1282,
      "ide": 1283,
      "ket": 1284,
      "care": 1285,
      "ates": 1286,
      "makes": 1287,
      "ute": 1288,
      "vis": 1289,
      "line": 1290,
      "ious": 1291,
      "sol": 1292,
      "anything": 1293,
      "party": 1294,
      "att": 1295,
      "istan": 1296,
      "ular": 1297,
      "issu": 1298,
      "call": 1299,
      "quest": 1300,
      "family": 1301,
      "anti": 1302,
      "xt": 1303,
      "wish": 1304,
      "ann": 1305,
      "rect": 1306,
      "chow": 1307,
      "inst": 1308,
      "those": 1309,
      "press": 1310,
      "aut": 1311,
      "gandhi": 1312,
      "stu": 1313,
      "port": 1314,
      "cept": 1315,
      "No": 1316,
      "ER": 1317,
      "hot": 1318,
      "ult": 1319,
      "gra": 1320,
      "cri": 1321,
      "tell": 1322,
      "arri": 1323,
      "chowkid": 1324,
      "must": 1325,
      "gether": 1326,
      "wanted": 1327,
      "together": 1328,
      "pillow": 1329,
      "fan": 1330,
      "ations": 1331,
      "credit": 1332,
      "strong": 1333,
      "pay": 1334,
      "zon": 1335,
      "ga": 1336,
      "In": 1337,
      "pakistan": 1338,
      "uring": 1339,
      "ft": 1340,
      "tom": 1341,
      "help": 1342,
      "today": 1343,
      "Al": 1344,
      "cou": 1345,
      "happen": 1346,
      "pan": 1347,
      "sent": 1348,
      "You": 1349,
      "reason": 1350,
      "wee": 1351,
      "things": 1352,
      "mas": 1353,
      ").": 1354,
      "oppo": 1355,
      "item": 1356,
      "cer": 1357,
      "purchase": 1358,
      "comes": 1359,
      "ition": 1360,
      "super": 1361,
      "mem": 1362,
      "ately": 1363,
      "cro": 1364,
      "Do": 1365,
      "ror": 1366,
      "both": 1367,
      "iful": 1368,
      "fer": 1369,
      "hind": 1370,
      "seems": 1371,
      "world": 1372,
      "rup": 1373,
      "sir": 1374,
      "sition": 1375,
      "making": 1376,
      "ect": 1377,
      "months": 1378,
      "ics": 1379,
      "promis": 1380,
      "ats": 1381,
      "mission": 1382,
      "mi": 1383,
      "cand": 1384,
      "od": 1385,
      "dec": 1386,
      "Re": 1387,
      "gar": 1388,
      "Wor": 1389,
      "autiful": 1390,
      "actually": 1391,
      "once": 1392,
      "purchased": 1393,
      "val": 1394,
      "ters": 1395,
      "ced": 1396,
      "interest": 1397,
      "stars": 1398,
      "weet": 1399,
      "found": 1400,
      "NO": 1401,
      "free": 1402,
      "bi": 1403,
      "atch": 1404,
      "ones": 1405,
      "fr": 1406,
      "getting": 1407,
      "ward": 1408,
      "already": 1409,
      "charact": 1410,
      "ised": 1411,
      "leader": 1412,
      "stay": 1413,
      "seen": 1414,
      "cei": 1415,
      "acting": 1416,
      "comple": 1417,
      "belie": 1418,
      "next": 1419,
      "soft": 1420,
      "cho": 1421,
      "easily": 1422,
      "Just": 1423,
      "cell": 1424,
      "lop": 1425,
      "nt": 1426,
      "prime": 1427,
      "mar": 1428,
      "Ama": 1429,
      "live": 1430,
      "gave": 1431,
      "cial": 1432,
      "head": 1433,
      "ph": 1434,
      "mus": 1435,
      "finite": 1436,
      "run": 1437,
      "gen": 1438,
      "move": 1439,
      "There": 1440,
      "scient": 1441,
      "cam": 1442,
      "ya": 1443,
      "sal": 1444,
      "design": 1445,
      "ee": 1446,
      "glass": 1447,
      "lims": 1448,
      "tried": 1449,
      "ama": 1450,
      "vide": 1451,
      "ner": 1452,
      "ire": 1453,
      "second": 1454,
      "yes": 1455,
      "gif": 1456,
      "via": 1457,
      "deve": 1458,
      "finitely": 1459,
      "stick": 1460,
      "clear": 1461,
      "ordered": 1462,
      "bha": 1463,
      "problem": 1464,
      "point": 1465,
      "atell": 1466,
      "fall": 1467,
      "kes": 1468,
      "als": 1469,
      "pot": 1470,
      "mell": 1471,
      "Ch": 1472,
      "life": 1473,
      "sible": 1474,
      "friend": 1475,
      "reg": 1476,
      "IN": 1477,
      "quite": 1478,
      "series": 1479,
      "sen": 1480,
      "full": 1481,
      "watching": 1482,
      "urdy": 1483,
      "log": 1484,
      "fail": 1485,
      "2019": 1486,
      "ten": 1487,
      "unch": 1488,
      "hal": 1489,
      "Amazon": 1490,
      "flavor": 1491,
      "fill": 1492,
      "days": 1493,
      "avy": 1494,
      "develop": 1495,
      "doing": 1496,
      "fra": 1497,
      "large": 1498,
      "oud": 1499,
      "each": 1500,
      "vel": 1501,
      "stead": 1502,
      "atter": 1503,
      "achie": 1504,
      "gets": 1505,
      "DV": 1506,
      "suc": 1507,
      "chowkidar": 1508,
      "scre": 1509,
      "rible": 1510,
      "everything": 1511,
      "ani": 1512,
      "How": 1513,
      "ds": 1514,
      "mil": 1515,
      "hu": 1516,
      "plain": 1517,
      "announ": 1518,
      "national": 1519,
      "nor": 1520,
      "enter": 1521,
      "DVD": 1522,
      "hum": 1523,
      "whole": 1524,
      "bottom": 1525,
      "And": 1526,
      "10": 1527,
      "please": 1528,
      "waste": 1529,
      "lt": 1530,
      "replace": 1531,
      "led": 1532,
      "action": 1533,
      "sle": 1534,
      "elections": 1535,
      "pping": 1536,
      "smell": 1537,
      "sheet": 1538,
      "else": 1539,
      "follow": 1540,
      "least": 1541,
      "ceived": 1542,
      "ism": 1543,
      "bably": 1544,
      "during": 1545,
      "ric": 1546,
      "2014": 1547,
      "tea": 1548,
      "wait": 1549,
      "coming": 1550,
      "okay": 1551,
      "needed": 1552,
      "ob": 1553,
      "stri": 1554,
      "pos": 1555,
      "vent": 1556,
      "utes": 1557,
      "wonder": 1558,
      "hang": 1559,
      "ys": 1560,
      "wasn": 1561,
      "mag": 1562,
      "given": 1563,
      "trying": 1564,
      "quick": 1565,
      "others": 1566,
      "form": 1567,
      "ater": 1568,
      "ither": 1569,
      "sho": 1570,
      "heavy": 1571,
      "ative": 1572,
      "cellent": 1573,
      "rupt": 1574,
      "sturdy": 1575,
      "mind": 1576,
      "ghter": 1577,
      "sy": 1578,
      "fully": 1579,
      "atellite": 1580,
      "const": 1581,
      "took": 1582,
      "main": 1583,
      "ale": 1584,
      "opposition": 1585,
      "working": 1586,
      "wood": 1587,
      "rest": 1588,
      "ye": 1589,
      "del": 1590,
      "Be": 1591,
      "ending": 1592,
      "food": 1593,
      "worked": 1594,
      "econ": 1595,
      "gs": 1596,
      "ton": 1597,
      "ken": 1598,
      "ared": 1599,
      "band": 1600,
      "piece": 1601,
      "cap": 1602,
      "St": 1603,
      "true": 1604,
      "ji": 1605,
      "black": 1606,
      "descri": 1607,
      "case": 1608,
      "RE": 1609,
      "ings": 1610,
      "gift": 1611,
      "weight": 1612,
      "Nice": 1613,
      "state": 1614,
      "cu": 1615,
      "complete": 1616,
      "loved": 1617,
      "wrong": 1618,
      "arrived": 1619,
      "instead": 1620,
      "beautiful": 1621,
      "itchen": 1622,
      "yet": 1623,
      "started": 1624,
      "brand": 1625,
      "ame": 1626,
      "ots": 1627,
      "ness": 1628,
      "mater": 1629,
      "reviews": 1630,
      "ature": 1631,
      "cute": 1632,
      "minutes": 1633,
      "half": 1634,
      "home": 1635,
      "hour": 1636,
      "handle": 1637,
      "sever": 1638,
      "might": 1639,
      "dry": 1640,
      "ctions": 1641,
      "material": 1642,
      "isn": 1643,
      "bas": 1644,
      "season": 1645,
      "ship": 1646,
      "orig": 1647,
      "rav": 1648,
      "hop": 1649,
      "almost": 1650,
      "ween": 1651,
      "akh": 1652,
      "origin": 1653,
      "smaller": 1654,
      "class": 1655,
      "NOT": 1656,
      "having": 1657,
      "address": 1658,
      "neh": 1659,
      "stop": 1660,
      "bhak": 1661,
      "kar": 1662,
      "kill": 1663,
      "dish": 1664,
      "media": 1665,
      "cour": 1666,
      "received": 1667,
      "wer": 1668,
      "star": 1669,
      "corrupt": 1670,
      "between": 1671,
      "definitely": 1672,
      "liked": 1673,
      "probably": 1674,
      "cast": 1675,
      "understand": 1676,
      "drdo": 1677,
      "wise": 1678,
      "var": 1679,
      "hope": 1680,
      "shar": 1681,
      "publ": 1682,
      "However": 1683,
      "short": 1684,
      "ext": 1685,
      "night": 1686,
      "sub": 1687,
      "news": 1688,
      "ouse": 1689,
      "success": 1690,
      "bar": 1691,
      "cit": 1692,
      "AN": 1693,
      "!!!": 1694,
      "scen": 1695,
      "guess": 1696,
      "funny": 1697,
      "thick": 1698,
      "actly": 1699,
      "ins": 1700,
      "broke": 1701,
      "test": 1702,
      "however": 1703,
      "nehru": 1704,
      "pain": 1705,
      "unit": 1706,
      "ility": 1707,
      "needs": 1708,
      "Don": 1709,
      "sell": 1710,
      "three": 1711,
      "political": 1712,
      "several": 1713,
      "For": 1714,
      "left": 1715,
      "ption": 1716,
      "mess": 1717,
      "elect": 1718,
      "etc": 1719,
      "hor": 1720,
      "ding": 1721,
      "ask": 1722,
      "aking": 1723,
      "favor": 1724,
      "fre": 1725,
      "19": 1726,
      "cant": 1727,
      "expen": 1728,
      "han": 1729,
      "achieve": 1730,
      "video": 1731,
      "ON": 1732,
      "lu": 1733,
      "non": 1734,
      "broken": 1735,
      "comfort": 1736,
      "name": 1737,
      "kitchen": 1738,
      "vious": 1739,
      "due": 1740,
      "ath": 1741,
      "face": 1742,
      "allow": 1743,
      "emp": 1744,
      "list": 1745,
      "sli": 1746,
      "hate": 1747,
      "believe": 1748,
      "plac": 1749,
      "public": 1750,
      "vac": 1751,
      "De": 1752,
      "THE": 1753,
      "table": 1754,
      "past": 1755,
      "inside": 1756,
      "kids": 1757,
      "em": 1758,
      "eng": 1759,
      "pper": 1760,
      "till": 1761,
      "white": 1762,
      "seem": 1763,
      "ual": 1764,
      "sem": 1765,
      "tress": 1766,
      "colle": 1767,
      "One": 1768,
      "hon": 1769,
      "burn": 1770,
      "sche": 1771,
      "tem": 1772,
      "lies": 1773,
      "nirav": 1774,
      "Does": 1775,
      "kni": 1776,
      "giving": 1777,
      "close": 1778,
      "idea": 1779,
      "til": 1780,
      "fast": 1781,
      "plot": 1782,
      "diffic": 1783,
      "child": 1784,
      "lin": 1785,
      "dam": 1786,
      "scientists": 1787,
      "went": 1788,
      "mal": 1789,
      "cus": 1790,
      "member": 1791,
      "On": 1792,
      "board": 1793,
      "couple": 1794,
      "terror": 1795,
      "change": 1796,
      "become": 1797,
      "post": 1798,
      "expensive": 1799,
      "Would": 1800,
      "lakh": 1801,
      "spon": 1802,
      "dri": 1803,
      "aged": 1804,
      "limsy": 1805,
      "Also": 1806,
      "wal": 1807,
      "slow": 1808,
      "Did": 1809,
      "version": 1810,
      "ically": 1811,
      "incl": 1812,
      "rs": 1813,
      "op": 1814,
      "apart": 1815,
      "OK": 1816,
      "house": 1817,
      "ended": 1818,
      "original": 1819,
      "ST": 1820,
      "store": 1821,
      "He": 1822,
      "ici": 1823,
      "anyone": 1824,
      "pop": 1825,
      "finish": 1826,
      "paign": 1827,
      "pho": 1828,
      "roll": 1829,
      "oring": 1830,
      "question": 1831,
      "dau": 1832,
      "ome": 1833,
      "stuff": 1834,
      "vert": 1835,
      "writ": 1836,
      "cal": 1837,
      "goes": 1838,
      "campaign": 1839,
      "body": 1840,
      "ump": 1841,
      "either": 1842,
      "cool": 1843,
      "mattress": 1844,
      "bly": 1845,
      "rather": 1846,
      "ches": 1847,
      "cost": 1848,
      "exactly": 1849,
      "sn": 1850,
      "As": 1851,
      "difficult": 1852,
      "hin": 1853,
      "wouldn": 1854,
      "AT": 1855,
      "IT": 1856,
      "mach": 1857,
      "gan": 1858,
      "returned": 1859,
      "Works": 1860,
      "deli": 1861,
      "buying": 1862,
      "flimsy": 1863,
      "den": 1864,
      "contain": 1865,
      "direct": 1866,
      "plan": 1867,
      "dou": 1868,
      "bal": 1869,
      "fter": 1870,
      "ata": 1871,
      "stra": 1872,
      "ons": 1873,
      "What": 1874,
      "issue": 1875,
      "ina": 1876,
      "cially": 1877,
      "cked": 1878,
      "zing": 1879,
      "satellite": 1880,
      "When": 1881,
      "spo": 1882,
      "rele": 1883,
      "deal": 1884,
      "until": 1885,
      "chair": 1886,
      "ban": 1887,
      "bow": 1888,
      "shows": 1889,
      "100": 1890,
      "IS": 1891,
      "towe": 1892,
      "peri": 1893,
      "comfortable": 1894,
      "atul": 1895,
      "longer": 1896,
      "sat": 1897,
      "respon": 1898,
      "Mo": 1899,
      "After": 1900,
      "assem": 1901,
      "solute": 1902,
      "gn": 1903,
      "entire": 1904,
      "tru": 1905,
      "15": 1906,
      "da": 1907,
      "takes": 1908,
      "flo": 1909,
      "bs": 1910,
      "sw": 1911,
      "everyone": 1912,
      "cannot": 1913,
      "effect": 1914,
      "Ex": 1915,
      "sk": 1916,
      "photo": 1917,
      "dest": 1918,
      "oose": 1919,
      "fight": 1920,
      "LO": 1921,
      "shame": 1922,
      "lim": 1923,
      "possible": 1924,
      "dark": 1925,
      "someone": 1926,
      "Per": 1927,
      "mor": 1928,
      "loves": 1929,
      "iso": 1930,
      "thats": 1931,
      "Too": 1932,
      "heat": 1933,
      "tweet": 1934,
      "qui": 1935,
      "congr": 1936,
      "men": 1937,
      "couldn": 1938,
      "interesting": 1939,
      "ents": 1940,
      "Will": 1941,
      "proud": 1942,
      "gener": 1943,
      "ded": 1944,
      "maybe": 1945,
      "smo": 1946,
      "ties": 1947,
      "fortun": 1948,
      "perfectly": 1949,
      "vice": 1950,
      "shak": 1951,
      "iced": 1952,
      "mean": 1953,
      "bra": 1954,
      "daughter": 1955,
      "sheets": 1956,
      "raj": 1957,
      "pieces": 1958,
      "issues": 1959,
      "week": 1960,
      "cul": 1961,
      "fake": 1962,
      "excellent": 1963,
      "curtain": 1964,
      "mid": 1965,
      "ws": 1966,
      "lea": 1967,
      "ount": 1968,
      "mix": 1969,
      "entertain": 1970,
      "surpr": 1971,
      "cla": 1972,
      "iny": 1973,
      "cks": 1974,
      "tu": 1975,
      "break": 1976,
      "creat": 1977,
      "prot": 1978,
      "safe": 1979,
      "arn": 1980,
      "wall": 1981,
      "present": 1982,
      "favorite": 1983,
      "ier": 1984,
      "chang": 1985,
      "ens": 1986,
      "usband": 1987,
      "Chr": 1988,
      "ago": 1989,
      "development": 1990,
      "AL": 1991,
      "upa": 1992,
      "quickly": 1993,
      "shah": 1994,
      "door": 1995,
      "hist": 1996,
      "throw": 1997,
      "pet": 1998,
      "contin": 1999,
      "rel": 2000,
      "extra": 2001,
      "wn": 2002,
      "ah": 2003,
      "doesnt": 2004,
      "book": 2005,
      "indians": 2006,
      "kept": 2007,
      "actors": 2008,
      "sim": 2009,
      "Un": 2010,
      "fab": 2011,
      "medi": 2012,
      "saying": 2013,
      "wom": 2014,
      "lost": 2015,
      "ges": 2016,
      "ont": 2017,
      "metal": 2018,
      "jai": 2019,
      "called": 2020,
      "characters": 2021,
      "duct": 2022,
      "fair": 2023,
      "jar": 2024,
      "paid": 2025,
      "bath": 2026,
      "remember": 2027,
      "looked": 2028,
      "Some": 2029,
      "episo": 2030,
      "jobs": 2031,
      "sil": 2032,
      "pra": 2033,
      "warm": 2034,
      "soon": 2035,
      "special": 2036,
      "aster": 2037,
      "loy": 2038,
      "husband": 2039,
      "dle": 2040,
      "OR": 2041,
      "itself": 2042,
      "drink": 2043,
      "sound": 2044,
      "That": 2045,
      "fool": 2046,
      "stain": 2047,
      "uum": 2048,
      "ird": 2049,
      "watched": 2050,
      "huge": 2051,
      "sleep": 2052,
      "ground": 2053,
      "VE": 2054,
      "ying": 2055,
      "cas": 2056,
      "stor": 2057,
      "sor": 2058,
      "maj": 2059,
      "grow": 2060,
      "youn": 2061,
      "ched": 2062,
      "near": 2063,
      "batter": 2064,
      "uses": 2065,
      "usu": 2066,
      "vo": 2067,
      "type": 2068,
      "cups": 2069,
      "esome": 2070,
      "bags": 2071,
      "ends": 2072,
      "announce": 2073,
      "num": 2074,
      "colors": 2075,
      "asy": 2076,
      "advert": 2077,
      "pecially": 2078,
      "except": 2079,
      "counter": 2080,
      "oth": 2081,
      "respect": 2082,
      "saw": 2083,
      "sab": 2084,
      "complain": 2085,
      "sou": 2086,
      "reci": 2087,
      "vacuum": 2088,
      "especially": 2089,
      "gin": 2090,
      "larger": 2091,
      "taking": 2092,
      "completely": 2093,
      "proper": 2094,
      "bus": 2095,
      "paper": 2096,
      "ben": 2097,
      "reme": 2098,
      "unk": 2099,
      "date": 2100,
      "character": 2101,
      "ject": 2102,
      "didnt": 2103,
      "tray": 2104,
      "thanks": 2105,
      "enjoyed": 2106,
      "solutely": 2107,
      "remo": 2108,
      "missi": 2109,
      "nam": 2110,
      "politics": 2111,
      "spee": 2112,
      "Was": 2113,
      "scheme": 2114,
      "ution": 2115,
      "),": 2116,
      "Looks": 2117,
      "ities": 2118,
      "12": 2119,
      "mum": 2120,
      "regular": 2121,
      "UT": 2122,
      "amount": 2123,
      "ran": 2124,
      "inv": 2125,
      "sider": 2126,
      "rush": 2127,
      "crit": 2128,
      "pres": 2129,
      "Bought": 2130,
      "ades": 2131,
      "VER": 2132,
      "hat": 2133,
      "eat": 2134,
      "chan": 2135,
      "contest": 2136,
      "din": 2137,
      "count": 2138,
      "ware": 2139,
      "sl": 2140,
      "gest": 2141,
      "tic": 2142,
      "appear": 2143,
      "pat": 2144,
      "ug": 2145,
      "uc": 2146,
      "Pro": 2147,
      "demo": 2148,
      "hours": 2149,
      "rill": 2150,
      "wants": 2151,
      "30": 2152,
      "por": 2153,
      "congratul": 2154,
      "namo": 2155,
      "bring": 2156,
      "import": 2157,
      "fortunately": 2158,
      "perfor": 2159,
      "leaders": 2160,
      "vision": 2161,
      "matter": 2162,
      "dict": 2163,
      "aren": 2164,
      "igh": 2165,
      "bigger": 2166,
      "weeks": 2167,
      "fits": 2168,
      "fut": 2169,
      "pull": 2170,
      "All": 2171,
      "flat": 2172,
      "major": 2173,
      "isro": 2174,
      "difference": 2175,
      "bhar": 2176,
      "seat": 2177,
      "Its": 2178,
      "rug": 2179,
      "pose": 2180,
      "chi": 2181,
      "tar": 2182,
      "gree": 2183,
      "chor": 2184,
      "viol": 2185,
      "ams": 2186,
      "weak": 2187,
      "save": 2188,
      "thank": 2189,
      "resu": 2190,
      "machine": 2191,
      "within": 2192,
      "strike": 2193,
      "ising": 2194,
      "econom": 2195,
      "correct": 2196,
      "leg": 2197,
      "crore": 2198,
      "includ": 2199,
      "Li": 2200,
      "ka": 2201,
      "wind": 2202,
      "Well": 2203,
      "fabric": 2204,
      "ED": 2205,
      "destro": 2206,
      "wife": 2207,
      "sense": 2208,
      "tight": 2209,
      "parts": 2210,
      "Dis": 2211,
      "missile": 2212,
      "pass": 2213,
      "shower": 2214,
      "pick": 2215,
      "cold": 2216,
      "front": 2217,
      "hands": 2218,
      "alth": 2219,
      "shakti": 2220,
      "oil": 2221,
      "cha": 2222,
      "Other": 2223,
      "land": 2224,
      "meas": 2225,
      "aging": 2226,
      "yo": 2227,
      "model": 2228,
      "single": 2229,
      "ped": 2230,
      "happened": 2231,
      "imag": 2232,
      "papp": 2233,
      "sweet": 2234,
      "upid": 2235,
      "simple": 2236,
      "def": 2237,
      "keeps": 2238,
      "asat": 2239,
      "ided": 2240,
      "tax": 2241,
      "sad": 2242,
      "iron": 2243,
      "wonderful": 2244,
      "employ": 2245,
      "istmas": 2246,
      "inc": 2247,
      "prefer": 2248,
      "interview": 2249,
      "May": 2250,
      "consider": 2251,
      "corruption": 2252,
      "que": 2253,
      "Really": 2254,
      "acks": 2255,
      "dent": 2256,
      "company": 2257,
      "ability": 2258,
      "jour": 2259,
      "nar": 2260,
      "ref": 2261,
      "hindu": 2262,
      "middle": 2263,
      "fig": 2264,
      "She": 2265,
      "washer": 2266,
      "deep": 2267,
      "remely": 2268,
      "incre": 2269,
      "rust": 2270,
      "stopped": 2271,
      "seal": 2272,
      "dep": 2273,
      "sty": 2274,
      "AS": 2275,
      "iness": 2276,
      "replacement": 2277,
      "four": 2278,
      "fresh": 2279,
      "package": 2280,
      "ju": 2281,
      "ross": 2282,
      "guys": 2283,
      "000": 2284,
      "boring": 2285,
      "decent": 2286,
      "bank": 2287,
      "hit": 2288,
      "achievement": 2289,
      "rub": 2290,
      "amazing": 2291,
      "failed": 2292,
      "future": 2293,
      "sec": 2294,
      "means": 2295,
      "scr": 2296,
      "sign": 2297,
      "expecting": 2298,
      "siz": 2299,
      "link": 2300,
      "mine": 2301,
      "lves": 2302,
      "ake": 2303,
      "instru": 2304,
      "atta": 2305,
      "zy": 2306,
      "lack": 2307,
      "50": 2308,
      "trans": 2309,
      "young": 2310,
      "ral": 2311,
      "200": 2312,
      "conf": 2313,
      "ices": 2314,
      "yrs": 2315,
      "corn": 2316,
      "remove": 2317,
      "nal": 2318,
      "Easy": 2319,
      "frame": 2320,
      "Christmas": 2321,
      "arch": 2322,
      "hy": 2323,
      "ith": 2324,
      "Had": 2325,
      "certain": 2326,
      "hoping": 2327,
      "organ": 2328,
      "shipping": 2329,
      "decis": 2330,
      "Perfect": 2331,
      "pappu": 2332,
      "En": 2333,
      "worst": 2334,
      "stupid": 2335,
      "taken": 2336,
      "grand": 2337,
      "ined": 2338,
      "friends": 2339,
      "cab": 2340,
      "holds": 2341,
      "sharp": 2342,
      "talk": 2343,
      "Pre": 2344,
      "osed": 2345,
      "ING": 2346,
      "scratch": 2347,
      "lock": 2348,
      "tail": 2349,
      "polic": 2350,
      "leave": 2351,
      "knife": 2352,
      "candid": 2353,
      "Che": 2354,
      "honest": 2355,
      "five": 2356,
      "ief": 2357,
      "Can": 2358,
      "omy": 2359,
      "ond": 2360,
      "jay": 2361,
      "absolutely": 2362,
      "indias": 2363,
      "course": 2364,
      "bharat": 2365,
      "mist": 2366,
      "ict": 2367,
      "standard": 2368,
      "lect": 2369,
      "gir": 2370,
      "ky": 2371,
      "tract": 2372,
      "attack": 2373,
      "base": 2374,
      "guy": 2375,
      "thinking": 2376,
      "important": 2377,
      "TO": 2378,
      "level": 2379,
      "ident": 2380,
      "items": 2381,
      "!!!!": 2382,
      "lan": 2383,
      "ned": 2384,
      "poll": 2385,
      "ail": 2386,
      "along": 2387,
      "previous": 2388,
      "educ": 2389,
      "supposed": 2390,
      "icks": 2391,
      "terrible": 2392,
      "proof": 2393,
      "oven": 2394,
      "mot": 2395,
      "speech": 2396,
      "performan": 2397,
      "loose": 2398,
      "cooking": 2399,
      "Now": 2400,
      "deliver": 2401,
      "slight": 2402,
      "kets": 2403,
      "myself": 2404,
      "bhi": 2405,
      "ator": 2406,
      "mir": 2407,
      "later": 2408,
      "iti": 2409,
      "turned": 2410,
      "feels": 2411,
      "tou": 2412,
      "asi": 2413,
      "aper": 2414,
      "haven": 2415,
      "value": 2416,
      "scenes": 2417,
      "description": 2418,
      "spr": 2419,
      "problems": 2420,
      "build": 2421,
      "dro": 2422,
      "pressed": 2423,
      "ention": 2424,
      "figure": 2425,
      "\".": 2426,
      "mers": 2427,
      "filter": 2428,
      "send": 2429,
      "lets": 2430,
      "decided": 2431,
      "purpose": 2432,
      "uch": 2433,
      "lau": 2434,
      "bread": 2435,
      "cong": 2436,
      "washed": 2437,
      "ling": 2438,
      "LE": 2439,
      "team": 2440,
      "hear": 2441,
      "print": 2442,
      "alo": 2443,
      "otherwise": 2444,
      "himself": 2445,
      "match": 2446,
      "shot": 2447,
      "feature": 2448,
      "suppor": 2449,
      "awesome": 2450,
      "bt": 2451,
      "egg": 2452,
      "ited": 2453,
      "serious": 2454,
      "products": 2455,
      "ana": 2456,
      "reli": 2457,
      "solid": 2458,
      "OU": 2459,
      "meet": 2460,
      "setting": 2461,
      "green": 2462,
      "ming": 2463,
      "placed": 2464,
      "ital": 2465,
      "promised": 2466,
      "claim": 2467,
      "=\"": 2468,
      "idi": 2469,
      "tern": 2470,
      "blue": 2471,
      "behind": 2472,
      "mention": 2473,
      "ages": 2474,
      "opin": 2475,
      "based": 2476,
      "floor": 2477,
      "holes": 2478,
      "answer": 2479,
      "china": 2480,
      "function": 2481,
      "collection": 2482,
      "uts": 2483,
      "rid": 2484,
      "check": 2485,
      "ler": 2486,
      "pes": 2487,
      "squ": 2488,
      "ppl": 2489,
      "talking": 2490,
      "wards": 2491,
      "felt": 2492,
      "economy": 2493,
      "ized": 2494,
      "wed": 2495,
      "heart": 2496,
      "glad": 2497,
      "rule": 2498,
      "told": 2499,
      "seats": 2500,
      "comed": 2501,
      "scri": 2502,
      "clock": 2503,
      "experi": 2504,
      "entertaining": 2505,
      "adv": 2506,
      "To": 2507,
      "history": 2508,
      "outside": 2509,
      "accept": 2510,
      "gives": 2511,
      "akes": 2512,
      "army": 2513,
      "extremely": 2514,
      "films": 2515,
      "stem": 2516,
      "surg": 2517,
      "AR": 2518,
      "secur": 2519,
      "parties": 2520,
      "bhakts": 2521,
      "cabin": 2522,
      "seemed": 2523,
      "knows": 2524,
      "shape": 2525,
      "card": 2526,
      "ses": 2527,
      "loot": 2528,
      "finally": 2529,
      "ron": 2530,
      "smooth": 2531,
      "ize": 2532,
      "AND": 2533,
      "tech": 2534,
      "rent": 2535,
      "advertised": 2536,
      "destroy": 2537,
      "tot": 2538,
      "ster": 2539,
      "bathroom": 2540,
      "nat": 2541,
      "chief": 2542,
      "stre": 2543,
      "lots": 2544,
      "sides": 2545,
      "Maybe": 2546,
      "report": 2547,
      "mic": 2548,
      "simil": 2549,
      "health": 2550,
      "oh": 2551,
      "va": 2552,
      "rable": 2553,
      "install": 2554,
      "similar": 2555,
      "normal": 2556,
      "arely": 2557,
      "bottle": 2558,
      "sark": 2559,
      "window": 2560,
      "logy": 2561,
      "mad": 2562,
      "launch": 2563,
      "ball": 2564,
      "votes": 2565,
      "putting": 2566,
      "ian": 2567,
      "posit": 2568,
      "An": 2569,
      "project": 2570,
      "fell": 2571,
      "god": 2572,
      "Ar": 2573,
      "era": 2574,
      "push": 2575,
      "asing": 2576,
      "ram": 2577,
      "bul": 2578,
      "TV": 2579,
      "rating": 2580,
      "ific": 2581,
      "flu": 2582,
      "stuck": 2583,
      "women": 2584,
      "decor": 2585,
      "pleased": 2586,
      "contro": 2587,
      "ilt": 2588,
      "described": 2589,
      "bers": 2590,
      "hun": 2591,
      "totally": 2592,
      "??": 2593,
      "agree": 2594,
      "highly": 2595,
      "opinion": 2596,
      "cabinet": 2597,
      "area": 2598,
      "opened": 2599,
      "Over": 2600,
      "ense": 2601,
      "Ne": 2602,
      "laugh": 2603,
      "bud": 2604,
      "Ke": 2605,
      "ional": 2606,
      "dishwasher": 2607,
      "asked": 2608,
      "EN": 2609,
      "defe": 2610,
      "Even": 2611,
      "dir": 2612,
      "ulti": 2613,
      "protect": 2614,
      "whe": 2615,
      "conne": 2616,
      "missing": 2617,
      "2000": 2618,
      "antly": 2619,
      "gy": 2620,
      "shown": 2621,
      "towels": 2622,
      "zer": 2623,
      "partic": 2624,
      "**": 2625,
      "gone": 2626,
      "haha": 2627,
      "security": 2628,
      "net": 2629,
      "conduct": 2630,
      "often": 2631,
      "edge": 2632,
      "unless": 2633,
      "children": 2634,
      "oc": 2635,
      "begin": 2636,
      "fac": 2637,
      "rice": 2638,
      "employment": 2639,
      "bright": 2640,
      "search": 2641,
      "waiting": 2642,
      "amb": 2643,
      "steam": 2644,
      "mark": 2645,
      "concer": 2646,
      "simp": 2647,
      "Didn": 2648,
      "forward": 2649,
      "appro": 2650,
      "ural": 2651,
      "commun": 2652,
      "washing": 2653,
      "announcement": 2654,
      "measure": 2655,
      ".....": 2656,
      "event": 2657,
      "zi": 2658,
      "chance": 2659,
      "varan": 2660,
      "instructions": 2661,
      "surgical": 2662,
      "fix": 2663,
      "kash": 2664,
      "service": 2665,
      "cleaning": 2666,
      "bowl": 2667,
      "nicely": 2668,
      "citiz": 2669,
      "hes": 2670,
      "appe": 2671,
      "ris": 2672,
      "court": 2673,
      "gujar": 2674,
      "common": 2675,
      "ried": 2676,
      "addition": 2677,
      "Only": 2678,
      "dear": 2679,
      "trust": 2680,
      "tiny": 2681,
      "easier": 2682,
      "rally": 2683,
      "pans": 2684,
      "promise": 2685,
      "mother": 2686,
      "gujarat": 2687,
      "At": 2688,
      "lay": 2689,
      "VERY": 2690,
      "ably": 2691,
      "colate": 2692,
      "inch": 2693,
      "Qu": 2694,
      "fic": 2695,
      "sarkar": 2696,
      "simply": 2697,
      "je": 2698,
      "varanasi": 2699,
      "LY": 2700,
      "satis": 2701,
      "ied": 2702,
      "code": 2703,
      "speak": 2704,
      "overall": 2705,
      "system": 2706,
      "ged": 2707,
      "dre": 2708,
      "constit": 2709,
      "lts": 2710,
      "twice": 2711,
      "returning": 2712,
      "mit": 2713,
      "prof": 2714,
      "leadership": 2715,
      "maker": 2716,
      "style": 2717,
      "sets": 2718,
      "notice": 2719,
      "step": 2720,
      "properly": 2721,
      "spre": 2722,
      "deser": 2723,
      "promises": 2724,
      "Ok": 2725,
      "sugar": 2726,
      "sch": 2727,
      "reach": 2728,
      "US": 2729,
      "tit": 2730,
      "key": 2731,
      "learn": 2732,
      "congratulations": 2733,
      "cli": 2734,
      "atever": 2735,
      "fund": 2736,
      "law": 2737,
      "business": 2738,
      "living": 2739,
      "fied": 2740,
      "forget": 2741,
      "rich": 2742,
      "cord": 2743,
      "ggest": 2744,
      "gram": 2745,
      "graph": 2746,
      "added": 2747,
      "number": 2748,
      "shri": 2749,
      "dire": 2750,
      "brush": 2751,
      "ior": 2752,
      "across": 2753,
      "ency": 2754,
      "disappointing": 2755,
      "farmers": 2756,
      "ring": 2757,
      "touch": 2758,
      "avi": 2759,
      "pul": 2760,
      "words": 2761,
      "CH": 2762,
      "raid": 2763,
      "py": 2764,
      "attention": 2765,
      "cracy": 2766,
      "packaging": 2767,
      "mand": 2768,
      "avail": 2769,
      "muslims": 2770,
      "leak": 2771,
      "rack": 2772,
      "holder": 2773,
      "vers": 2774,
      "bes": 2775,
      "scam": 2776,
      "aks": 2777,
      "rss": 2778,
      "spread": 2779,
      "os": 2780,
      "steel": 2781,
      "flow": 2782,
      "sort": 2783,
      "lok": 2784,
      "mally": 2785,
      "anger": 2786,
      "cing": 2787,
      "although": 2788,
      "sorry": 2789,
      "wont": 2790,
      "useless": 2791,
      "politici": 2792,
      "suggest": 2793,
      "detail": 2794,
      "seeing": 2795,
      "term": 2796,
      "nel": 2797,
      "exp": 2798,
      "excit": 2799,
      "performance": 2800,
      "bhakt": 2801,
      "anno": 2802,
      "questions": 2803,
      "storage": 2804,
      "known": 2805,
      "prove": 2806,
      "cheaper": 2807,
      "journal": 2808,
      "asking": 2809,
      "voters": 2810,
      "blan": 2811,
      "pillows": 2812,
      "san": 2813,
      "hair": 2814,
      "container": 2815,
      "verage": 2816,
      "amit": 2817,
      "release": 2818,
      "candidate": 2819,
      "changed": 2820,
      "account": 2821,
      "24": 2822,
      "firm": 2823,
      "manu": 2824,
      "kin": 2825,
      "became": 2826,
      "ES": 2827,
      "screen": 2828,
      "morning": 2829,
      "wra": 2830,
      "remain": 2831,
      "truth": 2832,
      "sabha": 2833,
      "condition": 2834,
      "els": 2835,
      "fear": 2836,
      "plus": 2837,
      "Ret": 2838,
      "uni": 2839,
      "cot": 2840,
      "chocolate": 2841,
      "yourself": 2842,
      "constru": 2843,
      "Whi": 2844,
      "held": 2845,
      "neg": 2846,
      "word": 2847,
      "biggest": 2848,
      "rate": 2849,
      "tv": 2850,
      "Doesn": 2851,
      "assemble": 2852,
      "load": 2853,
      "filled": 2854,
      "ker": 2855,
      "music": 2856,
      "knives": 2857,
      "Excellent": 2858,
      "mb": 2859,
      "whatever": 2860,
      "foot": 2861,
      "fold": 2862,
      "acc": 2863,
      "cake": 2864,
      "seller": 2865,
      "running": 2866,
      "Still": 2867,
      "evi": 2868,
      "Pretty": 2869,
      "lad": 2870,
      "button": 2871,
      "episodes": 2872,
      "democracy": 2873,
      "nast": 2874,
      "ati": 2875,
      "wear": 2876,
      "Po": 2877,
      "dog": 2878,
      "singh": 2879,
      "11": 2880,
      "butter": 2881,
      "choice": 2882,
      "tastes": 2883,
      "rit": 2884,
      "soap": 2885,
      "Return": 2886,
      "ki": 2887,
      "LOVE": 2888,
      "pad": 2889,
      "lights": 2890,
      "jum": 2891,
      "istic": 2892,
      "bir": 2893,
      "See": 2894,
      "Com": 2895,
      "ender": 2896,
      "impressed": 2897,
      "pover": 2898,
      "trash": 2899,
      "loud": 2900,
      "wide": 2901,
      "youth": 2902,
      "horrible": 2903,
      "fant": 2904,
      "pour": 2905,
      "appreci": 2906,
      "cloth": 2907,
      "immedi": 2908,
      "sometimes": 2909,
      "grind": 2910,
      "straight": 2911,
      "predict": 2912,
      "oper": 2913,
      "ley": 2914,
      "classic": 2915,
      "likes": 2916,
      "office": 2917,
      "bent": 2918,
      "round": 2919,
      "role": 2920,
      "ety": 2921,
      "ished": 2922,
      "cheaply": 2923,
      "process": 2924,
      "uty": 2925,
      "brown": 2926,
      "gain": 2927,
      "feeling": 2928,
      "opening": 2929,
      "damaged": 2930,
      "Ro": 2931,
      "tles": 2932,
      "actual": 2933,
      "secure": 2934,
      "Cheap": 2935,
      "liqu": 2936,
      "daily": 2937,
      "fru": 2938,
      "lol": 2939,
      "poverty": 2940,
      "ahead": 2941,
      "vol": 2942,
      "rage": 2943,
      "salt": 2944,
      "mini": 2945,
      "available": 2946,
      "edges": 2947,
      "provi": 2948,
      "Unfortunately": 2949,
      "lier": 2950,
      "script": 2951,
      "manufact": 2952,
      "dv": 2953,
      "towel": 2954,
      "stainless": 2955,
      "failure": 2956,
      "ove": 2957,
      "coz": 2958,
      "disc": 2959,
      "offer": 2960,
      "screw": 2961,
      "pite": 2962,
      "listen": 2963,
      "Se": 2964,
      "priced": 2965,
      "ging": 2966,
      "offic": 2967,
      "slightly": 2968,
      "attract": 2969,
      "obvious": 2970,
      "surprised": 2971,
      "boy": 2972,
      "Or": 2973,
      "doll": 2974,
      "shelf": 2975,
      "particular": 2976,
      "force": 2977,
      "adjust": 2978,
      "arent": 2979,
      "commission": 2980,
      "treat": 2981,
      "luck": 2982,
      "fle": 2983,
      "none": 2984,
      "lids": 2985,
      "careful": 2986,
      "towards": 2987,
      "dies": 2988,
      "separ": 2989,
      "tempt": 2990,
      "income": 2991,
      "keeping": 2992,
      "ants": 2993,
      "ently": 2994,
      "school": 2995,
      "father": 2996,
      "usually": 2997,
      "langu": 2998,
      "ali": 2999,
      "blind": 3000,
      "tall": 3001,
      "Every": 3002,
      "message": 3003,
      "mill": 3004,
      "rew": 3005,
      "haps": 3006,
      "suff": 3007,
      "exam": 3008,
      "Fir": 3009,
      "data": 3010,
      "Like": 3011,
      "human": 3012,
      "road": 3013,
      "sum": 3014,
      "comment": 3015,
      "reading": 3016,
      "comedy": 3017,
      "critic": 3018,
      "rul": 3019,
      "heard": 3020,
      "temper": 3021,
      "doubt": 3022,
      "aur": 3023,
      "bail": 3024,
      "budget": 3025,
      "wo": 3026,
      "personal": 3027,
      "sun": 3028,
      "demone": 3029,
      "prop": 3030,
      "Disappoint": 3031,
      "ible": 3032,
      "compared": 3033,
      "master": 3034,
      "barely": 3035,
      "arm": 3036,
      "cream": 3037,
      "continu": 3038,
      "Could": 3039,
      "hook": 3040,
      "current": 3041,
      "dp": 3042,
      "ites": 3043,
      "ination": 3044,
      "join": 3045,
      "Beautiful": 3046,
      "sink": 3047,
      "program": 3048,
      "spl": 3049,
      "gri": 3050,
      "control": 3051,
      "late": 3052,
      "cking": 3053,
      "sitting": 3054,
      "states": 3055,
      "effects": 3056,
      "spend": 3057,
      "Have": 3058,
      "High": 3059,
      "aa": 3060,
      "played": 3061,
      "70": 3062,
      "uper": 3063,
      "forces": 3064,
      "enda": 3065,
      "announced": 3066,
      "stoo": 3067,
      "sequ": 3068,
      "actor": 3069,
      "glasses": 3070,
      "continue": 3071,
      "outh": 3072,
      "spect": 3073,
      "moving": 3074,
      "sex": 3075,
      "brought": 3076,
      "worse": 3077,
      "blame": 3078,
      "80": 3079,
      "built": 3080,
      "immediately": 3081,
      "beat": 3082,
      "lines": 3083,
      "awful": 3084,
      "request": 3085,
      "selves": 3086,
      "responsible": 3087,
      "Wish": 3088,
      "episode": 3089,
      "clearly": 3090,
      "bill": 3091,
      "rated": 3092,
      "mold": 3093,
      "cutting": 3094,
      "total": 3095,
      "supporting": 3096,
      "muslim": 3097,
      "local": 3098,
      "mug": 3099,
      "scientist": 3100,
      "modiji": 3101,
      "aap": 3102,
      "cry": 3103,
      "worry": 3104,
      "iv": 3105,
      "above": 3106,
      "song": 3107,
      "antis": 3108,
      "Nothing": 3109,
      "bage": 3110,
      "foam": 3111,
      "ile": 3112,
      "ray": 3113,
      "bur": 3114,
      "decision": 3115,
      "recent": 3116,
      "scene": 3117,
      "created": 3118,
      "ane": 3119,
      "refund": 3120,
      "OM": 3121,
      "bing": 3122,
      "bother": 3123,
      "durable": 3124,
      "IC": 3125,
      "pictured": 3126,
      "Col": 3127,
      "gas": 3128,
      "moment": 3129,
      "BE": 3130,
      "Super": 3131,
      "ience": 3132,
      "ired": 3133,
      "certainly": 3134,
      "liquid": 3135,
      "necess": 3136,
      "gotten": 3137,
      "poorly": 3138,
      "carry": 3139,
      "drama": 3140,
      "language": 3141,
      "fault": 3142,
      "bio": 3143,
      "gang": 3144,
      "amp": 3145,
      "including": 3146,
      "isation": 3147,
      "grou": 3148,
      "wing": 3149,
      "usual": 3150,
      "lon": 3151,
      "lose": 3152,
      "ney": 3153,
      "hoped": 3154,
      "minor": 3155,
      "lower": 3156,
      "tries": 3157,
      "somewhat": 3158,
      "double": 3159,
      "majority": 3160,
      "bility": 3161,
      "nu": 3162,
      "inder": 3163,
      "holding": 3164,
      "meric": 3165,
      "pictures": 3166,
      "delhi": 3167,
      "aware": 3168,
      "blanket": 3169,
      "explain": 3170,
      "older": 3171,
      "higher": 3172,
      "annoying": 3173,
      "tex": 3174,
      "handles": 3175,
      "nearly": 3176,
      "kashmir": 3177,
      "multi": 3178,
      "bottles": 3179,
      "BUT": 3180,
      "imple": 3181,
      "acted": 3182,
      "depend": 3183,
      "Overall": 3184,
      "ctor": 3185,
      "reality": 3186,
      "attempt": 3187,
      "eds": 3188,
      "covered": 3189,
      "sized": 3190,
      "agenda": 3191,
      "spent": 3192,
      "hur": 3193,
      "rep": 3194,
      "toast": 3195,
      "First": 3196,
      "feet": 3197,
      "fro": 3198,
      "van": 3199,
      "knew": 3200,
      "16": 3201,
      "cases": 3202,
      "sar": 3203,
      "south": 3204,
      "dig": 3205,
      "position": 3206,
      "brother": 3207,
      "THIS": 3208,
      "wave": 3209,
      "surface": 3210,
      "lakhs": 3211,
      "temperature": 3212,
      "accur": 3213,
      "While": 3214,
      "dvd": 3215,
      "lac": 3216,
      "iss": 3217,
      "hole": 3218,
      "Americ": 3219,
      "likely": 3220,
      "candles": 3221,
      "thi": 3222,
      "sour": 3223,
      "anks": 3224,
      "cted": 3225,
      "nasty": 3226,
      "OF": 3227,
      "trou": 3228,
      "blood": 3229,
      "policy": 3230,
      "hell": 3231,
      "cons": 3232,
      "antisatellite": 3233,
      "delic": 3234,
      "tel": 3235,
      "pract": 3236,
      "texture": 3237,
      "travel": 3238,
      "weird": 3239,
      "anda": 3240,
      "sident": 3241,
      "2012": 3242,
      "standing": 3243,
      "attach": 3244,
      "stren": 3245,
      "conven": 3246,
      "alone": 3247,
      "ples": 3248,
      "battery": 3249,
      "insu": 3250,
      "written": 3251,
      "fairly": 3252,
      "bon": 3253,
      "kh": 3254,
      "anim": 3255,
      "thes": 3256,
      "spir": 3257,
      "hindus": 3258,
      "bri": 3259,
      "center": 3260,
      "labe": 3261,
      "create": 3262,
      "fal": 3263,
      "lunch": 3264,
      "requi": 3265,
      "despite": 3266,
      "junk": 3267,
      "sold": 3268,
      "option": 3269,
      ".\"": 3270,
      "18": 3271,
      "falling": 3272,
      "tree": 3273,
      "dio": 3274,
      "chall": 3275,
      "defeat": 3276,
      "fing": 3277,
      "Bu": 3278,
      "bject": 3279,
      "MO": 3280,
      "trail": 3281,
      "DO": 3282,
      "average": 3283,
      "mall": 3284,
      "screws": 3285,
      "fans": 3286,
      "leaves": 3287,
      "rd": 3288,
      "blade": 3289,
      "vable": 3290,
      "social": 3291,
      "powerful": 3292,
      "target": 3293,
      "orn": 3294,
      "ala": 3295,
      "becomes": 3296,
      "ordering": 3297,
      "horror": 3298,
      "14": 3299,
      "anymore": 3300,
      "cracked": 3301,
      "instit": 3302,
      "custo": 3303,
      "mouth": 3304,
      "situ": 3305,
      "streng": 3306,
      "experience": 3307,
      "zz": 3308,
      "rived": 3309,
      "imp": 3310,
      "guest": 3311,
      "lasted": 3312,
      "itter": 3313,
      "truly": 3314,
      "microw": 3315,
      "inform": 3316,
      "lying": 3317,
      "ries": 3318,
      "72000": 3319,
      "suction": 3320,
      "electric": 3321,
      "rubber": 3322,
      "Le": 3323,
      "whether": 3324,
      "share": 3325,
      "thread": 3326,
      "courage": 3327,
      "crack": 3328,
      "predictable": 3329,
      "attractive": 3330,
      "Con": 3331,
      "dust": 3332,
      "noticed": 3333,
      "neck": 3334,
      "killed": 3335,
      "earlier": 3336,
      "propag": 3337,
      "stat": 3338,
      "ko": 3339,
      "hero": 3340,
      "threat": 3341,
      "realize": 3342,
      "desper": 3343,
      "batteries": 3344,
      "mostly": 3345,
      "ude": 3346,
      "deb": 3347,
      "draw": 3348,
      "tre": 3349,
      "ener": 3350,
      "nda": 3351,
      "recommended": 3352,
      "statement": 3353,
      "loc": 3354,
      "anyway": 3355,
      "useful": 3356,
      "general": 3357,
      "curtains": 3358,
      "oz": 3359,
      "repe": 3360,
      "ham": 3361,
      "liber": 3362,
      "inches": 3363,
      "sticks": 3364,
      "AY": 3365,
      "Got": 3366,
      "ering": 3367,
      "glish": 3368,
      "sand": 3369,
      "note": 3370,
      "playing": 3371,
      "game": 3372,
      "Won": 3373,
      "1st": 3374,
      "earth": 3375,
      "candle": 3376,
      "economic": 3377,
      "included": 3378,
      "cket": 3379,
      "dist": 3380,
      "period": 3381,
      "60": 3382,
      "mam": 3383,
      "themselves": 3384,
      "scent": 3385,
      "impossible": 3386,
      "Otherwise": 3387,
      "dge": 3388,
      "pol": 3389,
      "SE": 3390,
      "ather": 3391,
      "ping": 3392,
      "write": 3393,
      "gun": 3394,
      "milk": 3395,
      "mistake": 3396,
      "iff": 3397,
      "rant": 3398,
      "vill": 3399,
      "danger": 3400,
      "concept": 3401,
      ":(": 3402,
      "upd": 3403,
      "LL": 3404,
      "pair": 3405,
      "anka": 3406,
      "bang": 3407,
      "bey": 3408,
      "wins": 3409,
      "defect": 3410,
      "shut": 3411,
      "effort": 3412,
      "AC": 3413,
      "leng": 3414,
      "writing": 3415,
      "accurate": 3416,
      "president": 3417,
      "trad": 3418,
      "leading": 3419,
      "girl": 3420,
      "excited": 3421,
      "urch": 3422,
      "indira": 3423,
      "bhai": 3424,
      "ari": 3425,
      "invol": 3426,
      "hatred": 3427,
      "Returned": 3428,
      "duty": 3429,
      "liter": 3430,
      "Thank": 3431,
      "3rd": 3432,
      "decl": 3433,
      "forever": 3434,
      "eggs": 3435,
      "gold": 3436,
      "cheese": 3437,
      "clothes": 3438,
      "fruit": 3439,
      "jee": 3440,
      "wine": 3441,
      "aming": 3442,
      "jail": 3443,
      "delivered": 3444,
      "dead": 3445,
      "bat": 3446,
      "length": 3447,
      "block": 3448,
      "cris": 3449,
      "happens": 3450,
      "appears": 3451,
      "Co": 3452,
      "kno": 3453,
      "results": 3454,
      "Poor": 3455,
      "fantastic": 3456,
      "pun": 3457,
      "successfully": 3458,
      "switch": 3459,
      "growth": 3460,
      "hanging": 3461,
      "replaced": 3462,
      "packaged": 3463,
      "Cute": 3464,
      "third": 3465,
      "early": 3466,
      "pical": 3467,
      "cording": 3468,
      "closed": 3469,
      "achievements": 3470,
      "ential": 3471,
      "biopic": 3472,
      "trouble": 3473,
      "twist": 3474,
      "narr": 3475,
      "core": 3476,
      "peel": 3477,
      "ison": 3478,
      "ened": 3479,
      "noise": 3480,
      "grinder": 3481,
      "nahi": 3482,
      "crores": 3483,
      "khan": 3484,
      "mm": 3485,
      "toaster": 3486,
      "successful": 3487,
      "pressure": 3488,
      "Sh": 3489,
      "clu": 3490,
      "destroyed": 3491,
      "OD": 3492,
      "With": 3493,
      "Then": 3494,
      "shoot": 3495,
      "techno": 3496,
      "gue": 3497,
      "beginning": 3498,
      "fav": 3499,
      "result": 3500,
      "stru": 3501,
      "Definitely": 3502,
      "ush": 3503,
      "sau": 3504,
      "showing": 3505,
      "priy": 3506,
      "fire": 3507,
      "Ter": 3508,
      "mur": 3509,
      "threw": 3510,
      "production": 3511,
      "strikes": 3512,
      "toi": 3513,
      "serve": 3514,
      "aste": 3515,
      "bless": 3516,
      "bedroom": 3517,
      "amazon": 3518,
      "wala": 3519,
      "wel": 3520,
      "provide": 3521,
      "cakes": 3522,
      "slic": 3523,
      "vijay": 3524,
      "microwave": 3525,
      "UP": 3526,
      "raga": 3527,
      "riot": 3528,
      "unemployment": 3529,
      "boil": 3530,
      "visit": 3531,
      "mage": 3532,
      "developed": 3533,
      "rod": 3534,
      "wrink": 3535,
      "Up": 3536,
      "loo": 3537,
      "zen": 3538,
      "died": 3539,
      "opt": 3540,
      "baking": 3541,
      "kya": 3542,
      "dull": 3543,
      "voting": 3544,
      "cotton": 3545,
      ":)": 3546,
      "qual": 3547,
      "capability": 3548,
      "Hard": 3549,
      "ables": 3550,
      "twitter": 3551,
      "ambani": 3552,
      "gged": 3553,
      "fighting": 3554,
      "Arrived": 3555,
      "ences": 3556,
      "tape": 3557,
      "inks": 3558,
      "ises": 3559,
      "unfortunately": 3560,
      "humor": 3561,
      "slide": 3562,
      "places": 3563,
      "purchasing": 3564,
      "soldi": 3565,
      "imagine": 3566,
      "Ab": 3567,
      "pleas": 3568,
      "basic": 3569,
      "supporters": 3570,
      "Kind": 3571,
      "dd": 3572,
      "theat": 3573,
      "ai": 3574,
      "thor": 3575,
      "death": 3576,
      "bol": 3577,
      "kick": 3578,
      "closet": 3579,
      "terrorist": 3580,
      "mallya": 3581,
      "false": 3582,
      "foreign": 3583,
      "fur": 3584,
      "loss": 3585,
      "compar": 3586,
      "fami": 3587,
      "assu": 3588,
      "falls": 3589,
      "bene": 3590,
      "Ha": 3591,
      "fy": 3592,
      "kum": 3593,
      "moder": 3594,
      "raf": 3595,
      "priyanka": 3596,
      "enge": 3597,
      "terrorists": 3598,
      "consist": 3599,
      "elected": 3600,
      "containers": 3601,
      "die": 3602,
      "schemes": 3603,
      "negative": 3604,
      "gon": 3605,
      "covers": 3606,
      "Although": 3607,
      "books": 3608,
      "demon": 3609,
      "bled": 3610,
      "Thanks": 3611,
      "transfer": 3612,
      "group": 3613,
      "cir": 3614,
      "turns": 3615,
      "delivery": 3616,
      "unlike": 3617,
      "garbage": 3618,
      "regard": 3619,
      "13": 3620,
      "25": 3621,
      "crazy": 3622,
      "40": 3623,
      "Fun": 3624,
      "bunch": 3625,
      "spill": 3626,
      "dirty": 3627,
      "pls": 3628,
      "AD": 3629,
      "Joh": 3630,
      "flick": 3631,
      "avo": 3632,
      "designed": 3633,
      "uri": 3634,
      "height": 3635,
      "education": 3636,
      "positive": 3637,
      "\",": 3638,
      "dialo": 3639,
      "former": 3640,
      "finished": 3641,
      "brain": 3642,
      "enty": 3643,
      "ALL": 3644,
      "quiet": 3645,
      "crap": 3646,
      "mentioned": 3647,
      "six": 3648,
      "subst": 3649,
      "catch": 3650,
      "ato": 3651,
      "disappointment": 3652,
      "drawer": 3653,
      "propaganda": 3654,
      "posed": 3655,
      "kinda": 3656,
      "pump": 3657,
      "lywood": 3658,
      "everywhere": 3659,
      "stated": 3660,
      "mail": 3661,
      "bsp": 3662,
      "soci": 3663,
      "WI": 3664,
      "ets": 3665,
      "John": 3666,
      "minute": 3667,
      "onto": 3668,
      "assembly": 3669,
      "spot": 3670,
      "customer": 3671,
      "2nd": 3672,
      "Aw": 3673,
      "complaint": 3674,
      "candy": 3675,
      "culous": 3676,
      "satisfied": 3677,
      "redu": 3678,
      "peace": 3679,
      "sleeping": 3680,
      "stories": 3681,
      "popular": 3682,
      "channel": 3683,
      "necessary": 3684,
      "tele": 3685,
      "desh": 3686,
      "Look": 3687,
      "information": 3688,
      "adesh": 3689,
      "tough": 3690,
      "track": 3691,
      "drain": 3692,
      "compare": 3693,
      "defence": 3694,
      "rus": 3695,
      "zed": 3696,
      "Best": 3697,
      "GE": 3698,
      "Small": 3699,
      "ami": 3700,
      "Ho": 3701,
      "rand": 3702,
      "reasons": 3703,
      "rot": 3704,
      "Disappointed": 3705,
      "copy": 3706,
      "scared": 3707,
      "online": 3708,
      "aka": 3709,
      "starts": 3710,
      "frust": 3711,
      "legs": 3712,
      "Loved": 3713,
      "woman": 3714,
      "image": 3715,
      "za": 3716,
      "ridi": 3717,
      "Yes": 3718,
      "ku": 3719,
      "proved": 3720,
      "solution": 3721,
      "bowls": 3722,
      "educated": 3723,
      "sof": 3724,
      "docu": 3725,
      "handy": 3726,
      "AM": 3727,
      "thrill": 3728,
      "ories": 3729,
      "comfor": 3730,
      "afraid": 3731,
      "spec": 3732,
      "jam": 3733,
      "jud": 3734,
      "accoun": 3735,
      "seriously": 3736,
      "Highly": 3737,
      "Ste": 3738,
      "exist": 3739,
      "akot": 3740,
      "serv": 3741,
      "opport": 3742,
      "thicker": 3743,
      "iture": 3744,
      "upon": 3745,
      "artic": 3746,
      "independ": 3747,
      "heavi": 3748,
      "miss": 3749,
      "ford": 3750,
      "ield": 3751,
      "commit": 3752,
      "lip": 3753,
      "director": 3754,
      "Bo": 3755,
      "plate": 3756,
      "baby": 3757,
      "sizes": 3758,
      "sam": 3759,
      "orbit": 3760,
      "rafale": 3761,
      "ims": 3762,
      "orable": 3763,
      "stove": 3764,
      "constitu": 3765,
      "demonet": 3766,
      "cat": 3767,
      "strange": 3768,
      "convenient": 3769,
      "300": 3770,
      "Pe": 3771,
      "initi": 3772,
      "vidu": 3773,
      "facts": 3774,
      "paint": 3775,
      "implement": 3776,
      "rail": 3777,
      "helps": 3778,
      "SO": 3779,
      "Way": 3780,
      "conv": 3781,
      "path": 3782,
      "pm": 3783,
      "survi": 3784,
      "patter": 3785,
      "uten": 3786,
      "lives": 3787,
      "express": 3788,
      "display": 3789,
      "joke": 3790,
      "nyay": 3791,
      "Product": 3792,
      "situation": 3793,
      "altern": 3794,
      "chick": 3795,
      "orge": 3796,
      "cide": 3797,
      "following": 3798,
      "voice": 3799,
      "cow": 3800,
      "furn": 3801,
      "ppy": 3802,
      "Fe": 3803,
      "odd": 3804,
      "example": 3805,
      "dar": 3806,
      "among": 3807,
      "lovely": 3808,
      "ught": 3809,
      "teach": 3810,
      "spoon": 3811,
      "choose": 3812,
      "ides": 3813,
      "trailer": 3814,
      "swe": 3815,
      "oney": 3816,
      "enjoyable": 3817,
      "effective": 3818,
      "benefit": 3819,
      "tool": 3820,
      "scale": 3821,
      "birth": 3822,
      "Blu": 3823,
      "research": 3824,
      "glue": 3825,
      "spray": 3826,
      "beyond": 3827,
      "met": 3828,
      "dered": 3829,
      "politicians": 3830,
      "bc": 3831,
      "temp": 3832,
      "expectations": 3833,
      "patriot": 3834,
      "multiple": 3835,
      "ament": 3836,
      "silic": 3837,
      "individu": 3838,
      "gay": 3839,
      "dumb": 3840,
      "slip": 3841,
      "appreciate": 3842,
      "meat": 3843,
      "vil": 3844,
      "telling": 3845,
      "balakot": 3846,
      "LI": 3847,
      "terri": 3848,
      "allowed": 3849,
      "neither": 3850,
      "prep": 3851,
      "blow": 3852,
      "charge": 3853,
      "trick": 3854,
      "benef": 3855,
      "technology": 3856,
      "wama": 3857,
      "ONE": 3858,
      "according": 3859,
      "Im": 3860,
      "loan": 3861,
      "rench": 3862,
      "ines": 3863,
      "ances": 3864,
      "pattern": 3865,
      "below": 3866,
      "timer": 3867,
      "assam": 3868,
      "carpet": 3869,
      "citizens": 3870,
      ".)": 3871,
      "HO": 3872,
      "market": 3873,
      "attached": 3874,
      "indic": 3875,
      "empty": 3876,
      "gur": 3877,
      "remind": 3878,
      "icer": 3879,
      "corner": 3880,
      "directions": 3881,
      "dispen": 3882,
      "vari": 3883,
      "updates": 3884,
      "Bro": 3885,
      "gres": 3886,
      "breaking": 3887,
      "99": 3888,
      "mart": 3889,
      "tum": 3890,
      "vad": 3891,
      "weap": 3892,
      "directly": 3893,
      "construction": 3894,
      "eper": 3895,
      "rat": 3896,
      "liance": 3897,
      "teen": 3898,
      "owned": 3899,
      "basically": 3900,
      "avoid": 3901,
      "boo": 3902,
      "bak": 3903,
      "eason": 3904,
      "adding": 3905,
      "Act": 3906,
      "Go": 3907,
      "inser": 3908,
      "pepper": 3909,
      "milit": 3910,
      "ledge": 3911,
      "arnab": 3912,
      "dream": 3913,
      "profess": 3914,
      "jaw": 3915,
      "desk": 3916,
      "yellow": 3917,
      "seasons": 3918,
      "maha": 3919,
      "tasted": 3920,
      "damage": 3921,
      "supporter": 3922,
      "jas": 3923,
      "basket": 3924,
      "pure": 3925,
      "voted": 3926,
      "shelves": 3927,
      "sions": 3928,
      "smells": 3929,
      "hooks": 3930,
      "bum": 3931,
      "pal": 3932,
      "moves": 3933,
      "shit": 3934,
      "scra": 3935,
      "removed": 3936,
      "GH": 3937,
      "uck": 3938,
      "asc": 3939,
      "thermo": 3940,
      "filters": 3941,
      "mr": 3942,
      "isnt": 3943,
      "suit": 3944,
      "helped": 3945,
      "constantly": 3946,
      "functional": 3947,
      "yogi": 3948,
      "policies": 3949,
      "Pl": 3950,
      "sister": 3951,
      "tam": 3952,
      "becoming": 3953,
      "histor": 3954,
      "wire": 3955,
      "ury": 3956,
      "makers": 3957,
      "packed": 3958,
      "Made": 3959,
      "irt": 3960,
      "suppose": 3961,
      "appeal": 3962,
      "everyday": 3963,
      "released": 3964,
      "More": 3965,
      "represent": 3966,
      "whats": 3967,
      "imran": 3968,
      "Makes": 3969,
      "stiff": 3970,
      "silly": 3971,
      "furniture": 3972,
      "Bl": 3973,
      "dress": 3974,
      "ames": 3975,
      "Me": 3976,
      "Used": 3977,
      "missed": 3978,
      "perhaps": 3979,
      "filling": 3980,
      "Seems": 3981,
      "tomat": 3982,
      "mel": 3983,
      "ured": 3984,
      "Inter": 3985,
      "Movie": 3986,
      "Wal": 3987,
      "plic": 3988,
      "prevent": 3989,
      "apri": 3990,
      "cookies": 3991,
      "believable": 3992,
      "eyes": 3993,
      "nut": 3994,
      "showed": 3995,
      "flav": 3996,
      "prior": 3997,
      "winning": 3998,
      "yester": 3999,
      "GO": 4000,
      "pi": 4001,
      "badly": 4002,
      "zero": 4003,
      "pulwama": 4004,
      "Mar": 4005,
      "hence": 4006,
      "tha": 4007,
      "improve": 4008,
      "dynasty": 4009,
      "moments": 4010,
      "esting": 4011,
      "blu": 4012,
      "bles": 4013,
      "FOR": 4014,
      "chand": 4015,
      "hey": 4016,
      "natural": 4017,
      "90": 4018,
      "Much": 4019,
      "shoes": 4020,
      "delicious": 4021,
      "comforter": 4022,
      "aar": 4023,
      "serving": 4024,
      "China": 4025,
      "violence": 4026,
      "science": 4027,
      "various": 4028,
      "pitch": 4029,
      "amic": 4030,
      "wet": 4031,
      "features": 4032,
      "citizen": 4033,
      "icient": 4034,
      "KE": 4035,
      "eye": 4036,
      "glo": 4037,
      "wasted": 4038,
      "Keep": 4039,
      "mom": 4040,
      "lightweight": 4041,
      "mumkin": 4042,
      "Quality": 4043,
      "stays": 4044,
      "dishes": 4045,
      "london": 4046,
      "utter": 4047,
      "illa": 4048,
      "ridiculous": 4049,
      "pradesh": 4050,
      "interested": 4051,
      "document": 4052,
      "site": 4053,
      "ony": 4054,
      "atic": 4055,
      "absor": 4056,
      "unity": 4057,
      "shipped": 4058,
      "LD": 4059,
      "wow": 4060,
      "tho": 4061,
      "cele": 4062,
      "achieved": 4063,
      "literally": 4064,
      "45": 4065,
      "boxes": 4066,
      "Most": 4067,
      "details": 4068,
      "justice": 4069,
      "kumar": 4070,
      "jan": 4071,
      "ases": 4072,
      "tradition": 4073,
      "susp": 4074,
      "surprise": 4075,
      "6000": 4076,
      "tired": 4077,
      "tribut": 4078,
      "fraud": 4079,
      "portray": 4080,
      "4th": 4081,
      "tend": 4082,
      "bitter": 4083,
      "tasting": 4084,
      "correctly": 4085,
      "official": 4086,
      "recently": 4087,
      "gst": 4088,
      "gro": 4089,
      "dangerous": 4090,
      "Hor": 4091,
      "tub": 4092,
      "fluff": 4093,
      "strength": 4094,
      "lat": 4095,
      "cans": 4096,
      "obviously": 4097,
      "AP": 4098,
      "Mi": 4099,
      "typical": 4100,
      "smart": 4101,
      "chairs": 4102,
      "eating": 4103,
      "ining": 4104,
      "agar": 4105,
      "ify": 4106,
      "Why": 4107,
      "concerned": 4108,
      "hid": 4109,
      "realistic": 4110,
      "ashed": 4111,
      "VI": 4112,
      "redi": 4113,
      "jis": 4114,
      "reply": 4115,
      "decide": 4116,
      "progress": 4117,
      "cush": 4118,
      "chai": 4119,
      "Worked": 4120,
      "Car": 4121,
      "minimum": 4122,
      "Is": 4123,
      "gad": 4124,
      "meant": 4125,
      "reviewers": 4126,
      "defective": 4127,
      "involved": 4128,
      "further": 4129,
      "Bet": 4130,
      "batch": 4131,
      "eli": 4132,
      "secre": 4133,
      "veget": 4134,
      "comments": 4135,
      "opener": 4136,
      "logic": 4137,
      "wit": 4138,
      "isi": 4139,
      "ceive": 4140,
      "focus": 4141,
      "tellig": 4142,
      "members": 4143,
      "connect": 4144,
      "Ser": 4145,
      "ene": 4146,
      "strate": 4147,
      "Star": 4148,
      "busy": 4149,
      "incredi": 4150,
      "nobody": 4151,
      "chem": 4152,
      "juice": 4153,
      "modern": 4154,
      "tag": 4155,
      "partment": 4156,
      "Sp": 4157,
      "nels": 4158,
      "memory": 4159,
      "points": 4160,
      "GRE": 4161,
      "tun": 4162,
      "stud": 4163,
      "stands": 4164,
      "cooker": 4165,
      "popcorn": 4166,
      "ugly": 4167,
      "narrative": 4168,
      "tweets": 4169,
      "manufactur": 4170,
      "Oh": 4171,
      "mohan": 4172,
      "evenly": 4173,
      "crimin": 4174,
      "flavors": 4175,
      "spin": 4176,
      "spots": 4177,
      "ference": 4178,
      "medium": 4179,
      "april": 4180,
      "yesterday": 4181,
      "parli": 4182,
      "Has": 4183,
      "Sor": 4184,
      "chok": 4185,
      "ripped": 4186,
      "grade": 4187,
      "pink": 4188,
      "whom": 4189,
      "izing": 4190,
      "kettle": 4191,
      "kward": 4192,
      "claims": 4193,
      "insul": 4194,
      "range": 4195,
      "wake": 4196,
      "polls": 4197,
      "gent": 4198,
      "intellig": 4199,
      "countries": 4200,
      "Two": 4201,
      "happening": 4202,
      "leaks": 4203,
      "Cle": 4204,
      "male": 4205,
      "regi": 4206,
      "dimen": 4207,
      "hain": 4208,
      "blender": 4209,
      "antimodi": 4210,
      "RI": 4211,
      "considering": 4212,
      "max": 4213,
      "stronger": 4214,
      "potato": 4215,
      "English": 4216,
      "favour": 4217,
      "Any": 4218,
      "Never": 4219,
      "Season": 4220,
      "loans": 4221,
      "usable": 4222,
      "starting": 4223,
      "cross": 4224,
      "Once": 4225,
      "debate": 4226,
      "vict": 4227,
      "infl": 4228,
      "utions": 4229,
      "plz": 4230,
      "sonia": 4231,
      "paying": 4232,
      "Ano": 4233,
      "final": 4234,
      "speed": 4235,
      "followed": 4236,
      "stret": 4237,
      "Su": 4238,
      "Since": 4239,
      "compet": 4240,
      "jumla": 4241,
      "constituency": 4242,
      "invest": 4243,
      "gion": 4244,
      "thru": 4245,
      "worried": 4246,
      "update": 4247,
      "Purch": 4248,
      "meer": 4249,
      "selling": 4250,
      "American": 4251,
      "capt": 4252,
      "storyline": 4253,
      "fridge": 4254,
      "fasc": 4255,
      "jars": 4256,
      "lal": 4257,
      "ingredi": 4258,
      "estern": 4259,
      "promo": 4260,
      "anywhere": 4261,
      "burning": 4262,
      "celebr": 4263,
      "chemical": 4264,
      "TI": 4265,
      "grill": 4266,
      "roast": 4267,
      "tasty": 4268,
      "thinks": 4269,
      "thinner": 4270,
      "----": 4271,
      "icip": 4272,
      "regime": 4273,
      "crow": 4274,
      "liar": 4275,
      "gging": 4276,
      "march": 4277,
      "parliament": 4278,
      "ening": 4279,
      "ribut": 4280,
      "plenty": 4281,
      "hangers": 4282,
      "brands": 4283,
      "collect": 4284,
      "terrorism": 4285,
      "relation": 4286,
      "17": 4287,
      "inexpensive": 4288,
      "highest": 4289,
      "presso": 4290,
      "abt": 4291,
      "international": 4292,
      "throughout": 4293,
      "hood": 4294,
      "sick": 4295,
      "building": 4296,
      "orange": 4297,
      "usion": 4298,
      "mild": 4299,
      "aded": 4300,
      "bucks": 4301,
      "stores": 4302,
      "sharpen": 4303,
      "west": 4304,
      "areas": 4305,
      "healthy": 4306,
      "zipper": 4307,
      "provided": 4308,
      "Terrible": 4309,
      "meerut": 4310,
      "gust": 4311,
      "stal": 4312,
      "soldiers": 4313,
      "WAS": 4314,
      "corners": 4315,
      "cru": 4316,
      "toh": 4317,
      "chin": 4318,
      "powder": 4319,
      "culture": 4320,
      "rilli": 4321,
      "Buy": 4322,
      "families": 4323,
      "YOU": 4324,
      "__": 4325,
      "ously": 4326,
      "contribut": 4327,
      "cooked": 4328,
      "shameless": 4329,
      "accounts": 4330,
      "sending": 4331,
      "awkward": 4332,
      "plays": 4333,
      "prote": 4334,
      "summer": 4335,
      "ified": 4336,
      "weren": 4337,
      "photos": 4338,
      "remote": 4339,
      "motor": 4340,
      "title": 4341,
      "beng": 4342,
      "receive": 4343,
      "beans": 4344,
      "coll": 4345,
      "intended": 4346,
      "occas": 4347,
      "required": 4348,
      "lif": 4349,
      "oooo": 4350,
      "minis": 4351,
      "speaking": 4352,
      "drinking": 4353,
      "silicone": 4354,
      "ckets": 4355,
      "nuts": 4356,
      "andh": 4357,
      "stable": 4358,
      "idiot": 4359,
      "advani": 4360,
      "ME": 4361,
      "vet": 4362,
      "plates": 4363,
      "alarm": 4364,
      "discus": 4365,
      "murder": 4366,
      "slog": 4367,
      "skill": 4368,
      "entertainment": 4369,
      "GREAT": 4370,
      "PR": 4371,
      "WH": 4372,
      "meal": 4373,
      "sud": 4374,
      "leaving": 4375,
      "dirt": 4376,
      "Came": 4377,
      "az": 4378,
      "dryer": 4379,
      "rallies": 4380,
      "chose": 4381,
      "seconds": 4382,
      "arently": 4383,
      "dough": 4384,
      "spring": 4385,
      "Use": 4386,
      "kuch": 4387,
      "ID": 4388,
      "fish": 4389,
      "aly": 4390,
      "meter": 4391,
      "whose": 4392,
      "blades": 4393,
      "calling": 4394,
      "eff": 4395,
      "drop": 4396,
      "grip": 4397,
      "Jo": 4398,
      "Watch": 4399,
      "tur": 4400,
      "pean": 4401,
      "quit": 4402,
      "Another": 4403,
      "BU": 4404,
      "workout": 4405,
      "ticket": 4406,
      "meeting": 4407,
      "article": 4408,
      "bling": 4409,
      "source": 4410,
      "kan": 4411,
      "queen": 4412,
      "sauce": 4413,
      "matic": 4414,
      "Worth": 4415,
      "meaning": 4416,
      "Sorry": 4417,
      "bars": 4418,
      "wob": 4419,
      "chopp": 4420,
      "skin": 4421,
      "angle": 4422,
      "soup": 4423,
      "narrow": 4424,
      "ered": 4425,
      "turning": 4426,
      "Bad": 4427,
      "fat": 4428,
      "fry": 4429,
      "atleast": 4430,
      "moved": 4431,
      "comb": 4432,
      "placing": 4433,
      "spoons": 4434,
      "deserve": 4435,
      "direction": 4436,
      "chicken": 4437,
      "Who": 4438,
      "inde": 4439,
      "mode": 4440,
      "section": 4441,
      "guj": 4442,
      "guts": 4443,
      "tor": 4444,
      "dogs": 4445,
      "eventually": 4446,
      "variety": 4447,
      "adult": 4448,
      "igno": 4449,
      "......": 4450,
      "dialogue": 4451,
      "heavier": 4452,
      "military": 4453,
      "UN": 4454,
      "ils": 4455,
      "nations": 4456,
      "Purchased": 4457,
      "moun": 4458,
      "forced": 4459,
      "yeah": 4460,
      "bold": 4461,
      "PO": 4462,
      "coating": 4463,
      "subject": 4464,
      "background": 4465,
      "anned": 4466,
      "numbers": 4467,
      "Fits": 4468,
      "bend": 4469,
      "greatest": 4470,
      "ues": 4471,
      "ensure": 4472,
      "ote": 4473,
      "tran": 4474,
      "content": 4475,
      "cleaner": 4476,
      "karnat": 4477,
      "Wonder": 4478,
      "==": 4479,
      "WE": 4480,
      "iner": 4481,
      "orrow": 4482,
      "lied": 4483,
      "kej": 4484,
      "hassle": 4485,
      "particularly": 4486,
      "brilli": 4487,
      "adani": 4488,
      "guar": 4489,
      "magne": 4490,
      "Cl": 4491,
      "emot": 4492,
      "lighter": 4493,
      "contact": 4494,
      "secular": 4495,
      "mass": 4496,
      "ration": 4497,
      "formed": 4498,
      "cubes": 4499,
      "bengal": 4500,
      "mein": 4501,
      "boot": 4502,
      "hardly": 4503,
      "drinks": 4504,
      "amethi": 4505,
      "square": 4506,
      "Interesting": 4507,
      "Gu": 4508,
      "NE": 4509,
      "chips": 4510,
      "dollar": 4511,
      "esy": 4512,
      "intro": 4513,
      "rajan": 4514,
      "separate": 4515,
      "digital": 4516,
      "weapon": 4517,
      "hide": 4518,
      "knowledge": 4519,
      "tube": 4520,
      "honestly": 4521,
      "Okay": 4522,
      "Update": 4523,
      "heating": 4524,
      "ndtv": 4525,
      "ideo": 4526,
      "record": 4527,
      "conut": 4528,
      "hose": 4529,
      "scary": 4530,
      "served": 4531,
      "hearing": 4532,
      "winter": 4533,
      "ilities": 4534,
      "graphy": 4535,
      "politician": 4536,
      "alternative": 4537,
      "manufacturer": 4538,
      "field": 4539,
      "kha": 4540,
      "tear": 4541,
      "grab": 4542,
      "cm": 4543,
      "stage": 4544,
      "lled": 4545,
      "talent": 4546,
      "btw": 4547,
      "alliance": 4548,
      "consu": 4549,
      "north": 4550,
      "reco": 4551,
      "caught": 4552,
      "ures": 4553,
      "ards": 4554,
      "rugs": 4555,
      "faith": 4556,
      "personally": 4557,
      "las": 4558,
      "esh": 4559,
      "grees": 4560,
      "afford": 4561,
      "carto": 4562,
      "ATE": 4563,
      "planning": 4564,
      "edit": 4565,
      "ada": 4566,
      "thu": 4567,
      "demand": 4568,
      "indust": 4569,
      "ization": 4570,
      "couch": 4571,
      "burned": 4572,
      "rolled": 4573,
      "Te": 4574,
      "waf": 4575,
      "inno": 4576,
      "engine": 4577,
      "\">": 4578,
      "thetic": 4579,
      "deter": 4580,
      "exposed": 4581,
      "laun": 4582,
      "marks": 4583,
      "journalist": 4584,
      "gonna": 4585,
      "judge": 4586,
      "TER": 4587,
      "toss": 4588,
      "ours": 4589,
      "complaints": 4590,
      "500": 4591,
      "wan": 4592,
      "alleg": 4593,
      "lemon": 4594,
      "lling": 4595,
      "exe": 4596,
      "permission": 4597,
      "wah": 4598,
      "cardboard": 4599,
      "kejri": 4600,
      "Big": 4601,
      "roo": 4602,
      "ruined": 4603,
      "response": 4604,
      "silver": 4605,
      "girls": 4606,
      "karnataka": 4607,
      "select": 4608,
      "ads": 4609,
      "constitution": 4610,
      "challenge": 4611,
      "stun": 4612,
      "fol": 4613,
      "growing": 4614,
      "victory": 4615,
      "God": 4616,
      "ease": 4617,
      "pac": 4618,
      "hah": 4619,
      "tejas": 4620,
      "capable": 4621,
      "creating": 4622,
      "stood": 4623,
      "police": 4624,
      "Pri": 4625,
      "city": 4626,
      "dal": 4627,
      "odor": 4628,
      "jump": 4629,
      "abl": 4630,
      "uncomfortable": 4631,
      "tian": 4632,
      "spout": 4633,
      "talks": 4634,
      "Chris": 4635,
      "organic": 4636,
      "desperate": 4637,
      "cum": 4638,
      "vey": 4639,
      "losing": 4640,
      "scar": 4641,
      "carefully": 4642,
      "gifts": 4643,
      "sounds": 4644,
      "linked": 4645,
      "options": 4646,
      "ns": 4647,
      "tific": 4648,
      "tee": 4649,
      "possi": 4650,
      "birthday": 4651,
      "72": 4652,
      "lor": 4653,
      "vegg": 4654,
      "lift": 4655,
      "plug": 4656,
      "religion": 4657,
      "accom": 4658,
      "sia": 4659,
      "audi": 4660,
      "tenure": 4661,
      "sym": 4662,
      "Need": 4663,
      "lored": 4664,
      "scams": 4665,
      "institutions": 4666,
      "society": 4667,
      "cies": 4668,
      "paren": 4669,
      "satell": 4670,
      "lam": 4671,
      "town": 4672,
      "cleaned": 4673,
      "Should": 4674,
      "Ray": 4675,
      "arun": 4676,
      "oop": 4677,
      "tip": 4678,
      "brew": 4679,
      "tells": 4680,
      "freezer": 4681,
      "thrown": 4682,
      "contesting": 4683,
      "wrap": 4684,
      "atives": 4685,
      "laundry": 4686,
      "rip": 4687,
      "governance": 4688,
      "Awesome": 4689,
      "AST": 4690,
      "peoples": 4691,
      "limited": 4692,
      "claimed": 4693,
      "demonetisation": 4694,
      "Of": 4695,
      "espresso": 4696,
      "aya": 4697,
      "apple": 4698,
      "Better": 4699,
      "satellites": 4700,
      "Save": 4701,
      "insp": 4702,
      "intel": 4703,
      "cher": 4704,
      "adu": 4705,
      "warrant": 4706,
      "reasonable": 4707,
      "hypo": 4708,
      "label": 4709,
      "Hol": 4710,
      "piz": 4711,
      "antination": 4712,
      "bub": 4713,
      "realized": 4714,
      "changes": 4715,
      "secret": 4716,
      "rin": 4717,
      "stone": 4718,
      "solve": 4719,
      "popul": 4720,
      "Color": 4721,
      "lick": 4722,
      "odis": 4723,
      "saved": 4724,
      "jait": 4725,
      "flex": 4726,
      "coconut": 4727,
      "pressing": 4728,
      "freed": 4729,
      "images": 4730,
      "kit": 4731,
      "stack": 4732,
      "admit": 4733,
      "jag": 4734,
      "defin": 4735,
      "credi": 4736,
      ",,": 4737,
      "Sad": 4738,
      "blo": 4739,
      "bust": 4740,
      "hh": 4741,
      "ip": 4742,
      "rise": 4743,
      "vibr": 4744,
      "spatul": 4745,
      "portion": 4746,
      "toilet": 4747,
      "ARE": 4748,
      "Waste": 4749,
      "hous": 4750,
      "ara": 4751,
      "terms": 4752,
      "tive": 4753,
      "activ": 4754,
      "snack": 4755,
      "rank": 4756,
      "rock": 4757,
      "belong": 4758,
      "sight": 4759,
      "stock": 4760,
      "potential": 4761,
      "titles": 4762,
      "divi": 4763,
      "Probably": 4764,
      "dollars": 4765,
      "documentary": 4766,
      "gum": 4767,
      "tt": 4768,
      "ilar": 4769,
      "holders": 4770,
      "snap": 4771,
      "banks": 4772,
      "evil": 4773,
      "Our": 4774,
      "regre": 4775,
      "manmohan": 4776,
      "acity": 4777,
      "Thought": 4778,
      "flour": 4779,
      "washes": 4780,
      "calls": 4781,
      "chowkidars": 4782,
      "runs": 4783,
      "listed": 4784,
      "measuring": 4785,
      "wedding": 4786,
      "communal": 4787,
      "pid": 4788,
      "ands": 4789,
      "deposit": 4790,
      "apan": 4791,
      "views": 4792,
      "ashing": 4793,
      "signific": 4794,
      "community": 4795,
      "AVE": 4796,
      "Fo": 4797,
      "degree": 4798,
      "actress": 4799,
      "cookie": 4800,
      "parents": 4801,
      "Tom": 4802,
      "ults": 4803,
      "holi": 4804,
      "baar": 4805,
      "decades": 4806,
      "explo": 4807,
      "ingredients": 4808,
      "aid": 4809,
      "dence": 4810,
      "emer": 4811,
      "psy": 4812,
      "hurt": 4813,
      "individual": 4814,
      "asp": 4815,
      "asks": 4816,
      "speaks": 4817,
      "attacks": 4818,
      "tamil": 4819,
      "BO": 4820,
      "tap": 4821,
      "acy": 4822,
      "dried": 4823,
      "surprising": 4824,
      "million": 4825,
      "theme": 4826,
      "armed": 4827,
      "bear": 4828,
      "2018": 4829,
      "tested": 4830,
      "balls": 4831,
      "guarant": 4832,
      "Ad": 4833,
      "envi": 4834,
      "cture": 4835,
      "abuse": 4836,
      "suspense": 4837,
      "Tast": 4838,
      "sla": 4839,
      "device": 4840,
      "maint": 4841,
      "anted": 4842,
      "mental": 4843,
      "trump": 4844,
      "helpful": 4845,
      "sale": 4846,
      "pots": 4847,
      "shoots": 4848,
      "killing": 4849,
      "Lots": 4850,
      "western": 4851,
      "reve": 4852,
      "tops": 4853,
      "scratches": 4854,
      "benefits": 4855,
      "Des": 4856,
      "born": 4857,
      "republic": 4858,
      "establ": 4859,
      "central": 4860,
      "Exactly": 4861,
      "launched": 4862,
      "theatre": 4863,
      "border": 4864,
      "beg": 4865,
      "ung": 4866,
      "cape": 4867,
      "saving": 4868,
      "craft": 4869,
      "beautifully": 4870,
      "haters": 4871,
      "zation": 4872,
      "ths": 4873,
      "ordin": 4874,
      "dic": 4875,
      "floors": 4876,
      "vaj": 4877,
      "liberals": 4878,
      "welcome": 4879,
      "tank": 4880,
      "mechan": 4881,
      "wid": 4882,
      "ado": 4883,
      "serves": 4884,
      "brit": 4885,
      "rolling": 4886,
      "finger": 4887,
      "odisha": 4888,
      "bin": 4889,
      "mate": 4890,
      "marri": 4891,
      "xx": 4892,
      "cham": 4893,
      "icing": 4894,
      "verse": 4895,
      "unable": 4896,
      "misleading": 4897,
      "viewing": 4898,
      "frequ": 4899,
      "Fin": 4900,
      "ww": 4901,
      "ching": 4902,
      "increase": 4903,
      "HE": 4904,
      "lls": 4905,
      "beware": 4906,
      "doors": 4907,
      "knowing": 4908,
      "Horrible": 4909,
      "Cu": 4910,
      "requ": 4911,
      "lyn": 4912,
      "shif": 4913,
      "disaster": 4914,
      "related": 4915,
      "split": 4916,
      "intellect": 4917,
      "environ": 4918,
      "Ple": 4919,
      "New": 4920,
      "Tot": 4921,
      "ini": 4922,
      "liner": 4923,
      "mixer": 4924,
      "energy": 4925,
      "orgeous": 4926,
      "sits": 4927,
      "tig": 4928,
      "corpor": 4929,
      "dropped": 4930,
      "faces": 4931,
      "VIE": 4932,
      "King": 4933,
      "prom": 4934,
      "disgust": 4935,
      "safety": 4936,
      "Char": 4937,
      "Mc": 4938,
      "sport": 4939,
      "darker": 4940,
      "scratched": 4941,
      "Ordered": 4942,
      "bies": 4943,
      "cise": 4944,
      "dan": 4945,
      "arms": 4946,
      "actions": 4947,
      "accident": 4948,
      "fingers": 4949,
      "Hope": 4950,
      "Both": 4951,
      "cbi": 4952,
      "pray": 4953,
      "affect": 4954,
      "UR": 4955,
      "oral": 4956,
      "alot": 4957,
      "hasn": 4958,
      "credits": 4959,
      "channels": 4960,
      "BLE": 4961,
      "fash": 4962,
      "arts": 4963,
      "rupe": 4964,
      "pakistani": 4965,
      "addressing": 4966,
      "changing": 4967,
      "execut": 4968,
      "bcoz": 4969,
      "garlic": 4970,
      "names": 4971,
      "lady": 4972,
      "pizza": 4973,
      "CO": 4974,
      "itive": 4975,
      "stitch": 4976,
      "youre": 4977,
      "finding": 4978,
      "picked": 4979,
      "ev": 4980,
      "nbsp": 4981,
      "govts": 4982,
      "freedom": 4983,
      "Ju": 4984,
      "Man": 4985,
      "hata": 4986,
      "thy": 4987,
      "thus": 4988,
      "reject": 4989,
      "colored": 4990,
      "raise": 4991,
      "anta": 4992,
      "gry": 4993,
      "2017": 4994,
      "wai": 4995,
      "alore": 4996,
      "folks": 4997,
      "pound": 4998,
      "forms": 4999,
      "suck": 5000,
      "bored": 5001,
      "fier": 5002,
      "tension": 5003,
      "videos": 5004,
      "allows": 5005,
      "chipped": 5006,
      "CT": 5007,
      "vy": 5008,
      "access": 5009,
      "blend": 5010,
      "visible": 5011,
      "hopes": 5012,
      "og": 5013,
      "sters": 5014,
      "degrees": 5015,
      "bihar": 5016,
      "nationalism": 5017,
      "rolls": 5018,
      "dimensions": 5019,
      "sudden": 5020,
      "crush": 5021,
      "goo": 5022,
      "sin": 5023,
      "irts": 5024,
      "willing": 5025,
      "antic": 5026,
      "walk": 5027,
      "clips": 5028,
      "Mine": 5029,
      "ager": 5030,
      "backing": 5031,
      "journalists": 5032,
      "Brit": 5033,
      "Har": 5034,
      "Ri": 5035,
      "vels": 5036,
      "ppers": 5037,
      "tooth": 5038,
      "massive": 5039,
      "shop": 5040,
      "GOOD": 5041,
      "cushion": 5042,
      "prompt": 5043,
      "mms": 5044,
      "amer": 5045,
      "somehow": 5046,
      "mugs": 5047,
      "funds": 5048,
      "Enjoy": 5049,
      "alright": 5050,
      "stale": 5051,
      "grey": 5052,
      "speeches": 5053,
      "hung": 5054,
      "</": 5055,
      "Mr": 5056,
      "WAY": 5057,
      "afe": 5058,
      "department": 5059,
      "exact": 5060,
      "imm": 5061,
      "gile": 5062,
      "evidence": 5063,
      "brilliant": 5064,
      "gic": 5065,
      "bert": 5066,
      "spoil": 5067,
      "Perhaps": 5068,
      "opportunity": 5069,
      "fashion": 5070,
      "Light": 5071,
      "arrest": 5072,
      "amy": 5073,
      "train": 5074,
      "bai": 5075,
      "gandhis": 5076,
      "ceramic": 5077,
      "waited": 5078,
      "basis": 5079,
      "pleasant": 5080,
      "35": 5081,
      "IF": 5082,
      "bby": 5083,
      "equ": 5084,
      "gdp": 5085,
      "user": 5086,
      "produced": 5087,
      "surely": 5088,
      "pulled": 5089,
      "additional": 5090,
      "unique": 5091,
      "Get": 5092,
      "ret": 5093,
      "pret": 5094,
      "therefore": 5095,
      "gray": 5096,
      "author": 5097,
      "respected": 5098,
      "acceptable": 5099,
      "UST": 5100,
      "pil": 5101,
      "shor": 5102,
      "nonsense": 5103,
      "jaitley": 5104,
      "leep": 5105,
      "abhin": 5106,
      "Item": 5107,
      "wooden": 5108,
      "increased": 5109,
      "steps": 5110,
      "bie": 5111,
      "moist": 5112,
      "format": 5113,
      "upcoming": 5114,
      "spice": 5115,
      "olds": 5116,
      "figured": 5117,
      "looted": 5118,
      "deserves": 5119,
      "nuclear": 5120,
      "ino": 5121,
      "ghar": 5122,
      "comput": 5123,
      "apparently": 5124,
      "drawers": 5125,
      "pitcher": 5126,
      "26": 5127,
      "F8": 5128,
      "io": 5129,
      "vestig": 5130,
      "hanger": 5131,
      "Because": 5132,
      "kejriwal": 5133,
      "regret": 5134,
      "aj": 5135,
      "ragh": 5136,
      "ups": 5137,
      "boss": 5138,
      "trip": 5139,
      "introdu": 5140,
      "vajpay": 5141,
      "apo": 5142,
      "rv": 5143,
      "thous": 5144,
      "forgot": 5145,
      "effor": 5146,
      "phone": 5147,
      "UTF8": 5148,
      "leaked": 5149,
      "thermometer": 5150,
      "ilarious": 5151,
      "rural": 5152,
      "uro": 5153,
      "recei": 5154,
      "cop": 5155,
      "denied": 5156,
      "mixed": 5157,
      "EX": 5158,
      "Ed": 5159,
      "investig": 5160,
      "iter": 5161,
      "dev": 5162,
      "greed": 5163,
      "MY": 5164,
      "kas": 5165,
      "upset": 5166,
      "anticip": 5167,
      "Decent": 5168,
      "impact": 5169,
      "Plus": 5170,
      "efforts": 5171,
      "French": 5172,
      "d_": 5173,
      "dare": 5174,
      "ek": 5175,
      "rbi": 5176,
      "raw": 5177,
      "nois": 5178,
      "crook": 5179,
      "slowly": 5180,
      "practical": 5181,
      "cm_": 5182,
      "nicer": 5183,
      "accent": 5184,
      "ague": 5185,
      "ids": 5186,
      "umin": 5187,
      "cr_": 5188,
      "letter": 5189,
      "Absolutely": 5190,
      "jammu": 5191,
      "cm_cr_": 5192,
      "cine": 5193,
      "nap": 5194,
      "p_": 5195,
      "distribut": 5196,
      "bjps": 5197,
      "fragile": 5198,
      "DVDs": 5199,
      "relative": 5200,
      "recipe": 5201,
      "yr": 5202,
      "dip": 5203,
      "produce": 5204,
      "appropri": 5205,
      "anch": 5206,
      "icy": 5207,
      "crum": 5208,
      "pointed": 5209,
      "include": 5210,
      "Kitchen": 5211,
      "aspect": 5212,
      "poses": 5213,
      "REAL": 5214,
      "apartment": 5215,
      "squee": 5216,
      "madam": 5217,
      "honey": 5218,
      "object": 5219,
      "sess": 5220,
      "ceed": 5221,
      "feed": 5222,
      "cuts": 5223,
      "GHT": 5224,
      "++": 5225,
      "lab": 5226,
      "mc": 5227,
      "sri": 5228,
      "enced": 5229,
      "advent": 5230,
      "purple": 5231,
      "pride": 5232,
      "pasta": 5233,
      "abhinand": 5234,
      "faster": 5235,
      "nit": 5236,
      "lear": 5237,
      "uttar": 5238,
      "apped": 5239,
      "finan": 5240,
      "player": 5241,
      "passed": 5242,
      "Everything": 5243,
      "slid": 5244,
      "beef": 5245,
      "breaks": 5246,
      "decisions": 5247,
      "insert": 5248,
      "BUY": 5249,
      "indeed": 5250,
      "Wonderful": 5251,
      "weigh": 5252,
      "marke": 5253,
      "balance": 5254,
      "depth": 5255,
      "spreading": 5256,
      "mant": 5257,
      "rof": 5258,
      "rings": 5259,
      "refri": 5260,
      "perform": 5261,
      "supports": 5262,
      "phir": 5263,
      "movement": 5264,
      "bringing": 5265,
      "sealed": 5266,
      "measurements": 5267,
      "appeared": 5268,
      "status": 5269,
      "warranty": 5270,
      "cash": 5271,
      "ornam": 5272,
      "uti": 5273,
      "aked": 5274,
      "voter": 5275,
      "pricey": 5276,
      "praise": 5277,
      "wrapped": 5278,
      "strugg": 5279,
      "raghu": 5280,
      "aay": 5281,
      "isin": 5282,
      "exper": 5283,
      "spac": 5284,
      "joint": 5285,
      "berry": 5286,
      "3D": 5287,
      "dad": 5288,
      "lection": 5289,
      "raised": 5290,
      "removing": 5291,
      "wearing": 5292,
      "challeng": 5293,
      "bangalore": 5294,
      "Keeps": 5295,
      "rooms": 5296,
      "hatao": 5297,
      "vate": 5298,
      "argu": 5299,
      "shed": 5300,
      "conference": 5301,
      "fellow": 5302,
      "constructed": 5303,
      "urig": 5304,
      "vajpayee": 5305,
      "ued": 5306,
      "upper": 5307,
      "vic": 5308,
      "ghters": 5309,
      "Sturdy": 5310,
      "sangh": 5311,
      "Gave": 5312,
      "amed": 5313,
      "pockets": 5314,
      "manage": 5315,
      "modishah": 5316,
      "bandhan": 5317,
      "silent": 5318,
      "fourth": 5319,
      "performances": 5320,
      "shorter": 5321,
      ",\"": 5322,
      "gant": 5323,
      "coal": 5324,
      "rights": 5325,
      "sticky": 5326,
      "minorities": 5327,
      "melted": 5328,
      "Gre": 5329,
      "Took": 5330,
      "aries": 5331,
      "ideas": 5332,
      "sticking": 5333,
      "Couldn": 5334,
      "lacs": 5335,
      "requires": 5336,
      "veggies": 5337,
      "gap": 5338,
      "arrive": 5339,
      "completed": 5340,
      "capacity": 5341,
      "drying": 5342,
      "learned": 5343,
      "Tried": 5344,
      "began": 5345,
      "tire": 5346,
      "idence": 5347,
      "mats": 5348,
      "panel": 5349,
      "biased": 5350,
      "logical": 5351,
      "operation": 5352,
      "75": 5353,
      "leaking": 5354,
      "helping": 5355,
      "rajas": 5356,
      "battle": 5357,
      "_t": 5358,
      "resi": 5359,
      "refer": 5360,
      "types": 5361,
      "resist": 5362,
      "hindust": 5363,
      "followers": 5364,
      "assembled": 5365,
      "democr": 5366,
      "legal": 5367,
      "maintain": 5368,
      "rvw": 5369,
      "Sha": 5370,
      "pin": 5371,
      "ionally": 5372,
      "pros": 5373,
      "ministers": 5374,
      "continues": 5375,
      "d_rvw": 5376,
      "Coffee": 5377,
      "href": 5378,
      "toler": 5379,
      "arp_": 5380,
      "compe": 5381,
      "spending": 5382,
      "violation": 5383,
      "=\"/": 5384,
      "cm_cr_arp_": 5385,
      "_txt": 5386,
      "d_rvw_txt": 5387,
      "cm_cr_arp_d_rvw_txt": 5388,
      "Pack": 5389,
      "neat": 5390,
      "neath": 5391,
      "pocket": 5392,
      "elite": 5393,
      "dinner": 5394,
      "dispenser": 5395,
      "Gi": 5396,
      "impress": 5397,
      "download": 5398,
      "ruling": 5399,
      "enemy": 5400,
      "Glad": 5401,
      "War": 5402,
      "inte": 5403,
      "lame": 5404,
      "mesh": 5405,
      "hardware": 5406,
      "compli": 5407,
      "chowkidaar": 5408,
      "questioning": 5409,
      "confusing": 5410,
      "Her": 5411,
      "jab": 5412,
      "mere": 5413,
      "neut": 5414,
      "cheesy": 5415,
      "acha": 5416,
      "specially": 5417,
      "arrival": 5418,
      "friendly": 5419,
      "yoj": 5420,
      "frozen": 5421,
      "lint": 5422,
      "wouldnt": 5423,
      "2013": 5424,
      "empower": 5425,
      "comparison": 5426,
      "Smaller": 5427,
      "environment": 5428,
      "adi": 5429,
      "cery": 5430,
      "influ": 5431,
      "chest": 5432,
      "abad": 5433,
      "shout": 5434,
      "ders": 5435,
      "wax": 5436,
      "largest": 5437,
      "supported": 5438,
      "lacking": 5439,
      "discs": 5440,
      "antinational": 5441,
      "gross": 5442,
      "underneath": 5443,
      "click": 5444,
      "global": 5445,
      "audience": 5446,
      "400": 5447,
      "Bar": 5448,
      "FE": 5449,
      "Japan": 5450,
      "overpriced": 5451,
      "matters": 5452,
      "---": 5453,
      "projects": 5454,
      "east": 5455,
      "jer": 5456,
      "plu": 5457,
      "ifes": 5458,
      "cycle": 5459,
      "caste": 5460,
      "poster": 5461,
      "chip": 5462,
      "Prime": 5463,
      "anced": 5464,
      "whis": 5465,
      "matches": 5466,
      "flaw": 5467,
      "fancy": 5468,
      "magnet": 5469,
      "college": 5470,
      "fools": 5471,
      "bulky": 5472,
      "billion": 5473,
      "russia": 5474,
      "supre": 5475,
      "exer": 5476,
      "spices": 5477,
      "puts": 5478,
      "........": 5479,
      "tomorrow": 5480,
      "subtitles": 5481,
      "shooting": 5482,
      "survive": 5483,
      "elimin": 5484,
      "hing": 5485,
      "tie": 5486,
      "2016": 5487,
      "salute": 5488,
      "painted": 5489,
      "publicity": 5490,
      "trays": 5491,
      "advant": 5492,
      "MOVIE": 5493,
      "thrilled": 5494,
      "latest": 5495,
      "disgusting": 5496,
      "Nor": 5497,
      "equi": 5498,
      "lap": 5499,
      "tab": 5500,
      "ulous": 5501,
      "straw": 5502,
      "risk": 5503,
      "professional": 5504,
      "andhra": 5505,
      "App": 5506,
      "bits": 5507,
      "swi": 5508,
      "somewhere": 5509,
      "commer": 5510,
      "1000": 5511,
      "require": 5512,
      "cere": 5513,
      "poo": 5514,
      "aro": 5515,
      "stro": 5516,
      "bomb": 5517,
      "blaming": 5518,
      "wanting": 5519,
      "salad": 5520,
      "thickness": 5521,
      "kerala": 5522,
      "vibrant": 5523,
      "computer": 5524,
      "CE": 5525,
      "replacing": 5526,
      "encies": 5527,
      "web": 5528,
      "pops": 5529,
      "teas": 5530,
      "duvet": 5531,
      "grandson": 5532,
      "Ti": 5533,
      "dom": 5534,
      "enjoying": 5535,
      "factory": 5536,
      "clip": 5537,
      "hidden": 5538,
      "Hollywood": 5539,
      "dated": 5540,
      "inspir": 5541,
      "asha": 5542,
      "ica": 5543,
      "muff": 5544,
      "bake": 5545,
      "ashes": 5546,
      "exciting": 5547,
      "slogan": 5548,
      "DE": 5549,
      "aim": 5550,
      "rout": 5551,
      "workers": 5552,
      "broad": 5553,
      "harder": 5554,
      "babu": 5555,
      "wishes": 5556,
      "addresses": 5557,
      "directed": 5558,
      "settings": 5559,
      "installed": 5560,
      "population": 5561,
      "Ger": 5562,
      "chal": 5563,
      "uneven": 5564,
      "neigh": 5565,
      "adequ": 5566,
      "shouldn": 5567,
      "audio": 5568,
      "capital": 5569,
      "demoneti": 5570,
      "Red": 5571,
      "riots": 5572,
      "tile": 5573,
      "aint": 5574,
      "mise": 5575,
      "mani": 5576,
      "compan": 5577,
      "confident": 5578,
      "reports": 5579,
      "By": 5580,
      "HAVE": 5581,
      "awhile": 5582,
      "bark": 5583,
      "gorgeous": 5584,
      "absolute": 5585,
      "ula": 5586,
      "plush": 5587,
      "joshi": 5588,
      "elsewhere": 5589,
      "****": 5590,
      "concern": 5591,
      "Black": 5592,
      "mn": 5593,
      "stir": 5594,
      "theres": 5595,
      "webs": 5596,
      "196": 5597,
      "stains": 5598,
      "candidates": 5599,
      "patriotism": 5600,
      "relationship": 5601,
      "Str": 5602,
      "topper": 5603,
      "arth": 5604,
      "warped": 5605,
      "Received": 5606,
      "syrup": 5607,
      "considered": 5608,
      "religi": 5609,
      "offered": 5610,
      "noisy": 5611,
      "isinart": 5612,
      "neutral": 5613,
      "ume": 5614,
      "chit": 5615,
      "ays": 5616,
      "nomin": 5617,
      "prices": 5618,
      "manner": 5619,
      "izer": 5620,
      "slice": 5621,
      "refriger": 5622,
      "23rd": 5623,
      "From": 5624,
      "messy": 5625,
      "steamer": 5626,
      "fixed": 5627,
      "Ext": 5628,
      "bh": 5629,
      "escape": 5630,
      "adap": 5631,
      "farmer": 5632,
      "worthy": 5633,
      "nationalist": 5634,
      "generation": 5635,
      "mumbai": 5636,
      "repeated": 5637,
      "Fast": 5638,
      "esti": 5639,
      "ander": 5640,
      "tips": 5641,
      "tras": 5642,
      "tools": 5643,
      "throwing": 5644,
      "regarding": 5645,
      ":-": 5646,
      "stery": 5647,
      "lasts": 5648,
      "fitting": 5649,
      "THAT": 5650,
      "Story": 5651,
      "painting": 5652,
      "skil": 5653,
      "ironing": 5654,
      "songs": 5655,
      "grocery": 5656,
      "vegetables": 5657,
      "collap": 5658,
      "guarantee": 5659,
      "mut": 5660,
      "vin": 5661,
      "mod": 5662,
      "ctive": 5663,
      "vir": 5664,
      "whenever": 5665,
      "covering": 5666,
      "hint": 5667,
      "pit": 5668,
      "lesson": 5669,
      "events": 5670,
      "substanti": 5671,
      "email": 5672,
      "hilarious": 5673,
      "shad": 5674,
      "adults": 5675,
      "shirts": 5676,
      "fitted": 5677,
      "study": 5678,
      "hindut": 5679,
      "materials": 5680,
      "sky": 5681,
      "destroying": 5682,
      "mirror": 5683,
      "integr": 5684,
      "Jack": 5685,
      "ax": 5686,
      "dance": 5687,
      "outer": 5688,
      "scoop": 5689,
      "pathetic": 5690,
      "auto": 5691,
      "slides": 5692,
      "appearance": 5693,
      "sandwi": 5694,
      "gressive": 5695,
      "abhinandan": 5696,
      "rajasthan": 5697,
      "website": 5698,
      "Hand": 5699,
      "gle": 5700,
      "hindi": 5701,
      "atal": 5702,
      "seam": 5703,
      "comfy": 5704,
      "perman": 5705,
      "endor": 5706,
      "shall": 5707,
      "outstanding": 5708,
      "eless": 5709,
      "todays": 5710,
      "stayed": 5711,
      "camera": 5712,
      "electoral": 5713,
      "smoke": 5714,
      "sequel": 5715,
      "witness": 5716,
      "Mag": 5717,
      "rhe": 5718,
      "credited": 5719,
      "senior": 5720,
      "humidi": 5721,
      "jiv": 5722,
      "statements": 5723,
      "congrats": 5724,
      "amboo": 5725,
      "electricity": 5726,
      "kam": 5727,
      "moti": 5728,
      "adds": 5729,
      "openly": 5730,
      "crime": 5731,
      "kiya": 5732,
      "wrinkles": 5733,
      "independent": 5734,
      "gentle": 5735,
      "jagan": 5736,
      "Please": 5737,
      "GI": 5738,
      "fly": 5739,
      "abilities": 5740,
      "apply": 5741,
      "couldnt": 5742,
      "united": 5743,
      "drive": 5744,
      "foolish": 5745,
      "vadra": 5746,
      "traditional": 5747,
      "incredibly": 5748,
      "magnets": 5749,
      "hindustan": 5750,
      "WOR": 5751,
      "tong": 5752,
      "tables": 5753,
      "seams": 5754,
      "liye": 5755,
      "0000": 5756,
      "wrote": 5757,
      "governments": 5758,
      "gari": 5759,
      "normally": 5760,
      "versions": 5761,
      "Second": 5762,
      "innocent": 5763,
      "marketing": 5764,
      "heater": 5765,
      "hol": 5766,
      "favorites": 5767,
      "windows": 5768,
      "inflation": 5769,
      "ideology": 5770,
      "Di": 5771,
      "ert": 5772,
      "manual": 5773,
      "responsi": 5774,
      "grounds": 5775,
      "cartoon": 5776,
      "22": 5777,
      "theater": 5778,
      "urs": 5779,
      "concl": 5780,
      "dos": 5781,
      "famous": 5782,
      "neighb": 5783,
      "rass": 5784,
      "chill": 5785,
      "shopp": 5786,
      "dum": 5787,
      "recipes": 5788,
      "sofa": 5789,
      "prepared": 5790,
      "mechanism": 5791,
      "appropriate": 5792,
      "Ge": 5793,
      "lag": 5794,
      "mint": 5795,
      "dete": 5796,
      "factor": 5797,
      "superpower": 5798,
      "previously": 5799,
      "USA": 5800,
      "tomato": 5801,
      "raghuram": 5802,
      "Out": 5803,
      "Price": 5804,
      "fli": 5805,
      "page": 5806,
      "thum": 5807,
      "inner": 5808,
      "ald": 5809,
      "novel": 5810,
      "lax": 5811,
      "THING": 5812,
      "superb": 5813,
      "shortly": 5814,
      "crying": 5815,
      "UL": 5816,
      "ache": 5817,
      "vs": 5818,
      "vas": 5819,
      "stur": 5820,
      "!!!!!": 5821,
      "younger": 5822,
      "confidence": 5823,
      "pouring": 5824,
      "bloody": 5825,
      "club": 5826,
      "potatoes": 5827,
      "Finally": 5828,
      "iaf": 5829,
      "dump": 5830,
      "grace": 5831,
      "foods": 5832,
      "campaigning": 5833,
      "mixing": 5834,
      "remains": 5835,
      "UPD": 5836,
      "random": 5837,
      "religious": 5838,
      "kcr": 5839,
      "anybody": 5840,
      "boys": 5841,
      "imal": 5842,
      "cutter": 5843,
      "burnt": 5844,
      "limit": 5845,
      "Keurig": 5846,
      "stretch": 5847,
      "een": 5848,
      "nature": 5849,
      "asleep": 5850,
      "chant": 5851,
      "oom": 5852,
      "ares": 5853,
      "checked": 5854,
      "everybody": 5855,
      "managed": 5856,
      "tale": 5857,
      "fails": 5858,
      "sucks": 5859,
      "testing": 5860,
      "sadly": 5861,
      "employed": 5862,
      "iction": 5863,
      "ENT": 5864,
      "guests": 5865,
      "independence": 5866,
      "spatula": 5867,
      "!)": 5868,
      "Lu": 5869,
      "pas": 5870,
      "aling": 5871,
      "shiny": 5872,
      "caf": 5873,
      "sake": 5874,
      "2015": 5875,
      "creep": 5876,
      "phys": 5877,
      "medio": 5878,
      "incense": 5879,
      "Disappointing": 5880,
      "television": 5881,
      "Boring": 5882,
      "IR": 5883,
      "Ru": 5884,
      "faded": 5885,
      "kr": 5886,
      "kis": 5887,
      "ero": 5888,
      "active": 5889,
      "ears": 5890,
      "mins": 5891,
      "LOT": 5892,
      "rusted": 5893,
      "ruled": 5894,
      "OME": 5895,
      "spirit": 5896,
      "advantage": 5897,
      "pace": 5898,
      "sector": 5899,
      "cos": 5900,
      "premise": 5901,
      "noon": 5902,
      "governor": 5903,
      "Wouldn": 5904,
      "daughters": 5905,
      "Sometimes": 5906,
      "journey": 5907,
      "OULD": 5908,
      "flowers": 5909,
      "vanilla": 5910,
      "bonus": 5911,
      "IL": 5912,
      "invent": 5913,
      "delight": 5914,
      "rim": 5915,
      "2024": 5916,
      "string": 5917,
      "margin": 5918,
      "dreams": 5919,
      "softer": 5920,
      "mrmodi": 5921,
      "demonetization": 5922,
      "Shar": 5923,
      "nood": 5924,
      "thod": 5925,
      "nowhere": 5926,
      "bland": 5927,
      "contra": 5928,
      "promising": 5929,
      "announces": 5930,
      "hated": 5931,
      "pmo": 5932,
      "info": 5933,
      "iling": 5934,
      "bodies": 5935,
      "wondering": 5936,
      "Disney": 5937,
      "clusive": 5938,
      "financial": 5939,
      ":/": 5940,
      "career": 5941,
      "ANY": 5942,
      "dedic": 5943,
      "approach": 5944,
      "repeat": 5945,
      "commercial": 5946,
      "cart": 5947,
      "rajiv": 5948,
      "female": 5949,
      "sils": 5950,
      "hadn": 5951,
      "hopefully": 5952,
      "embar": 5953,
      "moral": 5954,
      "named": 5955,
      "printed": 5956,
      "???": 5957,
      "ICE": 5958,
      "thorough": 5959,
      "democratic": 5960,
      "supreme": 5961,
      "Bre": 5962,
      "Cra": 5963,
      "End": 5964,
      "kal": 5965,
      "pms": 5966,
      "dia": 5967,
      "loses": 5968,
      "sci": 5969,
      "powers": 5970,
      "award": 5971,
      "solved": 5972,
      "heats": 5973,
      "ags": 5974,
      "facing": 5975,
      "UPDATE": 5976,
      "Dra": 5977,
      "HS": 5978,
      "shatter": 5979,
      "ivity": 5980,
      "ordinary": 5981,
      "James": 5982,
      "Wow": 5983,
      "fles": 5984,
      "mk": 5985,
      "nie": 5986,
      "melt": 5987,
      "liking": 5988,
      "aller": 5989,
      "vive": 5990,
      "extras": 5991,
      "joined": 5992,
      "cleans": 5993,
      "closer": 5994,
      "file": 5995,
      "confused": 5996,
      "sweat": 5997,
      "criminal": 5998,
      "reven": 5999,
      "revol": 6000,
      "wider": 6001,
      "adorable": 6002,
      "lessly": 6003,
      "oppose": 6004,
      "packing": 6005,
      "genre": 6006,
      "custom": 6007,
      "standards": 6008,
      "ridge": 6009,
      "buttons": 6010,
      "currently": 6011,
      "bollywood": 6012,
      "specific": 6013,
      "efficient": 6014,
      "hindutva": 6015,
      "hits": 6016,
      "ading": 6017,
      "wealth": 6018,
      "planned": 6019,
      "scrub": 6020,
      "counting": 6021,
      "bris": 6022,
      "glued": 6023,
      "carafe": 6024,
      "garage": 6025,
      "gency": 6026,
      "lucky": 6027,
      "threads": 6028,
      "utensils": 6029,
      "Cuisinart": 6030,
      "bun": 6031,
      "kins": 6032,
      "itude": 6033,
      "almon": 6034,
      "mood": 6035,
      "beli": 6036,
      "feat": 6037,
      "spare": 6038,
      "corrup": 6039,
      "shaped": 6040,
      "cares": 6041,
      "vored": 6042,
      "terrific": 6043,
      "fluffy": 6044,
      "Pot": 6045,
      "oul": 6046,
      "mush": 6047,
      "Recommend": 6048,
      "heads": 6049,
      "kari": 6050,
      "generally": 6051,
      "historical": 6052,
      "flexible": 6053,
      "AA": 6054,
      "Last": 6055,
      "bamboo": 6056,
      "ull": 6057,
      "udes": 6058,
      "rec": 6059,
      "race": 6060,
      "exc": 6061,
      "caused": 6062,
      "connection": 6063,
      "attachment": 6064,
      "knock": 6065,
      "consistent": 6066,
      "flip": 6067,
      "uine": 6068,
      "roy": 6069,
      "magic": 6070,
      "gujrat": 6071,
      "suddenly": 6072,
      "sliding": 6073,
      "mediocre": 6074,
      "Pic": 6075,
      "bare": 6076,
      "gers": 6077,
      "ras": 6078,
      "fooled": 6079,
      "accused": 6080,
      "Acting": 6081,
      "students": 6082,
      "possibly": 6083,
      "prosper": 6084,
      "SH": 6085,
      "wers": 6086,
      "alys": 6087,
      "opposed": 6088,
      "region": 6089,
      "frames": 6090,
      "boards": 6091,
      "rajdeep": 6092,
      "avid": 6093,
      "WITH": 6094,
      "28": 6095,
      "Fil": 6096,
      "VHS": 6097,
      "Wi": 6098,
      "kers": 6099,
      "nes": 6100,
      "sac": 6101,
      "advice": 6102,
      "dozen": 6103,
      "brings": 6104,
      "trait": 6105,
      "automat": 6106,
      "crowd": 6107,
      "stitching": 6108,
      "crooked": 6109,
      "uminum": 6110,
      ".,": 6111,
      "Bas": 6112,
      "ners": 6113,
      "english": 6114,
      "depic": 6115,
      "hype": 6116,
      "laughing": 6117,
      "reduced": 6118,
      "Shi": 6119,
      "rare": 6120,
      "prin": 6121,
      "evening": 6122,
      "2002": 6123,
      "Enter": 6124,
      "strengthen": 6125,
      "liberal": 6126,
      "Having": 6127,
      "cers": 6128,
      "itation": 6129,
      "hav": 6130,
      "host": 6131,
      "centre": 6132,
      "chop": 6133,
      "posted": 6134,
      "spoke": 6135,
      "walls": 6136,
      "declared": 6137,
      "boiling": 6138,
      "popularity": 6139,
      "gau": 6140,
      "dim": 6141,
      "blah": 6142,
      "nights": 6143,
      "plane": 6144,
      "destru": 6145,
      "breakfast": 6146,
      "Wasn": 6147,
      "frequently": 6148,
      "Extremely": 6149,
      "rad": 6150,
      "yani": 6151,
      "aside": 6152,
      "suspect": 6153,
      "returns": 6154,
      "lux": 6155,
      "drip": 6156,
      "doub": 6157,
      "tificial": 6158,
      "Food": 6159,
      "PE": 6160,
      "mber": 6161,
      "uals": 6162,
      "error": 6163,
      "isa": 6164,
      "ester": 6165,
      "feku": 6166,
      "canister": 6167,
      "nath": 6168,
      "mile": 6169,
      "originally": 6170,
      "noticeable": 6171,
      "terribly": 6172,
      "hall": 6173,
      "pant": 6174,
      "forth": 6175,
      "beer": 6176,
      "racy": 6177,
      "nail": 6178,
      "kindly": 6179,
      "auty": 6180,
      "genuine": 6181,
      "swamy": 6182,
      "Ye": 6183,
      "ाे": 6184,
      "abhi": 6185,
      "abusing": 6186,
      "improved": 6187,
      "rental": 6188,
      "THER": 6189,
      "iously": 6190,
      "humid": 6191,
      "accompl": 6192,
      "companies": 6193,
      "Ty": 6194,
      "equal": 6195,
      "remark": 6196,
      "todd": 6197,
      "arian": 6198,
      "congres": 6199,
      "ulty": 6200,
      "acts": 6201,
      "lighting": 6202,
      "stomach": 6203,
      "gather": 6204,
      "skirt": 6205,
      "animation": 6206,
      "assume": 6207,
      "Walmart": 6208,
      "ministry": 6209,
      "aven": 6210,
      "cad": 6211,
      "hen": 6212,
      "zom": 6213,
      "welf": 6214,
      "sided": 6215,
      "poly": 6216,
      "exclusive": 6217,
      "percent": 6218,
      "shouldnt": 6219,
      "cles": 6220,
      "berries": 6221,
      "grams": 6222,
      "Instead": 6223,
      "salty": 6224,
      "delay": 6225,
      "198": 6226,
      "taxes": 6227,
      "motion": 6228,
      "cloths": 6229,
      "bcz": 6230,
      "IG": 6231,
      "aad": 6232,
      "onest": 6233,
      "loving": 6234,
      "shallow": 6235,
      "tier": 6236,
      "weather": 6237,
      "heres": 6238,
      "survey": 6239,
      "advertise": 6240,
      "folded": 6241,
      "relatively": 6242,
      "sturdi": 6243,
      "welfare": 6244,
      "Low": 6245,
      "cb": 6246,
      "ittle": 6247,
      "itions": 6248,
      "artificial": 6249,
      "unt": 6250,
      "mahar": 6251,
      "jokes": 6252,
      "angana": 6253,
      "payers": 6254,
      "stops": 6255,
      "197": 6256,
      "dented": 6257,
      "meets": 6258,
      "trend": 6259,
      "protection": 6260,
      "victi": 6261,
      "23": 6262,
      "Spe": 6263,
      "chid": 6264,
      "usage": 6265,
      "plant": 6266,
      "yours": 6267,
      "applic": 6268,
      "writers": 6269,
      "footage": 6270,
      "skills": 6271,
      "Tastes": 6272,
      "ifesto": 6273,
      "alysis": 6274,
      "$$": 6275,
      "Holds": 6276,
      "RO": 6277,
      "Slow": 6278,
      "Such": 6279,
      "WO": 6280,
      "pate": 6281,
      "rr": 6282,
      "tack": 6283,
      "clever": 6284,
      "worthless": 6285,
      "warning": 6286,
      "flavored": 6287,
      "laughs": 6288,
      "America": 6289,
      "IM": 6290,
      "nud": 6291,
      "ano": 6292,
      "org": 6293,
      "aluminum": 6294,
      "arily": 6295,
      "stair": 6296,
      "umes": 6297,
      "chew": 6298,
      "desired": 6299,
      "handed": 6300,
      "clar": 6301,
      "ideal": 6302,
      "boarding": 6303,
      "icize": 6304,
      "Clean": 6305,
      "SS": 6306,
      "cate": 6307,
      "advis": 6308,
      "popped": 6309,
      "guard": 6310,
      "sensit": 6311,
      "understanding": 6312,
      "economist": 6313,
      "minority": 6314,
      "intelligent": 6315,
      "AIN": 6316,
      "His": 6317,
      "score": 6318,
      "repair": 6319,
      "aswat": 6320,
      "whel": 6321,
      "quot": 6322,
      "ummy": 6323,
      "twin": 6324,
      "cupcakes": 6325,
      "writes": 6326,
      "brushes": 6327,
      "carrying": 6328,
      "mamata": 6329,
      "Haven": 6330,
      "LIKE": 6331,
      "gurt": 6332,
      "Blue": 6333,
      "strategy": 6334,
      "wobbly": 6335,
      "embarrass": 6336,
      "UCH": 6337,
      "hable": 6338,
      "worn": 6339,
      "stored": 6340,
      "crunch": 6341,
      "reviewer": 6342,
      "unities": 6343,
      "Funny": 6344,
      "affordable": 6345,
      "tejasvi": 6346,
      "anticipated": 6347,
      "Sent": 6348,
      "imum": 6349,
      "asters": 6350,
      "tears": 6351,
      "discovered": 6352,
      "kidar": 6353,
      "developing": 6354,
      "remembered": 6355,
      "criticize": 6356,
      "frustrating": 6357,
      "improvement": 6358,
      "adequate": 6359,
      "Mon": 6360,
      "rahe": 6361,
      "exchange": 6362,
      "taining": 6363,
      "smelled": 6364,
      "entirely": 6365,
      "swami": 6366,
      "fabulous": 6367,
      "chaiwala": 6368,
      "ignore": 6369,
      "Let": 6370,
      "Put": 6371,
      "eld": 6372,
      "yed": 6373,
      "sea": 6374,
      "beloved": 6375,
      "urban": 6376,
      "shud": 6377,
      "usa": 6378,
      "endra": 6379,
      "romantic": 6380,
      "manifesto": 6381,
      "whereas": 6382,
      "harm": 6383,
      "stained": 6384,
      "dictator": 6385,
      "village": 6386,
      "Cost": 6387,
      "boost": 6388,
      "baked": 6389,
      "Japanese": 6390,
      "Cons": 6391,
      "Del": 6392,
      "Sto": 6393,
      "bree": 6394,
      "backs": 6395,
      "gall": 6396,
      "yad": 6397,
      "depressing": 6398,
      "cel": 6399,
      "units": 6400,
      "purposes": 6401,
      "minds": 6402,
      "pulling": 6403,
      "institution": 6404,
      "tune": 6405,
      "intelligence": 6406,
      "fascist": 6407,
      "width": 6408,
      "Dif": 6409,
      "glow": 6410,
      "shirt": 6411,
      "fet": 6412,
      "plans": 6413,
      "private": 6414,
      "compact": 6415,
      "opposing": 6416,
      "violent": 6417,
      "treatment": 6418,
      "rules": 6419,
      "ACK": 6420,
      "implemented": 6421,
      "maximum": 6422,
      "significant": 6423,
      "stroke": 6424,
      "Make": 6425,
      "Tru": 6426,
      "fought": 6427,
      "fying": 6428,
      "gal": 6429,
      "nic": 6430,
      "phe": 6431,
      "rink": 6432,
      "tone": 6433,
      "tends": 6434,
      "arre": 6435,
      "roles": 6436,
      "damn": 6437,
      "adjustable": 6438,
      "suffering": 6439,
      "learning": 6440,
      "responsibility": 6441,
      "jet": 6442,
      "nhi": 6443,
      "relax": 6444,
      "alle": 6445,
      "diya": 6446,
      "meh": 6447,
      "noted": 6448,
      "parti": 6449,
      "brewing": 6450,
      "musical": 6451,
      "scenery": 6452,
      "organized": 6453,
      "grinding": 6454,
      "peanut": 6455,
      "rupees": 6456,
      "REALLY": 6457,
      "substantial": 6458,
      "Chi": 6459,
      "Hu": 6460,
      "Lar": 6461,
      "packs": 6462,
      "rum": 6463,
      "tan": 6464,
      "beha": 6465,
      "deals": 6466,
      "sapp": 6467,
      "earn": 6468,
      "crew": 6469,
      "colorful": 6470,
      "drawn": 6471,
      "homemade": 6472,
      "joining": 6473,
      "slices": 6474,
      "British": 6475,
      "promptly": 6476,
      "B00": 6477,
      "cooks": 6478,
      "kne": 6479,
      "ride": 6480,
      "vikas": 6481,
      "contr": 6482,
      "blast": 6483,
      "bull": 6484,
      "opposite": 6485,
      "cities": 6486,
      "preferred": 6487,
      "distur": 6488,
      "jawans": 6489,
      "Class": 6490,
      "adventure": 6491,
      "Again": 6492,
      "gimm": 6493,
      "mary": 6494,
      "vine": 6495,
      "loaf": 6496,
      "shots": 6497,
      "plat": 6498,
      "obsess": 6499,
      "mainly": 6500,
      "yogurt": 6501,
      "bullet": 6502,
      "volume": 6503,
      "ginger": 6504,
      "delicate": 6505,
      "Broke": 6506,
      "british": 6507,
      "?!": 6508,
      "Gl": 6509,
      "tin": 6510,
      "thr": 6511,
      "rega": 6512,
      "moon": 6513,
      "chau": 6514,
      "ican": 6515,
      "wipe": 6516,
      "convers": 6517,
      "filmed": 6518,
      "monster": 6519,
      "economics": 6520,
      "passes": 6521,
      "130": 6522,
      "47": 6523,
      "Bat": 6524,
      "Ive": 6525,
      "Soft": 6526,
      "belt": 6527,
      "mystery": 6528,
      "shake": 6529,
      "desperation": 6530,
      "Micha": 6531,
      "psycho": 6532,
      "sag": 6533,
      "wre": 6534,
      "unhappy": 6535,
      "surya": 6536,
      "fallen": 6537,
      "subscri": 6538,
      "grown": 6539,
      "reflect": 6540,
      "layer": 6541,
      "listening": 6542,
      "jawan": 6543,
      "COM": 6544,
      "iber": 6545,
      "tes": 6546,
      "chris": 6547,
      "lli": 6548,
      "debris": 6549,
      "union": 6550,
      "lover": 6551,
      "maid": 6552,
      "lazy": 6553,
      "offers": 6554,
      "internal": 6555,
      "reasonably": 6556,
      "values": 6557,
      "warming": 6558,
      "Everyone": 6559,
      "saraswat": 6560,
      "nudity": 6561,
      "Happ": 6562,
      "niti": 6563,
      "infr": 6564,
      "intention": 6565,
      "element": 6566,
      "understood": 6567,
      "nia": 6568,
      "Amazing": 6569,
      "Chin": 6570,
      "killer": 6571,
      "connected": 6572,
      "graphic": 6573,
      "telangana": 6574,
      "incredible": 6575,
      "diplo": 6576,
      "Picture": 6577,
      "yan": 6578,
      "lime": 6579,
      "ppery": 6580,
      "sus": 6581,
      "camp": 6582,
      "subsi": 6583,
      "relev": 6584,
      "idiots": 6585,
      "decorative": 6586,
      "raids": 6587,
      "absorbent": 6588,
      "PL": 6589,
      "apples": 6590,
      "elements": 6591,
      "instant": 6592,
      "freebies": 6593,
      "sleeper": 6594,
      "writer": 6595,
      "judi": 6596,
      "smoothies": 6597,
      "providing": 6598,
      "millions": 6599,
      "continued": 6600,
      "____": 6601,
      "Taste": 6602,
      "ega": 6603,
      "lacks": 6604,
      "sack": 6605,
      "angry": 6606,
      "levels": 6607,
      "mai": 6608,
      "laws": 6609,
      "bigot": 6610,
      "Always": 6611,
      "superior": 6612,
      "strainer": 6613,
      "brothers": 6614,
      "protein": 6615,
      "moisture": 6616,
      "struggle": 6617,
      "thoroughly": 6618,
      "breeze": 6619,
      "'.": 6620,
      "AG": 6621,
      "Here": 6622,
      "QU": 6623,
      "uk": 6624,
      "arro": 6625,
      "mehul": 6626,
      "foc": 6627,
      "watchable": 6628,
      "tightly": 6629,
      "versity": 6630,
      "inspired": 6631,
      "begins": 6632,
      "compliments": 6633,
      "Mart": 6634,
      "ige": 6635,
      "seeds": 6636,
      "quant": 6637,
      "twists": 6638,
      "pressive": 6639,
      "thousands": 6640,
      "refrigerator": 6641,
      "TR": 6642,
      "aves": 6643,
      "lbs": 6644,
      "mig": 6645,
      "grew": 6646,
      "monet": 6647,
      "ships": 6648,
      "ashtra": 6649,
      "fug": 6650,
      "cereal": 6651,
      "Time": 6652,
      "36": 6653,
      "Dark": 6654,
      "anil": 6655,
      "onents": 6656,
      "lean": 6657,
      "plete": 6658,
      "answers": 6659,
      "strict": 6660,
      "ameter": 6661,
      "advertising": 6662,
      "Pros": 6663,
      "mistakes": 6664,
      "demonstr": 6665,
      "skillet": 6666,
      "Am": 6667,
      "EM": 6668,
      "Sil": 6669,
      "eco": 6670,
      "lived": 6671,
      "sucked": 6672,
      "idu": 6673,
      "ational": 6674,
      "Thin": 6675,
      "overly": 6676,
      "bero": 6677,
      "pupp": 6678,
      "alloween": 6679,
      "tickets": 6680,
      "street": 6681,
      "searching": 6682,
      "journalism": 6683,
      "insult": 6684,
      "tempor": 6685,
      "reminds": 6686,
      "Sadly": 6687,
      "AW": 6688,
      "Fit": 6689,
      "Fri": 6690,
      "Rus": 6691,
      "khar": 6692,
      "rol": 6693,
      "shred": 6694,
      "comic": 6695,
      "elegant": 6696,
      "sheer": 6697,
      "shell": 6698,
      "lowest": 6699,
      "railway": 6700,
      "houses": 6701,
      "stairs": 6702,
      "kn": 6703,
      "mount": 6704,
      "nadu": 6705,
      "ore": 6706,
      "ography": 6707,
      "station": 6708,
      "vili": 6709,
      "outdoor": 6710,
      "saver": 6711,
      "airport": 6712,
      "century": 6713,
      "bhag": 6714,
      "syn": 6715,
      "72k": 6716,
      "lish": 6717,
      "inf": 6718,
      "orm": 6719,
      "astru": 6720,
      "hosp": 6721,
      "announcing": 6722,
      "fortunate": 6723,
      "experienced": 6724,
      "Chinese": 6725,
      "torn": 6726,
      "tht": 6727,
      "ators": 6728,
      "icious": 6729,
      "contacted": 6730,
      "funded": 6731,
      "trap": 6732,
      "masood": 6733,
      "THEY": 6734,
      "costs": 6735,
      "criticism": 6736,
      "bluff": 6737,
      "chokid": 6738,
      "waffle": 6739,
      "humidifier": 6740,
      "48": 6741,
      "Du": 6742,
      "Using": 6743,
      "mps": 6744,
      "tour": 6745,
      "rome": 6746,
      "dude": 6747,
      "breath": 6748,
      "strongly": 6749,
      "gath": 6750,
      "capabilities": 6751,
      "questioned": 6752,
      "bulk": 6753,
      "failures": 6754,
      "officer": 6755,
      "programme": 6756,
      "crisis": 6757,
      "infrastru": 6758,
      "Little": 6759,
      "MUCH": 6760,
      "align": 6761,
      "method": 6762,
      "bel": 6763,
      "agon": 6764,
      "disk": 6765,
      "seek": 6766,
      "intent": 6767,
      "dynam": 6768,
      "burns": 6769,
      "tuk": 6770,
      "Cheaply": 6771,
      "sequences": 6772,
      "contribution": 6773,
      "Bot": 6774,
      "Dy": 6775,
      "cin": 6776,
      "hats": 6777,
      "mately": 6778,
      "analysis": 6779,
      "diameter": 6780,
      "ctors": 6781,
      "soda": 6782,
      "jobless": 6783,
      "naidu": 6784,
      "giant": 6785,
      "resour": 6786,
      "slee": 6787,
      "brave": 6788,
      "decoration": 6789,
      "investment": 6790,
      "====": 6791,
      "established": 6792,
      "expert": 6793,
      "sensitive": 6794,
      "yadav": 6795,
      "27": 6796,
      "29": 6797,
      "BB": 6798,
      "Many": 6799,
      "dh": 6800,
      "jac": 6801,
      "pand": 6802,
      "complic": 6803,
      "minimal": 6804,
      "flash": 6805,
      "opens": 6806,
      "bacon": 6807,
      "crock": 6808,
      "constant": 6809,
      "respond": 6810,
      "shameful": 6811,
      "tweeted": 6812,
      "namon": 6813,
      "interviews": 6814,
      "rubb": 6815,
      "pushed": 6816,
      "jumlas": 6817,
      "committed": 6818,
      "reveal": 6819,
      "poorest": 6820,
      "belief": 6821,
      "Same": 6822,
      "Takes": 6823,
      "dred": 6824,
      "vity": 6825,
      "storing": 6826,
      "haz": 6827,
      "beauty": 6828,
      "raha": 6829,
      "acular": 6830,
      "joins": 6831,
      "charm": 6832,
      "curi": 6833,
      "regularly": 6834,
      "visionary": 6835,
      "economists": 6836,
      "manufacturing": 6837,
      "jun": 6838,
      "diet": 6839,
      "singing": 6840,
      "crust": 6841,
      "formula": 6842,
      "casting": 6843,
      "extended": 6844,
      "allowing": 6845,
      "includes": 6846,
      "leather": 6847,
      "pads": 6848,
      "gadkari": 6849,
      "transp": 6850,
      "Day": 6851,
      "SM": 6852,
      "Turn": 6853,
      "gni": 6854,
      "rical": 6855,
      "wud": 6856,
      "wasting": 6857,
      "rial": 6858,
      "uru": 6859,
      "unemployed": 6860,
      "grease": 6861,
      "quir": 6862,
      "pron": 6863,
      "foil": 6864,
      "viewer": 6865,
      "pics": 6866,
      "leads": 6867,
      "puri": 6868,
      "claiming": 6869,
      "biryani": 6870,
      "distance": 6871,
      "suitable": 6872,
      "choksi": 6873,
      "competent": 6874,
      "corporate": 6875,
      "Michael": 6876,
      "gory": 6877,
      "yer": 6878,
      "forgotten": 6879,
      "notes": 6880,
      "abha": 6881,
      "unbelievable": 6882,
      "confir": 6883,
      "causes": 6884,
      "loyal": 6885,
      "holiday": 6886,
      "arrested": 6887,
      "ashamed": 6888,
      "21": 6889,
      "David": 6890,
      "fed": 6891,
      "luty": 6892,
      "pou": 6893,
      "pants": 6894,
      "tad": 6895,
      "reaction": 6896,
      "youtube": 6897,
      "anyways": 6898,
      "seeking": 6899,
      "fulfilled": 6900,
      "flaws": 6901,
      "moron": 6902,
      "END": 6903,
      "hahaha": 6904,
      "hesit": 6905,
      "provides": 6906,
      "liquids": 6907,
      "servation": 6908,
      "AZ": 6909,
      "Cook": 6910,
      "bump": 6911,
      "ili": 6912,
      "vous": 6913,
      "stit": 6914,
      "pets": 6915,
      "timing": 6916,
      "ounce": 6917,
      "Ther": 6918,
      "happier": 6919,
      "sons": 6920,
      "kinds": 6921,
      "worlds": 6922,
      "skip": 6923,
      "decisive": 6924,
      "sufficient": 6925,
      "sturdier": 6926,
      "patel": 6927,
      "Happy": 6928,
      "Show": 6929,
      "Simple": 6930,
      "Water": 6931,
      "fond": 6932,
      "hater": 6933,
      "tion": 6934,
      "vit": 6935,
      "rede": 6936,
      "alous": 6937,
      "whos": 6938,
      "ception": 6939,
      "frm": 6940,
      "screwed": 6941,
      "slippery": 6942,
      "hesive": 6943,
      "Complete": 6944,
      "chandra": 6945,
      "emergency": 6946,
      "pantry": 6947,
      "slo": 6948,
      "rever": 6949,
      "alive": 6950,
      "irrit": 6951,
      "gore": 6952,
      "causing": 6953,
      "earned": 6954,
      "handling": 6955,
      "charges": 6956,
      "cracks": 6957,
      "childhood": 6958,
      "folds": 6959,
      "appreciated": 6960,
      "tumbl": 6961,
      "impression": 6962,
      ";<": 6963,
      "awat": 6964,
      "gard": 6965,
      "bean": 6966,
      "timely": 6967,
      "ishing": 6968,
      "contents": 6969,
      "closing": 6970,
      "carried": 6971,
      "pancakes": 6972,
      "memories": 6973,
      "scientific": 6974,
      "sticker": 6975,
      "anime": 6976,
      "describe": 6977,
      "horri": 6978,
      "juicer": 6979,
      "WILL": 6980,
      "George": 6981,
      "PA": 6982,
      "Pa": 6983,
      "fak": 6984,
      "flying": 6985,
      "soo": 6986,
      "creation": 6987,
      "sharma": 6988,
      "slap": 6989,
      "Kinda": 6990,
      "reduce": 6991,
      "kanhai": 6992,
      "shopping": 6993,
      "DIS": 6994,
      "pool": 6995,
      "चा": 6996,
      "rocks": 6997,
      "whist": 6998,
      "verted": 6999,
      "heated": 7000,
      "buck": 7001,
      "lastic": 7002,
      "believes": 7003,
      "register": 7004,
      "fragr": 7005,
      "cooler": 7006,
      "expand": 7007,
      "Hoo": 7008,
      "II": 7009,
      "agreed": 7010,
      "rarely": 7011,
      "arse": 7012,
      "wild": 7013,
      "cock": 7014,
      "distress": 7015,
      "baat": 7016,
      "spokes": 7017,
      "dining": 7018,
      "reliable": 7019,
      "Actually": 7020,
      "credibility": 7021,
      "vivek": 7022,
      "destruction": 7023,
      "बचा": 7024,
      "rods": 7025,
      "wasnt": 7026,
      "logo": 7027,
      "doctor": 7028,
      "ulture": 7029,
      "mature": 7030,
      "199": 7031,
      "incident": 7032,
      "2004": 7033,
      "hundred": 7034,
      "reached": 7035,
      "soldier": 7036,
      "Feels": 7037,
      "bid": 7038,
      "sco": 7039,
      "wis": 7040,
      "stones": 7041,
      "sections": 7042,
      "feather": 7043,
      "exter": 7044,
      "intense": 7045,
      "topic": 7046,
      "thoughts": 7047,
      "defense": 7048,
      "granddaughter": 7049,
      "TOO": 7050,
      "Robert": 7051,
      "teeth": 7052,
      "noodles": 7053,
      "aisi": 7054,
      "pse": 7055,
      "anad": 7056,
      "analy": 7057,
      "root": 7058,
      "acknow": 7059,
      "affair": 7060,
      "internet": 7061,
      "charged": 7062,
      "visited": 7063,
      "Almost": 7064,
      "slept": 7065,
      "contested": 7066,
      "pushing": 7067,
      "USE": 7068,
      "officers": 7069,
      "garibi": 7070,
      "creepy": 7071,
      "El": 7072,
      "Mel": 7073,
      "Sur": 7074,
      "Smell": 7075,
      "Tar": 7076,
      "dents": 7077,
      "task": 7078,
      "शबचा": 7079,
      "init": 7080,
      "remonet": 7081,
      "chain": 7082,
      "beach": 7083,
      "radio": 7084,
      "suic": 7085,
      "proves": 7086,
      "Though": 7087,
      "impressive": 7088,
      "farm": 7089,
      "senti": 7090,
      "complex": 7091,
      "ONG": 7092,
      "contains": 7093,
      "DOES": 7094,
      "ाेशबचा": 7095,
      "HD": 7096,
      "ION": 7097,
      "Tre": 7098,
      "cats": 7099,
      "gho": 7100,
      "poon": 7101,
      "quar": 7102,
      "civili": 7103,
      "funding": 7104,
      "persons": 7105,
      "wished": 7106,
      "camping": 7107,
      "nervous": 7108,
      "brah": 7109,
      "Unless": 7110,
      "techn": 7111,
      "jealous": 7112,
      "touching": 7113,
      "suffer": 7114,
      "roads": 7115,
      "sexual": 7116,
      "location": 7117,
      "AV": 7118,
      "Fi": 7119,
      "bite": 7120,
      "enn": 7121,
      "mop": 7122,
      "lla": 7123,
      "hem": 7124,
      "sole": 7125,
      "spicy": 7126,
      "producers": 7127,
      "countrys": 7128,
      "addressed": 7129,
      "consistency": 7130,
      "chinese": 7131,
      "plugged": 7132,
      "BS": 7133,
      "HU": 7134,
      "hates": 7135,
      "uff": 7136,
      "zzy": 7137,
      "rented": 7138,
      "karo": 7139,
      "ANT": 7140,
      "tests": 7141,
      "refused": 7142,
      "matching": 7143,
      "zip": 7144,
      "loaded": 7145,
      "wrinkled": 7146,
      "receiving": 7147,
      "motiv": 7148,
      "Fant": 7149,
      "JUST": 7150,
      "olive": 7151,
      "ratt": 7152,
      "theless": 7153,
      "league": 7154,
      "goal": 7155,
      "caps": 7156,
      "blur": 7157,
      "elastic": 7158,
      "civil": 7159,
      "attitude": 7160,
      "phen": 7161,
      "shoe": 7162,
      "yeh": 7163,
      "subtle": 7164,
      "ski": 7165,
      "respective": 7166,
      "villages": 7167,
      "Guess": 7168,
      "surprisingly": 7169,
      "introduced": 7170,
      "Ham": 7171,
      "cult": 7172,
      "vendor": 7173,
      "wick": 7174,
      "toy": 7175,
      "unnecessary": 7176,
      "loks": 7177,
      "gluten": 7178,
      "trim": 7179,
      "antiindia": 7180,
      "miri": 7181,
      "amel": 7182,
      "exception": 7183,
      "violate": 7184,
      "besides": 7185,
      "knob": 7186,
      "toilets": 7187,
      "initially": 7188,
      "recogni": 7189,
      "chidam": 7190,
      "Add": 7191,
      "CON": 7192,
      "Halloween": 7193,
      "OUT": 7194,
      "ives": 7195,
      "nose": 7196,
      "umps": 7197,
      "lasting": 7198,
      "intoler": 7199,
      "White": 7200,
      "choices": 7201,
      "Dont": 7202,
      "congratulate": 7203,
      "mandir": 7204,
      "mamta": 7205,
      "slicer": 7206,
      "alleged": 7207,
      "rejected": 7208,
      "relevant": 7209,
      "Each": 7210,
      "Gar": 7211,
      "Hel": 7212,
      "OX": 7213,
      "iam": 7214,
      "lb": 7215,
      "ng": 7216,
      "rif": 7217,
      "prepar": 7218,
      "sage": 7219,
      "mud": 7220,
      "praising": 7221,
      "communic": 7222,
      "crisp": 7223,
      "comparing": 7224,
      "arunach": 7225,
      "pilot": 7226,
      "Euro": 7227,
      "Try": 7228,
      "eth": 7229,
      "foul": 7230,
      "erous": 7231,
      "remake": 7232,
      "cious": 7233,
      "functions": 7234,
      "anize": 7235,
      "presented": 7236,
      "picking": 7237,
      "prints": 7238,
      "spectacular": 7239,
      "specif": 7240,
      "wanna": 7241,
      "dancing": 7242,
      "equally": 7243,
      "squeeze": 7244,
      "Par": 7245,
      "PER": 7246,
      "Que": 7247,
      "ew": 7248,
      "mos": 7249,
      "pers": 7250,
      "arted": 7251,
      "blamed": 7252,
      "wonderfully": 7253,
      "cooling": 7254,
      "transform": 7255,
      "fantasy": 7256,
      "practice": 7257,
      "emotional": 7258,
      "industry": 7259,
      "Total": 7260,
      "Green": 7261,
      "conversation": 7262,
      "CK": 7263,
      "Set": 7264,
      "eci": 7265,
      "sched": 7266,
      "bell": 7267,
      "amoun": 7268,
      "congi": 7269,
      "ilesh": 7270,
      "spi": 7271,
      "clothing": 7272,
      "tons": 7273,
      "bargain": 7274,
      "scratchy": 7275,
      "familiar": 7276,
      "industrial": 7277,
      "princi": 7278,
      "arunachal": 7279,
      "DID": 7280,
      "Pan": 7281,
      "bis": 7282,
      "retain": 7283,
      "refill": 7284,
      "toward": 7285,
      "church": 7286,
      "heck": 7287,
      "soever": 7288,
      "shat": 7289,
      "probe": 7290,
      "quilt": 7291,
      "mudra": 7292,
      "auction": 7293,
      "letting": 7294,
      "baba": 7295,
      "snacks": 7296,
      "declare": 7297,
      "combination": 7298,
      "married": 7299,
      "mcc": 7300,
      "conclusion": 7301,
      "Fair": 7302,
      "Grand": 7303,
      "cs": 7304,
      "mend": 7305,
      "thir": 7306,
      "toms": 7307,
      "stall": 7308,
      "lef": 7309,
      "sear": 7310,
      "secut": 7311,
      "owaisi": 7312,
      "pless": 7313,
      "nai": 7314,
      "talked": 7315,
      "freeze": 7316,
      "roller": 7317,
      "balanced": 7318,
      "slams": 7319,
      "cabinets": 7320,
      "student": 7321,
      "Batman": 7322,
      "CGI": 7323,
      "ream": 7324,
      "recl": 7325,
      "pel": 7326,
      "propo": 7327,
      "ider": 7328,
      "romance": 7329,
      "duction": 7330,
      "distract": 7331,
      "naam": 7332,
      "closure": 7333,
      "warned": 7334,
      "extreme": 7335,
      "burner": 7336,
      "fooling": 7337,
      "critical": 7338,
      "looting": 7339,
      "kashmiri": 7340,
      "yojana": 7341,
      "toddler": 7342,
      "padding": 7343,
      "sak": 7344,
      "slots": 7345,
      "tact": 7346,
      "theory": 7347,
      "aram": 7348,
      "sta": 7349,
      "choo": 7350,
      "urt": 7351,
      "sian": 7352,
      "ilton": 7353,
      "upside": 7354,
      "joker": 7355,
      "players": 7356,
      "visual": 7357,
      "temple": 7358,
      "relief": 7359,
      "defeated": 7360,
      "spective": 7361,
      "demonetised": 7362,
      "Tea": 7363,
      "initial": 7364,
      "Ben": 7365,
      "DER": 7366,
      "bound": 7367,
      "recor": 7368,
      "defa": 7369,
      "thentic": 7370,
      "gling": 7371,
      "dramatic": 7372,
      "flame": 7373,
      "ONLY": 7374,
      "closely": 7375,
      "signed": 7376,
      "congis": 7377,
      "***": 7378,
      "frustrated": 7379,
      "thriller": 7380,
      "Meh": 7381,
      "Rich": 7382,
      "htt": 7383,
      "ox": 7384,
      "pile": 7385,
      "xic": 7386,
      "tore": 7387,
      "chun": 7388,
      "sel": 7389,
      "agric": 7390,
      "plea": 7391,
      "tration": 7392,
      "dislike": 7393,
      "wayanad": 7394,
      "ruin": 7395,
      "2011": 7396,
      "coura": 7397,
      "150": 7398,
      "securely": 7399,
      "officials": 7400,
      "crushed": 7401,
      "ornament": 7402,
      "permanent": 7403,
      "infrastructure": 7404,
      "remonetise": 7405,
      "Dr": 7406,
      "gies": 7407,
      "mare": 7408,
      "punch": 7409,
      "soooo": 7410,
      "vamp": 7411,
      "atory": 7412,
      "associ": 7413,
      "adhesive": 7414,
      "intri": 7415,
      "lav": 7416,
      "laid": 7417,
      "chef": 7418,
      "afternoon": 7419,
      "cookware": 7420,
      "winner": 7421,
      "195": 7422,
      "honou": 7423,
      "occur": 7424,
      "suggested": 7425,
      "convenience": 7426,
      "--------": 7427,
      "models": 7428,
      "editing": 7429,
      "Totally": 7430,
      "organize": 7431,
      "Classic": 7432,
      "FR": 7433,
      "NT": 7434,
      "Pie": 7435,
      "PLE": 7436,
      "Plastic": 7437,
      "rang": 7438,
      "mob": 7439,
      "llo": 7440,
      "ented": 7441,
      "dept": 7442,
      "domin": 7443,
      "greater": 7444,
      "orders": 7445,
      "letters": 7446,
      ".......": 7447,
      "sales": 7448,
      "restaur": 7449,
      "liners": 7450,
      "profile": 7451,
      "Returning": 7452,
      "ganga": 7453,
      "cinemat": 7454,
      "congressi": 7455,
      "lutyens": 7456,
      "CD": 7457,
      "Might": 7458,
      "Rob": 7459,
      "Wood": 7460,
      "inr": 7461,
      "dial": 7462,
      "unusable": 7463,
      "upright": 7464,
      "preced": 7465,
      "mata": 7466,
      "penny": 7467,
      "naren": 7468,
      "craf": 7469,
      "personality": 7470,
      "nonstick": 7471,
      "Heavy": 7472,
      "journo": 7473,
      "stream": 7474,
      "taller": 7475,
      "bubble": 7476,
      "Enjoyed": 7477,
      "shattered": 7478,
      "resources": 7479,
      "CR": 7480,
      "Sure": 7481,
      "fare": 7482,
      "gate": 7483,
      "pap": 7484,
      "enti": 7485,
      "rafa": 7486,
      "fection": 7487,
      "dub": 7488,
      "shel": 7489,
      "funni": 7490,
      "realise": 7491,
      "Where": 7492,
      "valu": 7493,
      "attacked": 7494,
      "advance": 7495,
      "operate": 7496,
      "animals": 7497,
      "About": 7498,
      "opportunities": 7499,
      "sinha": 7500,
      "temporary": 7501,
      "kanhaiya": 7502,
      "Fantastic": 7503,
      "Frank": 7504,
      "len": 7505,
      "llar": 7506,
      "ghan": 7507,
      "conde": 7508,
      "sphere": 7509,
      "litter": 7510,
      "interior": 7511,
      "warmer": 7512,
      "defend": 7513,
      "wheels": 7514,
      "villain": 7515,
      "shift": 7516,
      "Hoover": 7517,
      "mla": 7518,
      "sard": 7519,
      "onies": 7520,
      "enem": 7521,
      "rig": 7522,
      "essential": 7523,
      "illiter": 7524,
      "ept": 7525,
      "mano": 7526,
      "shocked": 7527,
      "bsf": 7528,
      "chances": 7529,
      "hunt": 7530,
      "flower": 7531,
      "koi": 7532,
      "substance": 7533,
      "Awful": 7534,
      "historic": 7535,
      "frying": 7536,
      "rhetor": 7537,
      "cinnamon": 7538,
      "jds": 7539,
      "latch": 7540,
      "dil": 7541,
      "stress": 7542,
      "ller": 7543,
      "meals": 7544,
      "und": 7545,
      "shrink": 7546,
      "hash": 7547,
      "fau": 7548,
      "newsp": 7549,
      "follows": 7550,
      "painful": 7551,
      "ultimately": 7552,
      "aaj": 7553,
      "explained": 7554,
      "brief": 7555,
      "ville": 7556,
      "behavi": 7557,
      "loksabha": 7558,
      "Queen": 7559,
      "Part": 7560,
      "SU": 7561,
      "Sal": 7562,
      "aver": 7563,
      "mega": 7564,
      "somebody": 7565,
      "lfri": 7566,
      "ignor": 7567,
      "authentic": 7568,
      "politic": 7569,
      "finds": 7570,
      "akhilesh": 7571,
      "classy": 7572,
      "tablecloth": 7573,
      "weekend": 7574,
      "void": 7575,
      "measures": 7576,
      "remaining": 7577,
      "stool": 7578,
      "spills": 7579,
      "promoting": 7580,
      "waffles": 7581,
      "exercise": 7582,
      "humidity": 7583,
      "hospital": 7584,
      "Cor": 7585,
      "Stain": 7586,
      "bber": 7587,
      "cable": 7588,
      "dian": 7589,
      "digest": 7590,
      "addict": 7591,
      "deeper": 7592,
      "outs": 7593,
      "guide": 7594,
      "filmmakers": 7595,
      "extent": 7596,
      "slips": 7597,
      "sooner": 7598,
      "peeling": 7599,
      "insulated": 7600,
      "intellectual": 7601,
      "residue": 7602,
      "sandwich": 7603,
      "complicated": 7604,
      "seg": 7605,
      "rose": 7606,
      "shan": 7607,
      "pledge": 7608,
      "goswami": 7609,
      "canvas": 7610,
      "overwhel": 7611,
      "glor": 7612,
      "flatt": 7613,
      "drag": 7614,
      "snapped": 7615,
      "patient": 7616,
      "reported": 7617,
      "bulb": 7618,
      "Colors": 7619,
      "issors": 7620,
      "labeled": 7621,
      "ario": 7622,
      "frustration": 7623,
      "prepare": 7624,
      "housing": 7625,
      "revenge": 7626,
      "Entertaining": 7627,
      "chidambar": 7628,
      "Honest": 7629,
      "Sat": 7630,
      "flop": 7631,
      "french": 7632,
      "pon": 7633,
      "vind": 7634,
      "yas": 7635,
      "shine": 7636,
      "elly": 7637,
      "lightly": 7638,
      "fired": 7639,
      "inyl": 7640,
      "presentation": 7641,
      "accepted": 7642,
      "cards": 7643,
      "ification": 7644,
      "rounded": 7645,
      "treated": 7646,
      "crisy": 7647,
      "dialog": 7648,
      "lord": 7649,
      "tukde": 7650,
      "newspaper": 7651,
      "600": 7652,
      "Cal": 7653,
      "DON": 7654,
      "OO": 7655,
      "Wanted": 7656,
      "Your": 7657,
      "swee": 7658,
      "reorder": 7659,
      "reelected": 7660,
      "stab": 7661,
      "abroad": 7662,
      "miser": 7663,
      "grate": 7664,
      "gible": 7665,
      "coverage": 7666,
      "drops": 7667,
      "answered": 7668,
      "wheel": 7669,
      "Which": 7670,
      "Comp": 7671,
      "bothered": 7672,
      "targeted": 7673,
      "absorb": 7674,
      "chopper": 7675,
      "belongs": 7676,
      "resistant": 7677,
      "influence": 7678,
      "OXO": 7679,
      "Pow": 7680,
      "Sun": 7681,
      "Tr": 7682,
      "anth": 7683,
      "alco": 7684,
      "divide": 7685,
      "strug": 7686,
      "gel": 7687,
      "indirect": 7688,
      "aken": 7689,
      "whatsoever": 7690,
      "Three": 7691,
      "launder": 7692,
      "omen": 7693,
      "paste": 7694,
      "calcul": 7695,
      "hypocrisy": 7696,
      "manipul": 7697,
      "dedicated": 7698,
      "cbn": 7699,
      "gathbandhan": 7700,
      "CAN": 7701,
      "LED": 7702,
      "mong": 7703,
      "wale": 7704,
      "yard": 7705,
      "ensu": 7706,
      "sewn": 7707,
      "aftertaste": 7708,
      "crony": 7709,
      "Worst": 7710,
      "fray": 7711,
      "clearance": 7712,
      "slipping": 7713,
      "resul": 7714,
      "cott": 7715,
      "alien": 7716,
      "Looking": 7717,
      "automatically": 7718,
      "narender": 7719,
      "rafael": 7720,
      "enemies": 7721,
      "AK": 7722,
      "Sam": 7723,
      "oat": 7724,
      "ows": 7725,
      "agent": 7726,
      "shock": 7727,
      "cube": 7728,
      "girlfri": 7729,
      "evident": 7730,
      "crackers": 7731,
      "substit": 7732,
      "argument": 7733,
      "virt": 7734,
      "sacrif": 7735,
      "?)": 7736,
      "Flimsy": 7737,
      "Next": 7738,
      "ius": 7739,
      "khand": 7740,
      "yummy": 7741,
      "aring": 7742,
      "fulfill": 7743,
      "newer": 7744,
      "trips": 7745,
      "chosen": 7746,
      "strips": 7747,
      "lined": 7748,
      "increasing": 7749,
      "faced": 7750,
      "boyfriend": 7751,
      "gaya": 7752,
      "jerky": 7753,
      "370": 7754,
      "Home": 7755,
      "Ori": 7756,
      "clim": 7757,
      "fis": 7758,
      "kare": 7759,
      "riti": 7760,
      "stink": 7761,
      "proving": 7762,
      "ida": 7763,
      "dura": 7764,
      "nod": 7765,
      "whoever": 7766,
      "panels": 7767,
      "decade": 7768,
      "hitler": 7769,
      "organizer": 7770,
      "occup": 7771,
      "assumed": 7772,
      "chemicals": 7773,
      "revolution": 7774,
      "gimmick": 7775,
      "specifically": 7776,
      "dign": 7777,
      "wheat": 7778,
      "entry": 7779,
      "math": 7780,
      "uss": 7781,
      "plun": 7782,
      "epic": 7783,
      "medic": 7784,
      "medical": 7785,
      "herself": 7786,
      "dynast": 7787,
      "calories": 7788,
      "umpy": 7789,
      "measured": 7790,
      "guns": 7791,
      "azhar": 7792,
      "ignored": 7793,
      "Hopefully": 7794,
      "nesday": 7795,
      "zombie": 7796,
      "Dyson": 7797,
      "amounts": 7798,
      "Bob": 7799,
      "Must": 7800,
      "Sc": 7801,
      "gor": 7802,
      "hoo": 7803,
      "ii": 7804,
      "pine": 7805,
      "iting": 7806,
      "betray": 7807,
      "rap": 7808,
      "polar": 7809,
      "extradition": 7810,
      "mistry": 7811,
      "everytime": 7812,
      "corny": 7813,
      "shared": 7814,
      "severe": 7815,
      "importance": 7816,
      "approx": 7817,
      "Quite": 7818,
      "hello": 7819,
      "heights": 7820,
      "Looked": 7821,
      "Christian": 7822,
      "pounds": 7823,
      "Ac": 7824,
      "Cho": 7825,
      "Pill": 7826,
      "coffe": 7827,
      "rics": 7828,
      "dece": 7829,
      "aker": 7830,
      "themed": 7831,
      "whatsapp": 7832,
      "sham": 7833,
      "handled": 7834,
      "steal": 7835,
      "fron": 7836,
      "extre": 7837,
      "complained": 7838,
      "separately": 7839,
      "BEST": 7840,
      "ACT": 7841,
      "peeler": 7842,
      "kudos": 7843,
      "tossed": 7844,
      "ghost": 7845,
      "cinematography": 7846,
      "Hal": 7847,
      "Sci": 7848,
      "Vi": 7849,
      "bia": 7850,
      "hating": 7851,
      "ians": 7852,
      "isl": 7853,
      "chap": 7854,
      "selection": 7855,
      "rival": 7856,
      "concent": 7857,
      "explan": 7858,
      "quart": 7859,
      "dissa": 7860,
      "prison": 7861,
      "grit": 7862,
      "picks": 7863,
      "udd": 7864,
      "oda": 7865,
      "Read": 7866,
      "drill": 7867,
      "strap": 7868,
      "soul": 7869,
      "pulls": 7870,
      "basement": 7871,
      "flee": 7872,
      "sarab": 7873,
      "punjab": 7874,
      "rofiber": 7875,
      "broadcast": 7876,
      "chokidar": 7877,
      "Honestly": 7878,
      "Aust": 7879,
      "Aid": 7880,
      "BL": 7881,
      "Old": 7882,
      "bacha": 7883,
      "dhan": 7884,
      "vinyl": 7885,
      "retire": 7886,
      "ooper": 7887,
      "sore": 7888,
      "irani": 7889,
      "posing": 7890,
      "saves": 7891,
      "aff": 7892,
      "intact": 7893,
      "producer": 7894,
      "cork": 7895,
      "supply": 7896,
      "cronies": 7897,
      "guessing": 7898,
      "unky": 7899,
      "oils": 7900,
      "criticise": 7901,
      "groups": 7902,
      "zzle": 7903,
      "slicing": 7904,
      "GET": 7905,
      "promote": 7906,
      "talented": 7907,
      "WORK": 7908,
      "!\"": 7909,
      "Cool": 7910,
      "EVERY": 7911,
      "FO": 7912,
      "Med": 7913,
      "cp": 7914,
      "anu": 7915,
      "theast": 7916,
      "asad": 7917,
      "mock": 7918,
      "begging": 7919,
      "coat": 7920,
      "urge": 7921,
      "expose": 7922,
      "chemistry": 7923,
      "finance": 7924,
      "rahuls": 7925,
      "frank": 7926,
      "rusting": 7927,
      "figures": 7928,
      "smoothly": 7929,
      "blankets": 7930,
      "convin": 7931,
      "hiding": 7932,
      "engineers": 7933,
      "determin": 7934,
      "fashioned": 7935,
      "entially": 7936,
      "Air": 7937,
      "Mis": 7938,
      "bru": 7939,
      "cis": 7940,
      "champ": 7941,
      "unfortunate": 7942,
      "suits": 7943,
      "precise": 7944,
      "cric": 7945,
      "horse": 7946,
      "walking": 7947,
      "spoken": 7948,
      "punish": 7949,
      "Anyway": 7950,
      "aroma": 7951,
      "://": 7952,
      "almond": 7953,
      "obsessed": 7954,
      "Bond": 7955,
      "Top": 7956,
      "WOULD": 7957,
      "fif": 7958,
      "obero": 7959,
      "phi": 7960,
      "escap": 7961,
      "sting": 7962,
      "habit": 7963,
      "beige": 7964,
      "trade": 7965,
      "overnight": 7966,
      "assist": 7967,
      "brut": 7968,
      "mindset": 7969,
      "creative": 7970,
      "numerous": 7971,
      "incere": 7972,
      "requested": 7973,
      "lalit": 7974,
      "google": 7975,
      "nomination": 7976,
      "ey": 7977,
      "nb": 7978,
      "pment": 7979,
      "ork": 7980,
      "ayush": 7981,
      "poss": 7982,
      "partner": 7983,
      "dying": 7984,
      "hota": 7985,
      "lifetime": 7986,
      "sharing": 7987,
      "engaging": 7988,
      "creates": 7989,
      "stupidity": 7990,
      "micro": 7991,
      "Needs": 7992,
      "grinds": 7993,
      "existing": 7994,
      "heavily": 7995,
      "criminals": 7996,
      "cherry": 7997,
      "pidis": 7998,
      "HUGE": 7999,
      "agriculture": 8000,
      "33": 8001,
      "Free": 8002,
      "Luck": 8003,
      "Mill": 8004,
      "None": 8005,
      "WAT": 8006,
      "eager": 8007,
      "ोी": 8008,
      "eros": 8009,
      "urday": 8010,
      "myster": 8011,
      "plots": 8012,
      "spark": 8013,
      "beds": 8014,
      "washings": 8015,
      "staying": 8016,
      "succeed": 8017,
      "baskets": 8018,
      "umping": 8019,
      "complaining": 8020,
      "property": 8021,
      "performed": 8022,
      "instruction": 8023,
      "honesty": 8024,
      "situations": 8025,
      "sharpener": 8026,
      "transport": 8027,
      "slaves": 8028,
      "Diffic": 8029,
      "dynamic": 8030,
      "girlfriend": 8031,
      "Fab": 8032,
      "Mic": 8033,
      "Smi": 8034,
      "fiction": 8035,
      "oks": 8036,
      "tick": 8037,
      "uted": 8038,
      "notch": 8039,
      "sush": 8040,
      "steak": 8041,
      "crappy": 8042,
      "hitting": 8043,
      "ARD": 8044,
      "Rock": 8045,
      "necessarily": 8046,
      "ODU": 8047,
      "PRODU": 8048,
      "sympath": 8049,
      "eliminate": 8050,
      "Ber": 8051,
      "chuti": 8052,
      "rain": 8053,
      "abs": 8054,
      "unexpected": 8055,
      "pled": 8056,
      "premi": 8057,
      "scissors": 8058,
      "shade": 8059,
      "nax": 8060,
      "naut": 8061,
      "rown": 8062,
      "pari": 8063,
      "packages": 8064,
      "enjoys": 8065,
      "listing": 8066,
      "lining": 8067,
      "tighten": 8068,
      "incing": 8069,
      "attempts": 8070,
      "sweep": 8071,
      "portrayed": 8072,
      "activities": 8073,
      "remarkable": 8074,
      "application": 8075,
      "sacked": 8076,
      "Origin": 8077,
      "250": 8078,
      "Far": 8079,
      "La": 8080,
      "ita": 8081,
      "aki": 8082,
      "THAN": 8083,
      "ERE": 8084,
      "masters": 8085,
      "THESE": 8086,
      "household": 8087,
      "stuffing": 8088,
      "releases": 8089,
      "generations": 8090,
      "2009": 8091,
      "!!!!!!!!": 8092,
      "touched": 8093,
      "molds": 8094,
      "loosing": 8095,
      "convincing": 8096,
      "muffins": 8097,
      "customers": 8098,
      "Went": 8099,
      "banned": 8100,
      "das": 8101,
      "gag": 8102,
      "arrange": 8103,
      "liances": 8104,
      "admi": 8105,
      "anytime": 8106,
      "grass": 8107,
      "valid": 8108,
      "runner": 8109,
      "shipment": 8110,
      "snug": 8111,
      "Life": 8112,
      "univer": 8113,
      "offering": 8114,
      "attachments": 8115,
      "reminded": 8116,
      "appealing": 8117,
      "marriage": 8118,
      "Delicious": 8119,
      "platform": 8120,
      "Difficult": 8121,
      "Cand": 8122,
      "Night": 8123,
      "Sand": 8124,
      "cig": 8125,
      "insur": 8126,
      "refresh": 8127,
      "butt": 8128,
      "raz": 8129,
      "unusual": 8130,
      "fee": 8131,
      "agers": 8132,
      "mony": 8133,
      "carbon": 8134,
      "kaam": 8135,
      "conducted": 8136,
      "uniform": 8137,
      "coward": 8138,
      "mildew": 8139,
      "recogn": 8140,
      "lynching": 8141,
      "Found": 8142,
      "Ni": 8143,
      "Ob": 8144,
      "bone": 8145,
      "usive": 8146,
      "leaf": 8147,
      "het": 8148,
      "keeper": 8149,
      "nephe": 8150,
      "doval": 8151,
      "goods": 8152,
      "worker": 8153,
      "laud": 8154,
      "smriti": 8155,
      "cling": 8156,
      "viewers": 8157,
      "shiv": 8158,
      "certific": 8159,
      "directing": 8160,
      "swiss": 8161,
      "marked": 8162,
      "animal": 8163,
      "tremend": 8164,
      "Peter": 8165,
      "Watched": 8166,
      "execution": 8167,
      "honourable": 8168,
      "BIG": 8169,
      "Cap": 8170,
      "gli": 8171,
      "snow": 8172,
      "rex": 8173,
      "resem": 8174,
      "wires": 8175,
      "illegal": 8176,
      "ounces": 8177,
      "2010": 8178,
      "brary": 8179,
      "mayawat": 8180,
      "World": 8181,
      "regional": 8182,
      "sens": 8183,
      "driver": 8184,
      "drilled": 8185,
      "LOL": 8186,
      "golden": 8187,
      "lifting": 8188,
      "discussion": 8189,
      "chidambaram": 8190,
      "convinced": 8191,
      "Je": 8192,
      "Mur": 8193,
      "yy": 8194,
      "ancy": 8195,
      "repor": 8196,
      "havent": 8197,
      "modibjp": 8198,
      "coasters": 8199,
      "soy": 8200,
      "rape": 8201,
      "tied": 8202,
      "perspective": 8203,
      "prad": 8204,
      "owner": 8205,
      "grain": 8206,
      "northeast": 8207,
      "bhakti": 8208,
      "machines": 8209,
      "hydr": 8210,
      "wednesday": 8211,
      "laughed": 8212,
      "satisfying": 8213,
      "graphics": 8214,
      "wore": 8215,
      "circum": 8216,
      "ornaments": 8217,
      "31": 8218,
      "Mater": 8219,
      "TE": 8220,
      "Tim": 8221,
      "hic": 8222,
      "tort": 8223,
      "sew": 8224,
      "pods": 8225,
      "illy": 8226,
      "hill": 8227,
      "duo": 8228,
      "ummer": 8229,
      "bucket": 8230,
      "minster": 8231,
      "stems": 8232,
      "posts": 8233,
      "Liked": 8234,
      "fruits": 8235,
      "brighter": 8236,
      "trees": 8237,
      "wrinkle": 8238,
      "commitment": 8239,
      "blowing": 8240,
      "WHAT": 8241,
      "routine": 8242,
      "polyester": 8243,
      "350": 8244,
      "Cali": 8245,
      "Em": 8246,
      "ix": 8247,
      "tled": 8248,
      "uj": 8249,
      "vul": 8250,
      "eral": 8251,
      "isra": 8252,
      "urally": 8253,
      "compartment": 8254,
      "agencies": 8255,
      "desire": 8256,
      "Note": 8257,
      "forest": 8258,
      "bottoms": 8259,
      "Work": 8260,
      "flavorful": 8261,
      "chairman": 8262,
      "madha": 8263,
      "controls": 8264,
      "humanity": 8265,
      "priority": 8266,
      "vegetable": 8267,
      "occasional": 8268,
      "napkins": 8269,
      "Back": 8270,
      "House": 8271,
      "Jim": 8272,
      "Kids": 8273,
      "dhar": 8274,
      "erjee": 8275,
      "islam": 8276,
      "atmo": 8277,
      "assets": 8278,
      "album": 8279,
      "diam": 8280,
      "ravel": 8281,
      "lovers": 8282,
      "asts": 8283,
      "dyn": 8284,
      "monit": 8285,
      "surd": 8286,
      "shocking": 8287,
      "swing": 8288,
      "lacked": 8289,
      "italian": 8290,
      "checking": 8291,
      "turkey": 8292,
      "mounting": 8293,
      "NEVER": 8294,
      "rinse": 8295,
      "credible": 8296,
      "slave": 8297,
      "accidentally": 8298,
      "tongs": 8299,
      "Ended": 8300,
      "rhetoric": 8301,
      "BR": 8302,
      "FUL": 8303,
      "bast": 8304,
      "pinch": 8305,
      "informed": 8306,
      "insight": 8307,
      "otic": 8308,
      "seven": 8309,
      "modified": 8310,
      "keys": 8311,
      "needing": 8312,
      "matched": 8313,
      "bye": 8314,
      "hardwood": 8315,
      "brea": 8316,
      "entered": 8317,
      "Something": 8318,
      "advise": 8319,
      "gains": 8320,
      "70s": 8321,
      "sequence": 8322,
      "crystal": 8323,
      "sources": 8324,
      "anchors": 8325,
      "disturbing": 8326,
      "redeem": 8327,
      "searched": 8328,
      "Long": 8329,
      "Room": 8330,
      "janta": 8331,
      "pity": 8332,
      "rive": 8333,
      "une": 8334,
      "tians": 8335,
      "Their": 8336,
      "poors": 8337,
      "apping": 8338,
      "Think": 8339,
      "cheated": 8340,
      "studio": 8341,
      "garh": 8342,
      "NOW": 8343,
      "hangs": 8344,
      "comfortably": 8345,
      "countertop": 8346,
      "bench": 8347,
      "targets": 8348,
      "imagination": 8349,
      "secured": 8350,
      "commentary": 8351,
      "locally": 8352,
      "occasionally": 8353,
      "mounted": 8354,
      "lefto": 8355,
      "Hot": 8356,
      "bb": 8357,
      "npa": 8358,
      "oon": 8359,
      "rend": 8360,
      "recall": 8361,
      "edition": 8362,
      "encoura": 8363,
      "chat": 8364,
      "sees": 8365,
      "hasnt": 8366,
      "pens": 8367,
      "controlled": 8368,
      "cylin": 8369,
      "hotel": 8370,
      "believed": 8371,
      "THEM": 8372,
      "straps": 8373,
      "dealing": 8374,
      "banana": 8375,
      "swach": 8376,
      "sabka": 8377,
      "missiles": 8378,
      "lands": 8379,
      "stylish": 8380,
      "approval": 8381,
      "suffered": 8382,
      "bonds": 8383,
      "qualities": 8384,
      "guru": 8385,
      "celebrate": 8386,
      "challenging": 8387,
      "Strong": 8388,
      "integrity": 8389,
      "Paul": 8390,
      "shatru": 8391,
      "durability": 8392,
      "Size": 8393,
      "dut": 8394,
      "dmk": 8395,
      "iya": 8396,
      "tat": 8397,
      "versat": 8398,
      "uncle": 8399,
      "justify": 8400,
      "blown": 8401,
      "ela": 8402,
      "minent": 8403,
      "navy": 8404,
      "strings": 8405,
      "bedding": 8406,
      "bias": 8407,
      "minded": 8408,
      "Started": 8409,
      "insane": 8410,
      "pleasure": 8411,
      "consistently": 8412,
      "magnetic": 8413,
      "selected": 8414,
      "blocks": 8415,
      "sanghi": 8416,
      "alcohol": 8417,
      "Material": 8418,
      "Dou": 8419,
      "Pat": 8420,
      "RV": 8421,
      "Vac": 8422,
      "mac": 8423,
      "park": 8424,
      "slot": 8425,
      "thief": 8426,
      "infer": 8427,
      "encourage": 8428,
      "alert": 8429,
      "cozy": 8430,
      "map": 8431,
      "prosecut": 8432,
      "goof": 8433,
      "highlight": 8434,
      "harsh": 8435,
      "fiber": 8436,
      "designs": 8437,
      "microfiber": 8438,
      "university": 8439,
      "TION": 8440,
      "stunning": 8441,
      "Needed": 8442,
      "Despite": 8443,
      "executed": 8444,
      "america": 8445,
      "whisk": 8446,
      "fugitive": 8447,
      "PRODUCT": 8448,
      "mayawati": 8449,
      "Den": 8450,
      "bridge": 8451,
      "foun": 8452,
      "mafi": 8453,
      "manship": 8454,
      "herbs": 8455,
      "tedious": 8456,
      "render": 8457,
      "dragged": 8458,
      "wishing": 8459,
      "pakistanis": 8460,
      "genius": 8461,
      "seasoned": 8462,
      "1947": 8463,
      "shaker": 8464,
      "rajnath": 8465,
      "suggestion": 8466,
      "visiting": 8467,
      "services": 8468,
      "portrayal": 8469,
      "excuse": 8470,
      "maharashtra": 8471,
      "vinegar": 8472,
      "Stainless": 8473,
      "ayushman": 8474,
      "Smith": 8475,
      "Bis": 8476,
      "Down": 8477,
      "Max": 8478,
      "ao": 8479,
      "bends": 8480,
      "dat": 8481,
      "eed": 8482,
      "games": 8483,
      "lp": 8484,
      "macy": 8485,
      "phas": 8486,
      "reforms": 8487,
      "reservation": 8488,
      "divert": 8489,
      "seed": 8490,
      "ilty": 8491,
      "artist": 8492,
      "boat": 8493,
      "boots": 8494,
      "partments": 8495,
      "makeup": 8496,
      "angel": 8497,
      "strip": 8498,
      "changer": 8499,
      "pork": 8500,
      "ronic": 8501,
      "trusted": 8502,
      "detailed": 8503,
      "neglect": 8504,
      "Johnny": 8505,
      "weapons": 8506,
      "thugs": 8507,
      "holidays": 8508,
      "spaces": 8509,
      "equipment": 8510,
      "victim": 8511,
      "Glass": 8512,
      "focused": 8513,
      "puppet": 8514,
      "pseu": 8515,
      "madhavan": 8516,
      "FIN": 8517,
      "Py": 8518,
      "UM": 8519,
      "grid": 8520,
      "ople": 8521,
      "rots": 8522,
      "sincere": 8523,
      "wand": 8524,
      "ensive": 8525,
      "modate": 8526,
      "didi": 8527,
      "library": 8528,
      "raising": 8529,
      "goodness": 8530,
      "setup": 8531,
      "cessive": 8532,
      "opponents": 8533,
      "valent": 8534,
      "bile": 8535,
      "amazed": 8536,
      "INT": 8537,
      "drips": 8538,
      "voir": 8539,
      "soups": 8540,
      "imagined": 8541,
      "laying": 8542,
      "1145": 8543,
      "slogans": 8544,
      "bengaluru": 8545,
      "cartoons": 8546,
      ":-)": 8547,
      "accomplish": 8548,
      "rubbish": 8549,
      "indirectly": 8550,
      "Especially": 8551,
      "NY": 8552,
      "hrs": 8553,
      "ires": 8554,
      "reser": 8555,
      "resign": 8556,
      "itna": 8557,
      "racks": 8558,
      "decaf": 8559,
      "weld": 8560,
      "iled": 8561,
      "erson": 8562,
      "muk": 8563,
      "buff": 8564,
      "smallest": 8565,
      "berg": 8566,
      "Solid": 8567,
      "resort": 8568,
      "Deli": 8569,
      "protest": 8570,
      "voices": 8571,
      "critics": 8572,
      "depending": 8573,
      "reaching": 8574,
      "blinded": 8575,
      "labels": 8576,
      "initiated": 8577,
      "Seriously": 8578,
      "thusi": 8579,
      "allegations": 8580,
      "Harry": 8581,
      "investigation": 8582,
      "shouting": 8583,
      "adapt": 8584,
      "contract": 8585,
      "SMALL": 8586,
      "Trek": 8587,
      "intrigu": 8588,
      "illiterate": 8589,
      "Less": 8590,
      "Met": 8591,
      "biz": 8592,
      "lamp": 8593,
      "troll": 8594,
      "vation": 8595,
      "incompetent": 8596,
      "retail": 8597,
      "toys": 8598,
      "fornia": 8599,
      "rocket": 8600,
      "coated": 8601,
      "rai": 8602,
      "rao": 8603,
      "programs": 8604,
      "goons": 8605,
      "disgrace": 8606,
      "sahi": 8607,
      "pected": 8608,
      "sponge": 8609,
      "1500": 8610,
      "LOW": 8611,
      "tweeting": 8612,
      "petrol": 8613,
      "vacuuming": 8614,
      "removable": 8615,
      "ARS": 8616,
      "looters": 8617,
      "mandate": 8618,
      "separated": 8619,
      "aaaa": 8620,
      "pleasantly": 8621,
      "kicked": 8622,
      "Box": 8623,
      "scrap": 8624,
      "quantity": 8625,
      "confirmed": 8626,
      "oberoi": 8627,
      "pradhan": 8628,
      "ILL": 8629,
      "Junk": 8630,
      "eight": 8631,
      "gance": 8632,
      "pig": 8633,
      "inating": 8634,
      "reput": 8635,
      "assi": 8636,
      "chu": 8637,
      "semi": 8638,
      "nota": 8639,
      "radi": 8640,
      "confl": 8641,
      "proven": 8642,
      "upgrade": 8643,
      "appliance": 8644,
      "applied": 8645,
      "clue": 8646,
      "curren": 8647,
      "merchand": 8648,
      "flawed": 8649,
      "friday": 8650,
      "pointless": 8651,
      "1980": 8652,
      "violated": 8653,
      "legend": 8654,
      "attacking": 8655,
      "ratings": 8656,
      "Seemed": 8657,
      "animated": 8658,
      "AMAZ": 8659,
      "People": 8660,
      "initiative": 8661,
      "effectively": 8662,
      "indicated": 8663,
      "capture": 8664,
      "blocked": 8665,
      "German": 8666,
      "arthrit": 8667,
      "fiscal": 8668,
      "5yrs": 8669,
      "Bru": 8670,
      "CA": 8671,
      "Gr": 8672,
      "Min": 8673,
      "Mat": 8674,
      "lers": 8675,
      "pins": 8676,
      "sque": 8677,
      "vand": 8678,
      "zes": 8679,
      "edited": 8680,
      "alas": 8681,
      "diction": 8682,
      "leo": 8683,
      "uneducated": 8684,
      "oppn": 8685,
      "hua": 8686,
      "Beware": 8687,
      "halfway": 8688,
      "banerjee": 8689,
      "LOOK": 8690,
      "presence": 8691,
      "organization": 8692,
      "statue": 8693,
      "committee": 8694,
      "dimension": 8695,
      "Buyer": 8696,
      "stunt": 8697,
      "uttarak": 8698,
      "muffin": 8699,
      "tomatoes": 8700,
      "Rubber": 8701,
      "Surpr": 8702,
      "oatmeal": 8703,
      "possess": 8704,
      "Bed": 8705,
      "Fre": 8706,
      "Sy": 8707,
      "pages": 8708,
      "thumping": 8709,
      "anna": 8710,
      "versus": 8711,
      "soak": 8712,
      "absurd": 8713,
      "teal": 8714,
      "distr": 8715,
      "greatly": 8716,
      "interaction": 8717,
      "feelings": 8718,
      "cuz": 8719,
      "planet": 8720,
      "signal": 8721,
      "delivers": 8722,
      "CHE": 8723,
      "Poorly": 8724,
      "convince": 8725,
      "thermos": 8726,
      "crude": 8727,
      "doubts": 8728,
      "Costco": 8729,
      "curious": 8730,
      "suicide": 8731,
      "reservoir": 8732,
      "Clo": 8733,
      "Cus": 8734,
      "Hen": 8735,
      "Val": 8736,
      "gger": 8737,
      "toxic": 8738,
      "aye": 8739,
      "rac": 8740,
      "ulate": 8741,
      "progressive": 8742,
      "hoga": 8743,
      "grat": 8744,
      "stopping": 8745,
      "flag": 8746,
      "ggy": 8747,
      "Real": 8748,
      "humble": 8749,
      "emplo": 8750,
      "honorable": 8751,
      "damp": 8752,
      "photograph": 8753,
      "passion": 8754,
      "yoga": 8755,
      "launching": 8756,
      "controver": 8757,
      "hooked": 8758,
      "circul": 8759,
      "spilling": 8760,
      "dresser": 8761,
      "TIME": 8762,
      "licking": 8763,
      "divided": 8764,
      "aspir": 8765,
      "establish": 8766,
      "rupee": 8767,
      "inspiring": 8768,
      "traitors": 8769,
      "tumbler": 8770,
      "Target": 8771,
      "Richard": 8772,
      "Cer": 8773,
      "Grant": 8774,
      "bhu": 8775,
      "dess": 8776,
      "drug": 8777,
      "ego": 8778,
      "jack": 8779,
      "rati": 8780,
      "rein": 8781,
      "enthusi": 8782,
      "robust": 8783,
      "unrealistic": 8784,
      "thern": 8785,
      "sikh": 8786,
      "pregn": 8787,
      "apne": 8788,
      "ousy": 8789,
      "costumes": 8790,
      "voc": 8791,
      "banking": 8792,
      "eradic": 8793,
      "connections": 8794,
      "opted": 8795,
      "blows": 8796,
      "gadget": 8797,
      "strategic": 8798,
      "merely": 8799,
      "prosperous": 8800,
      "contrast": 8801,
      "Either": 8802,
      "PS": 8803,
      "bach": 8804,
      "adminis": 8805,
      "coarse": 8806,
      "abused": 8807,
      "vid": 8808,
      "poison": 8809,
      "godi": 8810,
      "indul": 8811,
      "jokers": 8812,
      "cheer": 8813,
      "smile": 8814,
      "smashed": 8815,
      "shoulder": 8816,
      "interests": 8817,
      "steady": 8818,
      "humans": 8819,
      "RED": 8820,
      "malya": 8821,
      "ITY": 8822,
      "releasing": 8823,
      "congratulated": 8824,
      "passing": 8825,
      "Cannot": 8826,
      "traveling": 8827,
      "railways": 8828,
      "benefici": 8829,
      "Going": 8830,
      "repeatedly": 8831,
      "neighbor": 8832,
      "crunchy": 8833,
      "elder": 8834,
      "chandrababu": 8835,
      "fragrance": 8836,
      "merchandise": 8837,
      "Van": 8838,
      "gloves": 8839,
      "pnb": 8840,
      "skept": 8841,
      "ona": 8842,
      "alian": 8843,
      "wil": 8844,
      "conspi": 8845,
      "sip": 8846,
      "agger": 8847,
      "iding": 8848,
      "oman": 8849,
      "reddy": 8850,
      "particip": 8851,
      "pensive": 8852,
      "viewed": 8853,
      "powered": 8854,
      "politically": 8855,
      "porn": 8856,
      "congratulation": 8857,
      "transl": 8858,
      "supposedly": 8859,
      "network": 8860,
      "firmly": 8861,
      "heroes": 8862,
      "threatened": 8863,
      "bangl": 8864,
      "twisted": 8865,
      "teacher": 8866,
      "PRO": 8867,
      "recie": 8868,
      "Typical": 8869,
      "Large": 8870,
      "horribly": 8871,
      "whistle": 8872,
      "bachao": 8873,
      "inferior": 8874,
      "34": 8875,
      "Cre": 8876,
      "Jer": 8877,
      "Rather": 8878,
      "cars": 8879,
      "daw": 8880,
      "iest": 8881,
      "rates": 8882,
      "thet": 8883,
      "onions": 8884,
      "seals": 8885,
      "icted": 8886,
      "abdull": 8887,
      "unpreced": 8888,
      "spy": 8889,
      "ladies": 8890,
      "grad": 8891,
      "gradu": 8892,
      "shares": 8893,
      "creen": 8894,
      "cupboard": 8895,
      "cracking": 8896,
      "jawa": 8897,
      "crimes": 8898,
      "scenario": 8899,
      "difficulty": 8900,
      "identity": 8901,
      "updated": 8902,
      "switched": 8903,
      "implementation": 8904,
      "spoiled": 8905,
      "chanting": 8906,
      "ensured": 8907,
      "atmosphere": 8908,
      "?\"": 8909,
      "gow": 8910,
      "vok": 8911,
      "assa": 8912,
      "assure": 8913,
      "ota": 8914,
      "washable": 8915,
      "coco": 8916,
      "copper": 8917,
      "amate": 8918,
      "popping": 8919,
      "cancer": 8920,
      "gland": 8921,
      "waterproof": 8922,
      "cupcake": 8923,
      "carrots": 8924,
      "memorable": 8925,
      "smelling": 8926,
      "Being": 8927,
      "seasoning": 8928,
      "fights": 8929,
      "hearted": 8930,
      "experiment": 8931,
      "hungry": 8932,
      "protecting": 8933,
      "folding": 8934,
      "imply": 8935,
      "patriotic": 8936,
      "tricky": 8937,
      "chopping": 8938,
      "intellectuals": 8939,
      "sloppy": 8940,
      "Piece": 8941,
      "substitute": 8942,
      "unprecedented": 8943,
      "SC": 8944,
      "Ul": 8945,
      "bor": 8946,
      "cto": 8947,
      "pient": 8948,
      "sends": 8949,
      "zel": 8950,
      "ena": 8951,
      "arvind": 8952,
      "veter": 8953,
      "hails": 8954,
      "heaven": 8955,
      "unstable": 8956,
      "vene": 8957,
      "omic": 8958,
      "clown": 8959,
      "gled": 8960,
      "primary": 8961,
      "flon": 8962,
      "mpoo": 8963,
      "fuck": 8964,
      "portable": 8965,
      "foundation": 8966,
      "honble": 8967,
      "practically": 8968,
      "brig": 8969,
      "profession": 8970,
      "insulting": 8971,
      "cumber": 8972,
      "thumb": 8973,
      "gallon": 8974,
      "spokesperson": 8975,
      "restaurant": 8976,
      "explanation": 8977,
      "California": 8978,
      "32": 8979,
      "Cru": 8980,
      "Matt": 8981,
      "WWI": 8982,
      "jug": 8983,
      "nagar": 8984,
      "wars": 8985,
      "eria": 8986,
      "chrome": 8987,
      "oops": 8988,
      "phy": 8989,
      "ridges": 8990,
      "opera": 8991,
      "hurts": 8992,
      "assuming": 8993,
      "demonit": 8994,
      "hinge": 8995,
      "Basically": 8996,
      "Half": 8997,
      "Fam": 8998,
      "SI": 8999,
      "Sound": 9000,
      "darn": 9001,
      "vest": 9002,
      "xy": 9003,
      "xious": 9004,
      "onion": 9005,
      "mocking": 9006,
      "ravi": 9007,
      "gem": 9008,
      "wears": 9009,
      "suited": 9010,
      "disagree": 9011,
      "ifying": 9012,
      "taught": 9013,
      "filming": 9014,
      "pillowcases": 9015,
      "ceiving": 9016,
      "courts": 9017,
      "Dead": 9018,
      "eaten": 9019,
      "patra": 9020,
      "explains": 9021,
      "hamper": 9022,
      "vadod": 9023,
      "captured": 9024,
      "Direct": 9025,
      "advertisement": 9026,
      "coffees": 9027,
      "frankly": 9028,
      "pseudo": 9029,
      "employe": 9030,
      "Au": 9031,
      "Dam": 9032,
      "Ugh": 9033,
      "bashing": 9034,
      "ipl": 9035,
      "kab": 9036,
      "kms": 9037,
      "mans": 9038,
      "nag": 9039,
      "sers": 9040,
      "resolve": 9041,
      "stant": 9042,
      "beating": 9043,
      "beats": 9044,
      "becoz": 9045,
      "aree": 9046,
      "neer": 9047,
      "mentality": 9048,
      "saal": 9049,
      "saff": 9050,
      "shampoo": 9051,
      "kesh": 9052,
      "vacation": 9053,
      "deliber": 9054,
      "praises": 9055,
      "weaker": 9056,
      "identical": 9057,
      "wrapping": 9058,
      "Comfort": 9059,
      "tribute": 9060,
      "yojna": 9061,
      "technical": 9062,
      "chunks": 9063,
      "Bruce": 9064,
      "Ice": 9065,
      "Ken": 9066,
      "Wa": 9067,
      "reverse": 9068,
      "som": 9069,
      "outcome": 9070,
      "bugs": 9071,
      "corks": 9072,
      "steep": 9073,
      "recommendation": 9074,
      "conditions": 9075,
      "gaz": 9076,
      "marily": 9077,
      "headed": 9078,
      "Before": 9079,
      "Stre": 9080,
      "blackout": 9081,
      "wisely": 9082,
      "viously": 9083,
      "papers": 9084,
      "protector": 9085,
      "transferred": 9086,
      "accommodate": 9087,
      "spatulas": 9088,
      "formative": 9089,
      "caddy": 9090,
      "insurance": 9091,
      "IE": 9092,
      "Lid": 9093,
      "Mom": 9094,
      "Non": 9095,
      "fate": 9096,
      "hra": 9097,
      "lust": 9098,
      "pli": 9099,
      "rors": 9100,
      "vast": 9101,
      "lion": 9102,
      "sher": 9103,
      "venom": 9104,
      "selfish": 9105,
      "fireplace": 9106,
      "draws": 9107,
      "messed": 9108,
      "properties": 9109,
      "Steel": 9110,
      "existence": 9111,
      "dressing": 9112,
      "jumped": 9113,
      "thousand": 9114,
      "barking": 9115,
      "category": 9116,
      "overwhelming": 9117,
      "HAD": 9118,
      "Ma": 9119,
      "Right": 9120,
      "doo": 9121,
      "kho": 9122,
      "thug": 9123,
      "ingly": 9124,
      "peach": 9125,
      "ulsi": 9126,
      "Italian": 9127,
      "idents": 9128,
      "shapes": 9129,
      "cents": 9130,
      "sena": 9131,
      "extend": 9132,
      "stuffed": 9133,
      "cali": 9134,
      "soundtrack": 9135,
      "imagin": 9136,
      "toasted": 9137,
      "Without": 9138,
      "alyan": 9139,
      "ASTE": 9140,
      "lynch": 9141,
      "jointed": 9142,
      "1971": 9143,
      "Smells": 9144,
      "plunger": 9145,
      "vadodara": 9146,
      "Gir": 9147,
      "Gets": 9148,
      "Kept": 9149,
      "Uni": 9150,
      "gently": 9151,
      "hut": 9152,
      "inct": 9153,
      "inated": 9154,
      "anas": 9155,
      "allies": 9156,
      "mobile": 9157,
      "deta": 9158,
      "canned": 9159,
      "dispos": 9160,
      "displayed": 9161,
      "command": 9162,
      "trapped": 9163,
      "uddin": 9164,
      "sleek": 9165,
      "Stupid": 9166,
      "jibe": 9167,
      "generic": 9168,
      "safely": 9169,
      "praised": 9170,
      "ART": 9171,
      "deserved": 9172,
      "criticising": 9173,
      "definition": 9174,
      "ecosystem": 9175,
      "Bottom": 9176,
      "https": 9177,
      "Luckily": 9178,
      "mafia": 9179,
      "amateur": 9180,
      "Are": 9181,
      "SOME": 9182,
      "bins": 9183,
      "dbt": 9184,
      "esp": 9185,
      "sey": 9186,
      "kel": 9187,
      "ceiling": 9188,
      "confirm": 9189,
      "mahat": 9190,
      "endors": 9191,
      "opposit": 9192,
      "Chan": 9193,
      "obli": 9194,
      "RET": 9195,
      "sells": 9196,
      "rushed": 9197,
      "patience": 9198,
      "bankrupt": 9199,
      "installation": 9200,
      "birds": 9201,
      "westminster": 9202,
      "Robin": 9203,
      "nephew": 9204,
      "versatile": 9205,
      "conspiracy": 9206,
      "BAD": 9207,
      "Cont": 9208,
      "Plan": 9209,
      "YE": 9210,
      "bird": 9211,
      "naked": 9212,
      "witch": 9213,
      "enters": 9214,
      "stability": 9215,
      "robot": 9216,
      "nol": 9217,
      "minus": 9218,
      "gran": 9219,
      "graded": 9220,
      "cloud": 9221,
      "wherever": 9222,
      "pically": 9223,
      "fighter": 9224,
      "caramel": 9225,
      "fuel": 9226,
      "deny": 9227,
      "entertained": 9228,
      "relate": 9229,
      "legit": 9230,
      "hinduism": 9231,
      "flush": 9232,
      "hahahaha": 9233,
      "Quick": 9234,
      "blinds": 9235,
      "hammer": 9236,
      "survival": 9237,
      "constitutional": 9238,
      "paced": 9239,
      "crumbs": 9240,
      "compelling": 9241,
      "physical": 9242,
      "wreath": 9243,
      "Martin": 9244,
      "journos": 9245,
      "WATCH": 9246,
      "israel": 9247,
      "saffron": 9248,
      "Cup": 9249,
      "Mac": 9250,
      "Saw": 9251,
      "euro": 9252,
      "hmm": 9253,
      "resolution": 9254,
      "chr": 9255,
      "icon": 9256,
      "debt": 9257,
      "deceiving": 9258,
      "rific": 9259,
      "unknown": 9260,
      "shd": 9261,
      "plants": 9262,
      "homes": 9263,
      "sometime": 9264,
      "scare": 9265,
      "intage": 9266,
      "reads": 9267,
      "cient": 9268,
      "nails": 9269,
      "traction": 9270,
      "training": 9271,
      "highlights": 9272,
      "primarily": 9273,
      "hary": 9274,
      "izes": 9275,
      "ITE": 9276,
      "silky": 9277,
      "exceptional": 9278,
      "hearts": 9279,
      "sanction": 9280,
      "AME": 9281,
      "royal": 9282,
      "Wife": 9283,
      "subscribe": 9284,
      "affairs": 9285,
      "islamic": 9286,
      "uttarakhand": 9287,
      "Gold": 9288,
      "dun": 9289,
      "eu": 9290,
      "gus": 9291,
      "lumpy": 9292,
      "text": 9293,
      "incorrect": 9294,
      "induction": 9295,
      "ananth": 9296,
      "beep": 9297,
      "rier": 9298,
      "convert": 9299,
      "acqu": 9300,
      "tej": 9301,
      "lace": 9302,
      "ashwin": 9303,
      "instantly": 9304,
      "preference": 9305,
      "signs": 9306,
      "decorations": 9307,
      "protected": 9308,
      "processor": 9309,
      "manufactured": 9310,
      "Seller": 9311,
      "boiled": 9312,
      "circle": 9313,
      "urious": 9314,
      "peaceful": 9315,
      "masses": 9316,
      "bubbles": 9317,
      ":-(": 9318,
      "paintings": 9319,
      "Shipping": 9320,
      "Stopped": 9321,
      "christian": 9322,
      "dignity": 9323,
      "dissapointed": 9324,
      ">&": 9325,
      "Beach": 9326,
      "EVER": 9327,
      "Fla": 9328,
      "Net": 9329,
      "flight": 9330,
      "ik": 9331,
      "colour": 9332,
      "settle": 9333,
      "stopper": 9334,
      "surfaces": 9335,
      "issued": 9336,
      "hubby": 9337,
      "nightmare": 9338,
      "expense": 9339,
      "driving": 9340,
      "meanwhile": 9341,
      "brains": 9342,
      "dreaming": 9343,
      "sexy": 9344,
      "silverware": 9345,
      "symbol": 9346,
      "++++": 9347,
      "mnrega": 9348,
      "partially": 9349,
      "irritating": 9350,
      "FROM": 9351,
      "disposable": 9352,
      "ABLE": 9353,
      "Dep": 9354,
      "Jane": 9355,
      "tender": 9356,
      "yal": 9357,
      "behalf": 9358,
      "beverage": 9359,
      "lik": 9360,
      "nex": 9361,
      "compre": 9362,
      "hoot": 9363,
      "spine": 9364,
      "orted": 9365,
      "guilty": 9366,
      "charming": 9367,
      "jiha": 9368,
      "honour": 9369,
      "????": 9370,
      "jewala": 9371,
      "MORE": 9372,
      "cushions": 9373,
      "editor": 9374,
      "mantri": 9375,
      "utili": 9376,
      "aayog": 9377,
      "Recommended": 9378,
      "redeeming": 9379,
      "lpg": 9380,
      "skeptical": 9381,
      "Bri": 9382,
      "Bur": 9383,
      "Lor": 9384,
      "MI": 9385,
      "Mor": 9386,
      "blog": 9387,
      "gie": 9388,
      "hya": 9389,
      "iams": 9390,
      "mun": 9391,
      "ाा": 9392,
      "leap": 9393,
      "vehic": 9394,
      "fork": 9395,
      "icop": 9396,
      "hab": 9397,
      "wht": 9398,
      "rag": 9399,
      "rave": 9400,
      "rips": 9401,
      "gee": 9402,
      "lope": 9403,
      "tilt": 9404,
      "converted": 9405,
      "pole": 9406,
      "hok": 9407,
      "lesser": 9408,
      "surround": 9409,
      "waz": 9410,
      "renting": 9411,
      "helicop": 9412,
      "chore": 9413,
      "bana": 9414,
      "Somewhat": 9415,
      "storm": 9416,
      "expir": 9417,
      "remained": 9418,
      "Organ": 9419,
      "treats": 9420,
      "pairs": 9421,
      "regards": 9422,
      "ONEY": 9423,
      "bullshit": 9424,
      "quarter": 9425,
      "Pillow": 9426,
      "abdullah": 9427,
      "Family": 9428,
      "55": 9429,
      "Men": 9430,
      "Off": 9431,
      "Ryan": 9432,
      "apron": 9433,
      "cil": 9434,
      "rising": 9435,
      "vary": 9436,
      "recover": 9437,
      "recy": 9438,
      "orient": 9439,
      "lips": 9440,
      "amusing": 9441,
      "asted": 9442,
      "upto": 9443,
      "blew": 9444,
      "cheat": 9445,
      "files": 9446,
      "serial": 9447,
      "traff": 9448,
      "lotus": 9449,
      "attend": 9450,
      "sirf": 9451,
      "decides": 9452,
      "sensor": 9453,
      "failing": 9454,
      "Been": 9455,
      "photography": 9456,
      "extract": 9457,
      "silence": 9458,
      "sounded": 9459,
      "Kevin": 9460,
      "approved": 9461,
      "creamy": 9462,
      "awareness": 9463,
      "blessings": 9464,
      "batches": 9465,
      "corrupted": 9466,
      "phenomen": 9467,
      "intolerance": 9468,
      "manohar": 9469,
      "120": 9470,
      "Burn": 9471,
      "MA": 9472,
[...]
