{
  "version": "1.0",
  "truncation": null,
  "padding": {
    "strategy": {
      "Fixed": 10000
    },
    "direction": "Right",
    "pad_to_multiple_of": null,
    "pad_id": 3,
    "pad_type_id": 0,
    "pad_token": "[PAD]"
  },
  "added_tokens": [
    {
      "id": 0,
      "content": "[UNK]",
      "single_word": false,
      "lstrip": false,
      "rstrip": false,
      "normalized": false,
      "special": true
    },
    {
      "id": 1,
      "content": "[CLS]",
      "single_word": false,
      "lstrip": false,
      "rstrip": false,
      "normalized": false,
      "special": true
    },
    {
      "id": 2,
      "content": "[SEP]",
      "single_word": false,
      "lstrip": false,
      "rstrip": false,
      "normalized": false,
      "special": true
    },
    {
      "id": 3,
      "content": "[PAD]",
      "single_word": false,
      "lstrip": false,
      "rstrip": false,
      "normalized": false,
      "special": true
    },
    {
      "id": 4,
      "content": "[MASK]",
      "single_word": false,
      "lstrip": false,
      "rstrip": false,
      "normalized": false,
      "special": true
    }
  ],
  "normalizer": null,
  "pre_tokenizer": {
    "type": "Whitespace"
  },
  "post_processor": {
    "type": "TemplateProcessing",
    "single": [
      {
        "SpecialToken": {
          "id": "[CLS]",
          "type_id": 0
        }
      },
      {
        "Sequence": {
          "id": "A",
          "type_id": 0
        }
      },
      {
        "SpecialToken": {
          "id": "[SEP]",
          "type_id": 0
        }
      }
    ],
    "pair": [
      {
        "SpecialToken": {
          "id": "[CLS]",
          "type_id": 0
        }
      },
      {
        "Sequence": {
          "id": "A",
          "type_id": 0
        }
      },
      {
        "SpecialToken": {
          "id": "[SEP]",
          "type_id": 0
        }
      },
      {
        "Sequence": {
          "id": "B",
          "type_id": 1
        }
      },
      {
        "SpecialToken": {
          "id": "[SEP]",
          "type_id": 1
        }
      }
    ],
    "special_tokens": {
      "[CLS]": {
        "id": "[CLS]",
        "ids": [
          1
        ],
        "tokens": [
          "[CLS]"
        ]
      },
      "[SEP]": {
        "id": "[SEP]",
        "ids": [
          2
        ],
        "tokens": [
          "[SEP]"
        ]
      }
    }
  },
  "decoder": null,
  "model": {
    "type": "BPE",
    "dropout": null,
    "unk_token": "[UNK]",
    "continuing_subword_prefix": null,
    "end_of_word_suffix": null,
    "fuse_unk": false,
    "vocab": {
      "[UNK]": 0,
      "[CLS]": 1,
      "[SEP]": 2,
      "[PAD]": 3,
      "[MASK]": 4,
      "\u0010": 5,
      "!": 6,
      "\"": 7,
      "#": 8,
      "$": 9,
      "%": 10,
      "&": 11,
      "'": 12,
      "(": 13,
      ")": 14,
      "*": 15,
      "+": 16,
      ",": 17,
      "-": 18,
      ".": 19,
      "/": 20,
      "0": 21,
      "1": 22,
      "2": 23,
      "3": 24,
      "4": 25,
      "5": 26,
      "6": 27,
      "7": 28,
      "8": 29,
      "9": 30,
      ":": 31,
      ";": 32,
      "<": 33,
      "=": 34,
      ">": 35,
      "?": 36,
      "@": 37,
      "A": 38,
      "B": 39,
      "C": 40,
      "D": 41,
      "E": 42,
      "F": 43,
      "G": 44,
      "H": 45,
      "I": 46,
      "J": 47,
      "K": 48,
      "L": 49,
      "M": 50,
      "N": 51,
      "O": 52,
      "P": 53,
      "Q": 54,
      "R": 55,
      "S": 56,
      "T": 57,
      "U": 58,
      "V": 59,
      "W": 60,
      "X": 61,
      "Y": 62,
      "Z": 63,
      "[": 64,
      "\\": 65,
      "]": 66,
      "^": 67,
      "_": 68,
      "`": 69,
      "a": 70,
      "b": 71,
      "c": 72,
      "d": 73,
      "e": 74,
      "f": 75,
      "g": 76,
      "h": 77,
      "i": 78,
      "j": 79,
      "k": 80,
      "l": 81,
      "m": 82,
      "n": 83,
      "o": 84,
      "p": 85,
      "q": 86,
      "r": 87,
      "s": 88,
      "t": 89,
      "u": 90,
      "v": 91,
      "w": 92,
      "x": 93,
      "y": 94,
      "z": 95,
      "{": 96,
      "|": 97,
      "}": 98,
      "~": 99,
      "": 100,
      "th": 101,
      "in": 102,
      "er": 103,
      "an": 104,
      "the": 105,
      "re": 106,
      "it": 107,
      "is": 108,
      "on": 109,
      "or": 110,
      "as": 111,
      "ou": 112,
      "at": 113,
      "to": 114,
      "ed": 115,
      "and": 116,
      "ing": 117,
      "en": 118,
      "es": 119,
      "ll": 120,
      "st": 121,
      "ar": 122,
      "of": 123,
      "se": 124,
      "ot": 125,
      "le": 126,
      "ic": 127,
      "ut": 128,
      "ve": 129,
      "he": 130,
      "me": 131,
      "for": 132,
      "al": 133,
      "oo": 134,
      "ch": 135,
      "be": 136,
      "ver": 137,
      "ct": 138,
      "all": 139,
      "ly": 140,
      "ad": 141,
      "gh": 142,
      "was": 143,
      "ow": 144,
      "li": 145,
      "but": 146,
      "this": 147,
      "ld": 148,
      "wi": 149,
      "so": 150,
      "not": 151,
      "ke": 152,
      "mo": 153,
      "ro": 154,
      "wh": 155,
      "ter": 156,
      "id": 157,
      "ha": 158,
      "co": 159,
      "ay": 160,
      "..": 161,
      "The": 162,
      "are": 163,
      "that": 164,
      "ur": 165,
      "ge": 166,
      "ac": 167,
      "you": 168,
      "with": 169,
      "one": 170,
      "my": 171,
      "ght": 172,
      "ent": 173,
      "ab": 174,
      "we": 175,
      "ie": 176,
      "ould": 177,
      "Th": 178,
      "ther": 179,
      "It": 180,
      "fe": 181,
      "ion": 182,
      "have": 183,
      "out": 184,
      "ri": 185,
      "un": 186,
      "ood": 187,
      "ap": 188,
      "very": 189,
      "lo": 190,
      "up": 191,
      "do": 192,
      "ice": 193,
      "us": 194,
      "ust": 195,
      "ti": 196,
      "ir": 197,
      "ne": 198,
      "if": 199,
      "ma": 200,
      "ook": 201,
      "use": 202,
      "pe": 203,
      "ast": 204,
      "wor": 205,
      "vie": 206,
      "reat": 207,
      "ce": 208,
      "like": 209,
      "ally": 210,
      "pl": 211,
      "sh": 212,
      "ex": 213,
      "pro": 214,
      "qu": 215,
      "com": 216,
      "ain": 217,
      "they": 218,
      "po": 219,
      "am": 220,
      "act": 221,
      "de": 222,
      "good": 223,
      "il": 224,
      "ere": 225,
      "ul": 226,
      "ack": 227,
      "end": 228,
      "This": 229,
      "just": 230,
      "movie": 231,
      "would": 232,
      "ag": 233,
      "get": 234,
      "ill": 235,
      "thing": 236,
      "great": 237,
      "them": 238,
      "per": 239,
      "ure": 240,
      "work": 241,
      "em": 242,
      "tr": 243,
      "ho": 244,
      "can": 245,
      "ca": 246,
      "ough": 247,
      "con": 248,
      "look": 249,
      "some": 250,
      "no": 251,
      "ess": 252,
      "du": 253,
      "had": 254,
      "pre": 255,
      "si": 256,
      "too": 257,
      "der": 258,
      "any": 259,
      "pr": 260,
      "ant": 261,
      "able": 262,
      "other": 263,
      "did": 264,
      "than": 265,
      "more": 266,
      "oun": 267,
      "ought": 268,
      "est": 269,
      "uch": 270,
      "ven": 271,
      "art": 272,
      "ity": 273,
      "fin": 274,
      "well": 275,
      "wat": 276,
      "these": 277,
      "ig": 278,
      "dis": 279,
      "does": 280,
      "will": 281,
      "rom": 282,
      "what": 283,
      "av": 284,
      "ick": 285,
      "time": 286,
      "...": 287,
      "urn": 288,
      "ard": 289,
      "te": 290,
      "itt": 291,
      "bu": 292,
      "way": 293,
      "et": 294,
      "from": 295,
      "ep": 296,
      "ate": 297,
      "duct": 298,
      "ong": 299,
      "really": 300,
      "when": 301,
      "el": 302,
      "int": 303,
      "much": 304,
      "bo": 305,
      "sm": 306,
      "ple": 307,
      "ers": 308,
      "product": 309,
      "um": 310,
      "ies": 311,
      "pp": 312,
      "ink": 313,
      "ade": 314,
      "af": 315,
      "ite": 316,
      "ble": 317,
      "were": 318,
      "!!": 319,
      "ality": 320,
      "ak": 321,
      "our": 322,
      "ty": 323,
      "ide": 324,
      "don": 325,
      "has": 326,
      "sc": 327,
      "bet": 328,
      "ittle": 329,
      "off": 330,
      "ck": 331,
      "love": 332,
      "ved": 333,
      "eas": 334,
      "little": 335,
      "now": 336,
      "about": 337,
      "sa": 338,
      "Not": 339,
      "ound": 340,
      "go": 341,
      "only": 342,
      "quality": 343,
      "fl": 344,
      "nice": 345,
      "small": 346,
      "bl": 347,
      "cause": 348,
      "im": 349,
      "sp": 350,
      "turn": 351,
      "over": 352,
      "ars": 353,
      "fo": 354,
      "They": 355,
      "che": 356,
      "ive": 357,
      "buy": 358,
      "fect": 359,
      "own": 360,
      "better": 361,
      "watch": 362,
      "ind": 363,
      "pur": 364,
      "made": 365,
      "ine": 366,
      "because": 367,
      "pect": 368,
      "after": 369,
      "its": 370,
      "ight": 371,
      "gr": 372,
      "ery": 373,
      "mat": 374,
      "even": 375,
      "su": 376,
      "des": 377,
      "ra": 378,
      "fil": 379,
      "ever": 380,
      "ish": 381,
      "price": 382,
      "ist": 383,
      "jo": 384,
      "need": 385,
      "ss": 386,
      "back": 387,
      "pen": 388,
      "wo": 389,
      "ich": 390,
      "point": 391,
      "ze": 392,
      "ory": 393,
      "could": 394,
      "put": 395,
      "your": 396,
      "how": 397,
      "set": 398,
      "ese": 399,
      "cle": 400,
      "expect": 401,
      "chas": 402,
      "there": 403,
      "pt": 404,
      "ru": 405,
      "col": 406,
      "fir": 407,
      "she": 408,
      "ment": 409,
      "want": 410,
      "ace": 411,
      "ous": 412,
      "by": 413,
      "used": 414,
      "bought": 415,
      "Very": 416,
      "ye": 417,
      "again": 418,
      "less": 419,
      "didn": 420,
      "read": 421,
      "age": 422,
      "purchas": 423,
      "hand": 424,
      "br": 425,
      "which": 426,
      "ass": 427,
      "tain": 428,
      "ting": 429,
      "iff": 430,
      "ser": 431,
      "first": 432,
      "hold": 433,
      "day": 434,
      "make": 435,
      "ction": 436,
      "These": 437,
      "top": 438,
      "ry": 439,
      "comm": 440,
      "ation": 441,
      "gl": 442,
      "who": 443,
      "light": 444,
      "film": 445,
      "long": 446,
      "We": 447,
      "ves": 448,
      "order": 449,
      "see": 450,
      "got": 451,
      "thr": 452,
      "side": 453,
      "appoint": 454,
      "clo": 455,
      "ok": 456,
      "color": 457,
      "tast": 458,
      "return": 459,
      "every": 460,
      "fun": 461,
      "ict": 462,
      "mak": 463,
      "cheap": 464,
      "keep": 465,
      "di": 466,
      "bit": 467,
      "les": 468,
      "been": 469,
      "most": 470,
      "view": 471,
      "ful": 472,
      "tty": 473,
      "ily": 474,
      "So": 475,
      "story": 476,
      "show": 477,
      "two": 478,
      "size": 479,
      "doesn": 480,
      "still": 481,
      "diff": 482,
      "cut": 483,
      "part": 484,
      "commend": 485,
      "her": 486,
      "Great": 487,
      "air": 488,
      "though": 489,
      "think": 490,
      "lot": 491,
      "ue": 492,
      "hi": 493,
      "ort": 494,
      "bad": 495,
      "old": 496,
      "recommend": 497,
      "seem": 498,
      "easy": 499,
      "right": 500,
      "clean": 501,
      "disappoint": 502,
      "cl": 503,
      "mon": 504,
      "ks": 505,
      "man": 506,
      "astic": 507,
      "ta": 508,
      "perfect": 509,
      "ave": 510,
      "If": 511,
      "ree": 512,
      "ull": 513,
      "enough": 514,
      "works": 515,
      "fit": 516,
      "ial": 517,
      "oom": 518,
      "cor": 519,
      "avor": 520,
      "But": 521,
      "tim": 522,
      "cr": 523,
      "offe": 524,
      "ving": 525,
      "My": 526,
      "ang": 527,
      "hard": 528,
      "then": 529,
      "oney": 530,
      "bed": 531,
      "pretty": 532,
      "ps": 533,
      "sup": 534,
      "offee": 535,
      "big": 536,
      "into": 537,
      "thought": 538,
      "looks": 539,
      "red": 540,
      "....": 541,
      "bro": 542,
      "Lo": 543,
      "water": 544,
      "low": 545,
      "fore": 546,
      "also": 547,
      "know": 548,
      "say": 549,
      "ated": 550,
      "coffee": 551,
      "dy": 552,
      "min": 553,
      "Wh": 554,
      "ts": 555,
      "try": 556,
      "ile": 557,
      "money": 558,
      "bot": 559,
      "wr": 560,
      "sto": 561,
      "maz": 562,
      "ason": 563,
      "should": 564,
      "feel": 565,
      "review": 566,
      "happ": 567,
      "lid": 568,
      "lf": 569,
      "last": 570,
      "using": 571,
      "won": 572,
      "ste": 573,
      "looking": 574,
      "au": 575,
      "worth": 576,
      "cup": 577,
      "TH": 578,
      "item": 579,
      "icture": 580,
      "pack": 581,
      "lar": 582,
      "few": 583,
      "expected": 584,
      "ious": 585,
      "plastic": 586,
      "ber": 587,
      "down": 588,
      "gu": 589,
      "pan": 590,
      "An": 591,
      "new": 592,
      "wash": 593,
      "sure": 594,
      "picture": 595,
      "aw": 596,
      "times": 597,
      "something": 598,
      "oft": 599,
      "char": 600,
      "best": 601,
      "ually": 602,
      "joy": 603,
      "pie": 604,
      "came": 605,
      "tri": 606,
      "cook": 607,
      "ms": 608,
      "open": 609,
      "month": 610,
      "high": 611,
      "his": 612,
      "find": 613,
      "fort": 614,
      "where": 615,
      "son": 616,
      "add": 617,
      "taste": 618,
      "itch": 619,
      "differ": 620,
      "ach": 621,
      "inter": 622,
      "str": 623,
      "disappointed": 624,
      "ase": 625,
      "ger": 626,
      "box": 627,
      "real": 628,
      "--": 629,
      "room": 630,
      "Good": 631,
      "thin": 632,
      "ise": 633,
      "before": 634,
      "pos": 635,
      "mov": 636,
      "bag": 637,
      "pill": 638,
      "through": 639,
      "fine": 640,
      "stand": 641,
      "enjoy": 642,
      "Love": 643,
      "another": 644,
      "never": 645,
      "place": 646,
      "ff": 647,
      "many": 648,
      "same": 649,
      "dr": 650,
      "movies": 651,
      "their": 652,
      "ER": 653,
      "rew": 654,
      "ating": 655,
      "ors": 656,
      "tom": 657,
      "tre": 658,
      "cover": 659,
      "cur": 660,
      "No": 661,
      "pillow": 662,
      "under": 663,
      "may": 664,
      "In": 665,
      "fan": 666,
      "ked": 667,
      "pped": 668,
      "ult": 669,
      "cond": 670,
      "going": 671,
      "while": 672,
      "ls": 673,
      "stu": 674,
      "Al": 675,
      "self": 676,
      "You": 677,
      "stick": 678,
      "aut": 679,
      "come": 680,
      "arri": 681,
      "tal": 682,
      "full": 683,
      "years": 684,
      "ip": 685,
      ").": 686,
      "ince": 687,
      "pec": 688,
      "plac": 689,
      "mazon": 690,
      "war": 691,
      "ign": 692,
      "Do": 693,
      "around": 694,
      "Wor": 695,
      "ces": 696,
      "Ch": 697,
      "gg": 698,
      "different": 699,
      "ably": 700,
      "job": 701,
      "purchase": 702,
      "ush": 703,
      "makes": 704,
      "purchased": 705,
      "play": 706,
      "hot": 707,
      "car": 708,
      "gether": 709,
      "stars": 710,
      "ence": 711,
      "Re": 712,
      "together": 713,
      "ny": 714,
      "flavor": 715,
      "autif": 716,
      "NO": 717,
      "start": 718,
      "line": 719,
      "ren": 720,
      "wanted": 721,
      "soft": 722,
      "proble": 723,
      "charact": 724,
      "Just": 725,
      "fr": 726,
      "ni": 727,
      "without": 728,
      "acting": 729,
      "far": 730,
      "ical": 731,
      "ark": 732,
      "ition": 733,
      "heav": 734,
      "ped": 735,
      "00": 736,
      "cent": 737,
      "months": 738,
      "happy": 739,
      "comp": 740,
      "There": 741,
      "wee": 742,
      "kind": 743,
      "sha": 744,
      "ways": 745,
      "press": 746,
      "glass": 747,
      "ordered": 748,
      "ket": 749,
      "rece": 750,
      "give": 751,
      "augh": 752,
      "ol": 753,
      "ool": 754,
      "easily": 755,
      "IN": 756,
      "mell": 757,
      "being": 758,
      "sion": 759,
      "atch": 760,
      "ary": 761,
      "cont": 762,
      "urdy": 763,
      "ire": 764,
      "mag": 765,
      "mis": 766,
      "away": 767,
      "design": 768,
      "hel": 769,
      "since": 770,
      "DV": 771,
      "found": 772,
      "cri": 773,
      "wish": 774,
      "kid": 775,
      "ute": 776,
      "Amazon": 777,
      "exce": 778,
      "autiful": 779,
      "DVD": 780,
      "rible": 781,
      "year": 782,
      "gi": 783,
      "How": 784,
      "gif": 785,
      "cho": 786,
      "sur": 787,
      "ning": 788,
      "ately": 789,
      "atter": 790,
      "stay": 791,
      "sheet": 792,
      "And": 793,
      "ones": 794,
      "ance": 795,
      "large": 796,
      "ans": 797,
      "sive": 798,
      "Be": 799,
      "ix": 800,
      "series": 801,
      "ople": 802,
      "sing": 803,
      "pot": 804,
      "ild": 805,
      "take": 806,
      "tried": 807,
      "ived": 808,
      "smell": 809,
      "quite": 810,
      "bottom": 811,
      "finite": 812,
      "ooks": 813,
      "watching": 814,
      "pping": 815,
      "seems": 816,
      "care": 817,
      "ular": 818,
      "ef": 819,
      "cre": 820,
      "sim": 821,
      "ash": 822,
      "sturdy": 823,
      "wasn": 824,
      "finitely": 825,
      "ame": 826,
      "med": 827,
      "nothing": 828,
      "people": 829,
      "inst": 830,
      "RE": 831,
      "okay": 832,
      "heavy": 833,
      "erial": 834,
      "quick": 835,
      "actually": 836,
      "bas": 837,
      "ug": 838,
      "interest": 839,
      "waste": 840,
      "gre": 841,
      "ption": 842,
      "bably": 843,
      "llent": 844,
      "weight": 845,
      "needed": 846,
      "fact": 847,
      "fri": 848,
      "tho": 849,
      "Nice": 850,
      "ange": 851,
      "hang": 852,
      "reviews": 853,
      "ton": 854,
      "anything": 855,
      "gar": 856,
      "arrived": 857,
      "ier": 858,
      "itchen": 859,
      "ted": 860,
      "tea": 861,
      "descri": 862,
      "cute": 863,
      "cou": 864,
      "poor": 865,
      "fli": 866,
      "om": 867,
      "St": 868,
      "fall": 869,
      "material": 870,
      "sid": 871,
      "dry": 872,
      "smaller": 873,
      "ner": 874,
      "ual": 875,
      "done": 876,
      "coun": 877,
      "ken": 878,
      "gift": 879,
      "second": 880,
      "piece": 881,
      "things": 882,
      "NOT": 883,
      "season": 884,
      "ready": 885,
      "always": 886,
      "store": 887,
      "AN": 888,
      "mer": 889,
      "bre": 890,
      "ail": 891,
      "iz": 892,
      "sle": 893,
      "wood": 894,
      "However": 895,
      "isn": 896,
      "hal": 897,
      "fill": 898,
      "enter": 899,
      "handle": 900,
      "heat": 901,
      "!!!": 902,
      "here": 903,
      "dish": 904,
      "tak": 905,
      "food": 906,
      "liked": 907,
      "received": 908,
      "Don": 909,
      "orig": 910,
      "seen": 911,
      "loved": 912,
      "super": 913,
      "origin": 914,
      "10": 915,
      "utes": 916,
      "getting": 917,
      "cer": 918,
      "brand": 919,
      "ON": 920,
      "thick": 921,
      "worked": 922,
      "ric": 923,
      "For": 924,
      "broke": 925,
      "minutes": 926,
      "ping": 927,
      "action": 928,
      "sever": 929,
      "plot": 930,
      "sol": 931,
      "replac": 932,
      "THE": 933,
      "comple": 934,
      "both": 935,
      "strong": 936,
      "kni": 937,
      "fam": 938,
      "port": 939,
      "why": 940,
      "problem": 941,
      "One": 942,
      "ba": 943,
      "rect": 944,
      "pensive": 945,
      "scen": 946,
      "probably": 947,
      "kitchen": 948,
      "comfort": 949,
      "ature": 950,
      "lie": 951,
      "half": 952,
      "broken": 953,
      "sent": 954,
      "att": 955,
      "almost": 956,
      "reason": 957,
      "said": 958,
      "ised": 959,
      "da": 960,
      "gets": 961,
      "lle": 962,
      "favor": 963,
      "wa": 964,
      "several": 965,
      "De": 966,
      "lic": 967,
      "20": 968,
      "each": 969,
      "sli": 970,
      "Ex": 971,
      "Does": 972,
      "hour": 973,
      "od": 974,
      "Would": 975,
      "llow": 976,
      "On": 977,
      "mas": 978,
      "ud": 979,
      "funny": 980,
      "star": 981,
      "reg": 982,
      "beautiful": 983,
      "pay": 984,
      "ft": 985,
      "move": 986,
      "Also": 987,
      "ST": 988,
      "raw": 989,
      "expensive": 990,
      "dur": 991,
      "comes": 992,
      "OK": 993,
      "vac": 994,
      "however": 995,
      "once": 996,
      "ending": 997,
      "hor": 998,
      "aughter": 999,
      "issu": 1000,
      "wonder": 1001,
      "He": 1002,
      "msy": 1003,
      "let": 1004,
      "cess": 1005,
      "kids": 1006,
      "IT": 1007,
      "those": 1008,
      "table": 1009,
      "inside": 1010,
      "wouldn": 1011,
      "Did": 1012,
      "slow": 1013,
      "three": 1014,
      "val": 1015,
      "guess": 1016,
      "original": 1017,
      "cand": 1018,
      "making": 1019,
      "mem": 1020,
      "definitely": 1021,
      "tw": 1022,
      "ctions": 1023,
      "tress": 1024,
      "stead": 1025,
      "white": 1026,
      "home": 1027,
      "night": 1028,
      "pow": 1029,
      "Works": 1030,
      "ings": 1031,
      "ens": 1032,
      "Mo": 1033,
      "plain": 1034,
      "sem": 1035,
      "til": 1036,
      "As": 1037,
      "ends": 1038,
      "break": 1039,
      "AT": 1040,
      "complete": 1041,
      "actly": 1042,
      "ins": 1043,
      "ither": 1044,
      "ouse": 1045,
      "drink": 1046,
      "burn": 1047,
      "ments": 1048,
      "stuff": 1049,
      "run": 1050,
      "fer": 1051,
      "couple": 1052,
      "days": 1053,
      "IS": 1054,
      "returned": 1055,
      "daughter": 1056,
      "Af": 1057,
      "towe": 1058,
      "icult": 1059,
      "When": 1060,
      "short": 1061,
      "contain": 1062,
      "pa": 1063,
      "already": 1064,
      "mattress": 1065,
      "whole": 1066,
      "else": 1067,
      "spec": 1068,
      "ward": 1069,
      "yet": 1070,
      "flimsy": 1071,
      "What": 1072,
      "ially": 1073,
      "might": 1074,
      "band": 1075,
      "life": 1076,
      "pain": 1077,
      "After": 1078,
      "xt": 1079,
      "shi": 1080,
      "version": 1081,
      "person": 1082,
      "comfortable": 1083,
      "appe": 1084,
      "free": 1085,
      "apart": 1086,
      "others": 1087,
      "such": 1088,
      "family": 1089,
      "LO": 1090,
      "vent": 1091,
      "ome": 1092,
      "oring": 1093,
      "finish": 1094,
      "buying": 1095,
      "dri": 1096,
      "gave": 1097,
      "la": 1098,
      "cool": 1099,
      "Too": 1100,
      "ement": 1101,
      "Se": 1102,
      "having": 1103,
      "bott": 1104,
      "must": 1105,
      "flo": 1106,
      "swe": 1107,
      "sal": 1108,
      "sub": 1109,
      "close": 1110,
      "fast": 1111,
      "longer": 1112,
      "Chr": 1113,
      "took": 1114,
      "ended": 1115,
      "difficult": 1116,
      "rug": 1117,
      "class": 1118,
      "sheets": 1119,
      "extr": 1120,
      "bow": 1121,
      "unit": 1122,
      "Per": 1123,
      "shar": 1124,
      "Will": 1125,
      "board": 1126,
      "couldn": 1127,
      "ater": 1128,
      "space": 1129,
      "aren": 1130,
      "belie": 1131,
      "Un": 1132,
      "screw": 1133,
      "sn": 1134,
      "colle": 1135,
      "fre": 1136,
      "AL": 1137,
      "least": 1138,
      "sho": 1139,
      "tell": 1140,
      "curtain": 1141,
      "hum": 1142,
      "filter": 1143,
      "res": 1144,
      "packag": 1145,
      "OR": 1146,
      "ub": 1147,
      "nor": 1148,
      "trying": 1149,
      "dark": 1150,
      "arly": 1151,
      "perfectly": 1152,
      "pieces": 1153,
      "characters": 1154,
      "mach": 1155,
      "him": 1156,
      "working": 1157,
      "iso": 1158,
      "quickly": 1159,
      "Some": 1160,
      "help": 1161,
      "everything": 1162,
      "kes": 1163,
      "That": 1164,
      "iced": 1165,
      "wise": 1166,
      "instead": 1167,
      "favorite": 1168,
      "until": 1169,
      "wall": 1170,
      "house": 1171,
      "metal": 1172,
      "interesting": 1173,
      "black": 1174,
      "loves": 1175,
      "unch": 1176,
      "mix": 1177,
      "head": 1178,
      "pose": 1179,
      "VE": 1180,
      "idea": 1181,
      "cast": 1182,
      "sell": 1183,
      "entertain": 1184,
      "warm": 1185,
      "vi": 1186,
      "ank": 1187,
      "either": 1188,
      "usband": 1189,
      "pleas": 1190,
      "ons": 1191,
      "par": 1192,
      "bly": 1193,
      "excellent": 1194,
      "actors": 1195,
      "ote": 1196,
      "uum": 1197,
      "ates": 1198,
      "ob": 1199,
      "sk": 1200,
      "episo": 1201,
      "child": 1202,
      "exactly": 1203,
      "assem": 1204,
      "batter": 1205,
      "leak": 1206,
      "went": 1207,
      "fab": 1208,
      "vert": 1209,
      "crack": 1210,
      "ness": 1211,
      "looked": 1212,
      "watched": 1213,
      "ically": 1214,
      "sed": 1215,
      "next": 1216,
      "rather": 1217,
      "fully": 1218,
      "vious": 1219,
      "aster": 1220,
      "cost": 1221,
      "scr": 1222,
      "bags": 1223,
      "UT": 1224,
      "lin": 1225,
      "ird": 1226,
      "inch": 1227,
      "Was": 1228,
      "vide": 1229,
      "week": 1230,
      "larger": 1231,
      "king": 1232,
      "colors": 1233,
      "gan": 1234,
      "VER": 1235,
      "husband": 1236,
      "started": 1237,
      "door": 1238,
      "),": 1239,
      "gen": 1240,
      "ween": 1241,
      "cap": 1242,
      "fa": 1243,
      "past": 1244,
      "mess": 1245,
      "cups": 1246,
      "vacuum": 1247,
      "case": 1248,
      "stain": 1249,
      "Looks": 1250,
      "rest": 1251,
      "asy": 1252,
      "chair": 1253,
      "mar": 1254,
      "dec": 1255,
      "iny": 1256,
      "hoto": 1257,
      "between": 1258,
      "maybe": 1259,
      "aper": 1260,
      "ited": 1261,
      "iting": 1262,
      "Pro": 1263,
      "Bought": 1264,
      "En": 1265,
      "effect": 1266,
      "op": 1267,
      "row": 1268,
      "vel": 1269,
      "ations": 1270,
      "lu": 1271,
      "ware": 1272,
      "flat": 1273,
      "deal": 1274,
      "fortun": 1275,
      "character": 1276,
      "Its": 1277,
      "esome": 1278,
      "needs": 1279,
      "enjoyed": 1280,
      "fits": 1281,
      "sound": 1282,
      "ED": 1283,
      "medi": 1284,
      "regular": 1285,
      "ext": 1286,
      "photo": 1287,
      "ount": 1288,
      "stor": 1289,
      "left": 1290,
      "All": 1291,
      "ele": 1292,
      "Christ": 1293,
      "lt": 1294,
      "solute": 1295,
      "power": 1296,
      "posed": 1297,
      "roll": 1298,
      "tem": 1299,
      "seal": 1300,
      "ared": 1301,
      "que": 1302,
      "Li": 1303,
      "Well": 1304,
      "fabric": 1305,
      "She": 1306,
      "advert": 1307,
      "extra": 1308,
      "py": 1309,
      "ots": 1310,
      "wrong": 1311,
      "book": 1312,
      "Really": 1313,
      "replacement": 1314,
      "kept": 1315,
      "tray": 1316,
      "incl": 1317,
      "AS": 1318,
      "machine": 1319,
      "ative": 1320,
      "sleep": 1321,
      "draw": 1322,
      "shower": 1323,
      "vice": 1324,
      "Dis": 1325,
      "pecially": 1326,
      "ced": 1327,
      "counter": 1328,
      "siz": 1329,
      "ents": 1330,
      "especially": 1331,
      "ds": 1332,
      "Other": 1333,
      "takes": 1334,
      "May": 1335,
      "unk": 1336,
      "pull": 1337,
      "sweet": 1338,
      "parts": 1339,
      "washer": 1340,
      "non": 1341,
      "const": 1342,
      "cy": 1343,
      "tach": 1344,
      "fortunately": 1345,
      "sit": 1346,
      "tight": 1347,
      "igh": 1348,
      "ions": 1349,
      "pop": 1350,
      "hours": 1351,
      "perfor": 1352,
      "ago": 1353,
      "sat": 1354,
      "completely": 1355,
      "vis": 1356,
      "ense": 1357,
      "special": 1358,
      "fair": 1359,
      "lock": 1360,
      "pick": 1361,
      "mal": 1362,
      "uses": 1363,
      "treme": 1364,
      "match": 1365,
      "Christmas": 1366,
      "por": 1367,
      "peri": 1368,
      "wind": 1369,
      "type": 1370,
      "knife": 1371,
      "loo": 1372,
      "face": 1373,
      "allow": 1374,
      "true": 1375,
      "led": 1376,
      "Can": 1377,
      "Pre": 1378,
      "boring": 1379,
      "corn": 1380,
      "surpr": 1381,
      "rill": 1382,
      "iron": 1383,
      "date": 1384,
      "mind": 1385,
      "rust": 1386,
      "weeks": 1387,
      "till": 1388,
      "mazing": 1389,
      "package": 1390,
      "ci": 1391,
      "spo": 1392,
      "cold": 1393,
      "Easy": 1394,
      "Had": 1395,
      "bs": 1396,
      "Che": 1397,
      "paper": 1398,
      "sil": 1399,
      "sy": 1400,
      "fi": 1401,
      "ding": 1402,
      "anyone": 1403,
      "follow": 1404,
      "rame": 1405,
      "friend": 1406,
      "12": 1407,
      "deli": 1408,
      "oil": 1409,
      "ided": 1410,
      "decent": 1411,
      "cal": 1412,
      "Perfect": 1413,
      "fresh": 1414,
      "itself": 1415,
      "idd": 1416,
      "expecting": 1417,
      "video": 1418,
      "cas": 1419,
      "main": 1420,
      "keeps": 1421,
      "description": 1422,
      "TO": 1423,
      "ror": 1424,
      "ING": 1425,
      "solutely": 1426,
      "wonderful": 1427,
      "Now": 1428,
      "saw": 1429,
      "je": 1430,
      "someone": 1431,
      "egg": 1432,
      "items": 1433,
      "shows": 1434,
      "scenes": 1435,
      "shipping": 1436,
      "amount": 1437,
      "bar": 1438,
      "terrible": 1439,
      "OU": 1440,
      "bigger": 1441,
      "meas": 1442,
      "smoo": 1443,
      "ient": 1444,
      "clock": 1445,
      "gs": 1446,
      "LE": 1447,
      "holds": 1448,
      "!!!!": 1449,
      "slight": 1450,
      "tremely": 1451,
      "frame": 1452,
      "instru": 1453,
      "pper": 1454,
      "hoping": 1455,
      "sharp": 1456,
      "wife": 1457,
      "cannot": 1458,
      "=\"": 1459,
      "mus": 1460,
      "mine": 1461,
      "possi": 1462,
      "attach": 1463,
      "goes": 1464,
      "happen": 1465,
      "ath": 1466,
      "ys": 1467,
      "call": 1468,
      "eat": 1469,
      "complain": 1470,
      "19": 1471,
      "rub": 1472,
      "ply": 1473,
      "lack": 1474,
      "prefer": 1475,
      "says": 1476,
      "\".": 1477,
      "ten": 1478,
      "scratch": 1479,
      "sty": 1480,
      "ont": 1481,
      "ouch": 1482,
      "bread": 1483,
      "hope": 1484,
      "gin": 1485,
      "replace": 1486,
      "oven": 1487,
      "cus": 1488,
      "clear": 1489,
      "live": 1490,
      "direct": 1491,
      "during": 1492,
      "cooking": 1493,
      "eng": 1494,
      "etc": 1495,
      "15": 1496,
      "To": 1497,
      "believe": 1498,
      "supposed": 1499,
      "floor": 1500,
      "haven": 1501,
      "paid": 1502,
      "proper": 1503,
      "company": 1504,
      "plan": 1505,
      "throom": 1506,
      "entire": 1507,
      "washed": 1508,
      "ying": 1509,
      "pri": 1510,
      "blue": 1511,
      "bathroom": 1512,
      "smooth": 1513,
      "Ke": 1514,
      "aking": 1515,
      "AND": 1516,
      "organ": 1517,
      "feature": 1518,
      "advertised": 1519,
      "spr": 1520,
      "purpose": 1521,
      "issue": 1522,
      "fig": 1523,
      "AR": 1524,
      "holes": 1525,
      "member": 1526,
      "coming": 1527,
      "entertaining": 1528,
      "ouble": 1529,
      "myself": 1530,
      "products": 1531,
      "feels": 1532,
      "setting": 1533,
      "throw": 1534,
      "ges": 1535,
      "ross": 1536,
      "rack": 1537,
      "weak": 1538,
      "30": 1539,
      "ph": 1540,
      "TV": 1541,
      "Ar": 1542,
      "mug": 1543,
      "ned": 1544,
      "Maybe": 1545,
      "uge": 1546,
      "ats": 1547,
      "amazing": 1548,
      "pressed": 1549,
      "EN": 1550,
      "shape": 1551,
      "ress": 1552,
      "towels": 1553,
      "zy": 1554,
      "Ne": 1555,
      "lit": 1556,
      "rid": 1557,
      "window": 1558,
      "tract": 1559,
      "bottle": 1560,
      "cks": 1561,
      "??": 1562,
      "list": 1563,
      "ize": 1564,
      "aves": 1565,
      "Over": 1566,
      "seemed": 1567,
      "decor": 1568,
      "Even": 1569,
      "sor": 1570,
      "mode": 1571,
      "described": 1572,
      "Didn": 1573,
      "solid": 1574,
      "cept": 1575,
      "dishwasher": 1576,
      "collection": 1577,
      "change": 1578,
      "pet": 1579,
      "function": 1580,
      "awesome": 1581,
      "Jo": 1582,
      "Ro": 1583,
      "glad": 1584,
      "films": 1585,
      "ky": 1586,
      "sl": 1587,
      "sider": 1588,
      "pleased": 1589,
      "ilar": 1590,
      "arely": 1591,
      "creat": 1592,
      "bowl": 1593,
      "mic": 1594,
      "Po": 1595,
      "rating": 1596,
      "stop": 1597,
      "value": 1598,
      "Sh": 1599,
      "ake": 1600,
      "due": 1601,
      "fell": 1602,
      ".....": 1603,
      "stopped": 1604,
      "stuck": 1605,
      "ref": 1606,
      "huge": 1607,
      "extremely": 1608,
      "exc": 1609,
      "cour": 1610,
      "four": 1611,
      "later": 1612,
      "og": 1613,
      "mor": 1614,
      "steam": 1615,
      "nicely": 1616,
      "ground": 1617,
      "ith": 1618,
      "felt": 1619,
      "spe": 1620,
      "touch": 1621,
      "VERY": 1622,
      "loose": 1623,
      "green": 1624,
      "Qu": 1625,
      "lves": 1626,
      "figure": 1627,
      "At": 1628,
      "ship": 1629,
      "prote": 1630,
      "within": 1631,
      "tiny": 1632,
      "reen": 1633,
      "install": 1634,
      "rice": 1635,
      "soon": 1636,
      "instructions": 1637,
      "link": 1638,
      "chi": 1639,
      "Br": 1640,
      "Only": 1641,
      "youn": 1642,
      "lead": 1643,
      "standard": 1644,
      "blan": 1645,
      "often": 1646,
      "CH": 1647,
      "normal": 1648,
      "certain": 1649,
      "imag": 1650,
      "rele": 1651,
      "base": 1652,
      "men": 1653,
      "LY": 1654,
      "ju": 1655,
      "vid": 1656,
      "sides": 1657,
      "iddle": 1658,
      "colate": 1659,
      "Ok": 1660,
      "includ": 1661,
      "easier": 1662,
      "lay": 1663,
      "Doesn": 1664,
      "washing": 1665,
      "pans": 1666,
      "tap": 1667,
      "ond": 1668,
      "returning": 1669,
      "lots": 1670,
      "US": 1671,
      "oud": 1672,
      "packaging": 1673,
      "possible": 1674,
      "problems": 1675,
      "consider": 1676,
      "Exce": 1677,
      "body": 1678,
      "ics": 1679,
      "outside": 1680,
      "Bo": 1681,
      "rel": 1682,
      "turned": 1683,
      "gir": 1684,
      "partic": 1685,
      "correct": 1686,
      "simple": 1687,
      "worst": 1688,
      "print": 1689,
      "itting": 1690,
      "comed": 1691,
      "pillows": 1692,
      "grand": 1693,
      "hands": 1694,
      "highly": 1695,
      "50": 1696,
      "putting": 1697,
      "understand": 1698,
      "Ret": 1699,
      "absolutely": 1700,
      "chang": 1701,
      "doing": 1702,
      "disc": 1703,
      "steel": 1704,
      "addition": 1705,
      "dro": 1706,
      "ling": 1707,
      "grap": 1708,
      "disappointing": 1709,
      "ES": 1710,
      "Ho": 1711,
      "given": 1712,
      "bright": 1713,
      "rip": 1714,
      "als": 1715,
      "opened": 1716,
      "issues": 1717,
      "holder": 1718,
      "ster": 1719,
      "knives": 1720,
      "performan": 1721,
      "remember": 1722,
      "container": 1723,
      "cleaning": 1724,
      "amp": 1725,
      "antly": 1726,
      "matter": 1727,
      "Pretty": 1728,
      "num": 1729,
      "ired": 1730,
      "present": 1731,
      "Return": 1732,
      "Still": 1733,
      "cab": 1734,
      "shelf": 1735,
      "Excellent": 1736,
      "area": 1737,
      "overall": 1738,
      "unless": 1739,
      "brush": 1740,
      "arch": 1741,
      "cons": 1742,
      "sugar": 1743,
      "episodes": 1744,
      "akes": 1745,
      "tit": 1746,
      "front": 1747,
      "mil": 1748,
      "LOVE": 1749,
      "storage": 1750,
      "chocolate": 1751,
      "deep": 1752,
      "fund": 1753,
      "cheaper": 1754,
      "butter": 1755,
      "var": 1756,
      "maker": 1757,
      "Pl": 1758,
      "hy": 1759,
      "lids": 1760,
      "hair": 1761,
      "Unfortunately": 1762,
      "send": 1763,
      "soap": 1764,
      "contin": 1765,
      "Cheap": 1766,
      "ball": 1767,
      "damag": 1768,
      "twice": 1769,
      "decided": 1770,
      "edge": 1771,
      "tru": 1772,
      "tastes": 1773,
      "io": 1774,
      "ible": 1775,
      "vol": 1776,
      "along": 1777,
      "gener": 1778,
      "missing": 1779,
      "previous": 1780,
      "els": 1781,
      "ather": 1782,
      "requ": 1783,
      "grind": 1784,
      "support": 1785,
      "properly": 1786,
      "laugh": 1787,
      "wrap": 1788,
      "towel": 1789,
      "anno": 1790,
      "aving": 1791,
      "ices": 1792,
      "Co": 1793,
      "sad": 1794,
      "cheaply": 1795,
      "seller": 1796,
      "priced": 1797,
      "measure": 1798,
      "slightly": 1799,
      "horrible": 1800,
      "moving": 1801,
      "safe": 1802,
      "assemble": 1803,
      "remove": 1804,
      "stainless": 1805,
      "Or": 1806,
      "tail": 1807,
      "**": 1808,
      "yes": 1809,
      "cabin": 1810,
      "middle": 1811,
      "cake": 1812,
      "Every": 1813,
      "adjust": 1814,
      "refund": 1815,
      "fold": 1816,
      "wait": 1817,
      "Sup": 1818,
      "arm": 1819,
      "button": 1820,
      "lost": 1821,
      "dv": 1822,
      "pred": 1823,
      "Sm": 1824,
      "pour": 1825,
      "giving": 1826,
      "although": 1827,
      "dep": 1828,
      "ject": 1829,
      "Com": 1830,
      "edges": 1831,
      "ility": 1832,
      "Have": 1833,
      "cloth": 1834,
      "music": 1835,
      "satis": 1836,
      "mean": 1837,
      "brown": 1838,
      "begin": 1839,
      "scri": 1840,
      "salt": 1841,
      "Fir": 1842,
      "classic": 1843,
      "ictable": 1844,
      "today": 1845,
      "experi": 1846,
      "din": 1847,
      "cot": 1848,
      "finally": 1849,
      "gy": 1850,
      "stre": 1851,
      "tern": 1852,
      "produ": 1853,
      "Like": 1854,
      "irt": 1855,
      "kets": 1856,
      "except": 1857,
      "ized": 1858,
      "damaged": 1859,
      "impressed": 1860,
      "children": 1861,
      "style": 1862,
      "blanket": 1863,
      "nut": 1864,
      "BE": 1865,
      "added": 1866,
      "verage": 1867,
      "mold": 1868,
      "service": 1869,
      "Could": 1870,
      "ian": 1871,
      "screen": 1872,
      "Wish": 1873,
      "fail": 1874,
      "nam": 1875,
      "flow": 1876,
      "condition": 1877,
      "sink": 1878,
      "accur": 1879,
      "Disappoint": 1880,
      "course": 1881,
      "attract": 1882,
      "awful": 1883,
      "barely": 1884,
      "trash": 1885,
      "ams": 1886,
      "mul": 1887,
      "ention": 1888,
      "sets": 1889,
      "cabinet": 1890,
      "IC": 1891,
      "iet": 1892,
      "usually": 1893,
      "sort": 1894,
      "velo": 1895,
      "liqu": 1896,
      "everyone": 1897,
      "durable": 1898,
      "Le": 1899,
      "text": 1900,
      "leave": 1901,
      "kill": 1902,
      "glasses": 1903,
      "dire": 1904,
      "cum": 1905,
      "otherwise": 1906,
      "BUT": 1907,
      "based": 1908,
      "effects": 1909,
      "ME": 1910,
      "High": 1911,
      "push": 1912,
      "wer": 1913,
      "bent": 1914,
      "fro": 1915,
      "ister": 1916,
      "lights": 1917,
      "upid": 1918,
      "foam": 1919,
      "Nothing": 1920,
      "loud": 1921,
      "Beautiful": 1922,
      "young": 1923,
      "bul": 1924,
      "sometimes": 1925,
      "blend": 1926,
      "opening": 1927,
      "fix": 1928,
      "sw": 1929,
      "cli": 1930,
      "hook": 1931,
      "tot": 1932,
      "THIS": 1933,
      "bage": 1934,
      "mot": 1935,
      "anks": 1936,
      "somewhat": 1937,
      "custom": 1938,
      "brew": 1939,
      "Overall": 1940,
      "100": 1941,
      "dd": 1942,
      "ring": 1943,
      "Super": 1944,
      "ator": 1945,
      "temper": 1946,
      "hist": 1947,
      "plus": 1948,
      "meric": 1949,
      "cked": 1950,
      "doll": 1951,
      "opin": 1952,
      "stra": 1953,
      "pictured": 1954,
      "careful": 1955,
      "ump": 1956,
      "difference": 1957,
      "First": 1958,
      "liquid": 1959,
      "oc": 1960,
      "OF": 1961,
      "pres": 1962,
      "gn": 1963,
      "comedy": 1964,
      "uff": 1965,
      "sized": 1966,
      "lear": 1967,
      "simply": 1968,
      "pes": 1969,
      "model": 1970,
      "MO": 1971,
      "zer": 1972,
      "delic": 1973,
      "straight": 1974,
      "poorly": 1975,
      "totally": 1976,
      "ina": 1977,
      "toast": 1978,
      "cutting": 1979,
      "fru": 1980,
      "surface": 1981,
      "twist": 1982,
      "ulous": 1983,
      "avail": 1984,
      "appear": 1985,
      "app": 1986,
      "Americ": 1987,
      "option": 1988,
      "thinking": 1989,
      "single": 1990,
      "hile": 1991,
      "notice": 1992,
      "similar": 1993,
      "dvd": 1994,
      "round": 1995,
      "handles": 1996,
      "annoying": 1997,
      "screws": 1998,
      "constru": 1999,
      "alth": 2000,
      "squ": 2001,
      "hoped": 2002,
      "predictable": 2003,
      "net": 2004,
      "world": 2005,
      "particular": 2006,
      "mage": 2007,
      "blade": 2008,
      "sou": 2009,
      "zip": 2010,
      "forward": 2011,
      "lasted": 2012,
      "episode": 2013,
      "opinion": 2014,
      "fant": 2015,
      "pass": 2016,
      "older": 2017,
      "texture": 2018,
      "spl": 2019,
      "wide": 2020,
      "tle": 2021,
      "microw": 2022,
      "DO": 2023,
      "useless": 2024,
      "holding": 2025,
      "cam": 2026,
      "While": 2027,
      "manu": 2028,
      "ades": 2029,
      "fle": 2030,
      "temperature": 2031,
      "sex": 2032,
      "candles": 2033,
      "bottles": 2034,
      "tall": 2035,
      "ilt": 2036,
      "mention": 2037,
      "fairly": 2038,
      "search": 2039,
      "vers": 2040,
      "cracked": 2041,
      "LL": 2042,
      "key": 2043,
      "firm": 2044,
      "attractive": 2045,
      "event": 2046,
      "rough": 2047,
      "cord": 2048,
      "battery": 2049,
      "SE": 2050,
      "keeping": 2051,
      "friends": 2052,
      "junk": 2053,
      "cream": 2054,
      "scene": 2055,
      "onest": 2056,
      "weird": 2057,
      "hole": 2058,
      "lunch": 2059,
      "morning": 2060,
      "held": 2061,
      "AY": 2062,
      "script": 2063,
      "ray": 2064,
      "reading": 2065,
      "hate": 2066,
      "shown": 2067,
      "actual": 2068,
      "save": 2069,
      "cted": 2070,
      "ah": 2071,
      "itive": 2072,
      "rubber": 2073,
      "horror": 2074,
      "manufact": 2075,
      "foot": 2076,
      "ggest": 2077,
      "lly": 2078,
      "near": 2079,
      "develo": 2080,
      "ordering": 2081,
      ".\"": 2082,
      "eggs": 2083,
      "istic": 2084,
      "Cute": 2085,
      "inder": 2086,
      "immedi": 2087,
      "tree": 2088,
      "avo": 2089,
      "flick": 2090,
      "Seem": 2091,
      "fic": 2092,
      "separ": 2093,
      "name": 2094,
      "ults": 2095,
      "available": 2096,
      "Got": 2097,
      "leaves": 2098,
      "batteries": 2099,
      "recommended": 2100,
      "contro": 2101,
      "inches": 2102,
      "haps": 2103,
      "ato": 2104,
      "uring": 2105,
      "nearly": 2106,
      "SO": 2107,
      "thes": 2108,
      "stupid": 2109,
      "suction": 2110,
      "ear": 2111,
      "oz": 2112,
      "sequ": 2113,
      "sch": 2114,
      "uck": 2115,
      "16": 2116,
      "vo": 2117,
      "ently": 2118,
      "sticks": 2119,
      "cure": 2120,
      "Thank": 2121,
      "guy": 2122,
      "attention": 2123,
      "bother": 2124,
      "lad": 2125,
      "acted": 2126,
      "AC": 2127,
      "guest": 2128,
      "neck": 2129,
      "toaster": 2130,
      "useful": 2131,
      "milk": 2132,
      "post": 2133,
      "baking": 2134,
      "seeing": 2135,
      "curtains": 2136,
      "suggest": 2137,
      "Returned": 2138,
      "immediately": 2139,
      "elect": 2140,
      "dim": 2141,
      "dial": 2142,
      "surprised": 2143,
      "crap": 2144,
      "mist": 2145,
      "candle": 2146,
      "level": 2147,
      "Col": 2148,
      "Won": 2149,
      "scent": 2150,
      "Gr": 2151,
      "five": 2152,
      "falling": 2153,
      ":(": 2154,
      "pad": 2155,
      "accurate": 2156,
      "exp": 2157,
      "bedroom": 2158,
      "compared": 2159,
      "format": 2160,
      "Con": 2161,
      "Arri": 2162,
      "Poor": 2163,
      "health": 2164,
      "dog": 2165,
      "tool": 2166,
      "na": 2167,
      "moved": 2168,
      "labe": 2169,
      "mel": 2170,
      "Otherwise": 2171,
      "process": 2172,
      "pictures": 2173,
      "conven": 2174,
      "filled": 2175,
      "microwave": 2176,
      "With": 2177,
      "anim": 2178,
      "bud": 2179,
      "rated": 2180,
      "trave": 2181,
      "cheese": 2182,
      "Ab": 2183,
      "defect": 2184,
      "hanging": 2185,
      "cotton": 2186,
      "Bl": 2187,
      "RO": 2188,
      "sus": 2189,
      "certainly": 2190,
      "party": 2191,
      "rent": 2192,
      "Arrived": 2193,
      "Ste": 2194,
      "display": 2195,
      "Then": 2196,
      ":)": 2197,
      "form": 2198,
      "ters": 2199,
      "wrink": 2200,
      "performance": 2201,
      "Ter": 2202,
      "packaged": 2203,
      "atur": 2204,
      "hn": 2205,
      "cakes": 2206,
      "feet": 2207,
      "gotten": 2208,
      "UP": 2209,
      "dust": 2210,
      "ior": 2211,
      "Definitely": 2212,
      "included": 2213,
      "card": 2214,
      "fing": 2215,
      "ident": 2216,
      "sense": 2217,
      "bum": 2218,
      "clothes": 2219,
      "containers": 2220,
      "slic": 2221,
      "noticed": 2222,
      "ined": 2223,
      "urt": 2224,
      "ength": 2225,
      "hun": 2226,
      "Although": 2227,
      "jar": 2228,
      "sign": 2229,
      "multi": 2230,
      "Up": 2231,
      "ional": 2232,
      "Hard": 2233,
      "fut": 2234,
      "serious": 2235,
      "taking": 2236,
      "Kind": 2237,
      "center": 2238,
      "grinder": 2239,
      "pair": 2240,
      "ran": 2241,
      "ames": 2242,
      "WI": 2243,
      "stem": 2244,
      "aring": 2245,
      "secure": 2246,
      "peel": 2247,
      "block": 2248,
      "detail": 2249,
      "boy": 2250,
      "kno": 2251,
      "length": 2252,
      "load": 2253,
      "illy": 2254,
      "conne": 2255,
      "fied": 2256,
      "wine": 2257,
      "trans": 2258,
      "average": 2259,
      "actor": 2260,
      "ged": 2261,
      "lim": 2262,
      "ific": 2263,
      "ale": 2264,
      "aste": 2265,
      "humor": 2266,
      "Look": 2267,
      "likes": 2268,
      "threw": 2269,
      "ghter": 2270,
      "wal": 2271,
      "eds": 2272,
      "higher": 2273,
      "rec": 2274,
      "experience": 2275,
      "ets": 2276,
      "Thanks": 2277,
      "Aw": 2278,
      "cin": 2279,
      "living": 2280,
      "local": 2281,
      "spend": 2282,
      "ler": 2283,
      "aby": 2284,
      "against": 2285,
      "closet": 2286,
      "OO": 2287,
      "incre": 2288,
      "HA": 2289,
      "worse": 2290,
      "tape": 2291,
      "Fe": 2292,
      "lower": 2293,
      "Product": 2294,
      "pepper": 2295,
      "consist": 2296,
      "gone": 2297,
      "emp": 2298,
      "production": 2299,
      "spill": 2300,
      "mostly": 2301,
      "Fun": 2302,
      "ctor": 2303,
      "usual": 2304,
      "boil": 2305,
      "realize": 2306,
      "slide": 2307,
      "ALL": 2308,
      "amazon": 2309,
      "bur": 2310,
      "drain": 2311,
      "tub": 2312,
      "covers": 2313,
      "happened": 2314,
      "\",": 2315,
      "excited": 2316,
      "nar": 2317,
      "ask": 2318,
      "icer": 2319,
      "covered": 2320,
      "conf": 2321,
      "obvious": 2322,
      "Loved": 2323,
      "cra": 2324,
      "hit": 2325,
      "zen": 2326,
      "antic": 2327,
      "ia": 2328,
      "mark": 2329,
      "deliver": 2330,
      "John": 2331,
      "oper": 2332,
      "stove": 2333,
      "gives": 2334,
      "fault": 2335,
      "sitting": 2336,
      "beat": 2337,
      "appears": 2338,
      "drawer": 2339,
      "ables": 2340,
      "switch": 2341,
      "whe": 2342,
      "mother": 2343,
      "purchasing": 2344,
      "delivery": 2345,
      "ages": 2346,
      "garbage": 2347,
      "count": 2348,
      "18": 2349,
      "fruit": 2350,
      "Yes": 2351,
      "pical": 2352,
      "comfor": 2353,
      "sau": 2354,
      "replaced": 2355,
      "HO": 2356,
      "onto": 2357,
      "dum": 2358,
      "Small": 2359,
      "ased": 2360,
      "cases": 2361,
      "Bu": 2362,
      "stiff": 2363,
      "rod": 2364,
      "concer": 2365,
      "designed": 2366,
      "audi": 2367,
      "noise": 2368,
      "disappointment": 2369,
      "GE": 2370,
      "ension": 2371,
      "Best": 2372,
      "CO": 2373,
      "cu": 2374,
      "heart": 2375,
      "feeling": 2376,
      "budget": 2377,
      "Im": 2378,
      "ties": 2379,
      "patter": 2380,
      "song": 2381,
      "bers": 2382,
      "ability": 2383,
      "itten": 2384,
      "carry": 2385,
      "Engl": 2386,
      "concept": 2387,
      "role": 2388,
      "ising": 2389,
      "Highly": 2390,
      "zipper": 2391,
      "sand": 2392,
      "ses": 2393,
      "thrill": 2394,
      "build": 2395,
      "ging": 2396,
      "zz": 2397,
      "turns": 2398,
      "known": 2399,
      "ism": 2400,
      "ummer": 2401,
      "thread": 2402,
      "shelves": 2403,
      "fantastic": 2404,
      "control": 2405,
      "tch": 2406,
      "ney": 2407,
      "empt": 2408,
      "bled": 2409,
      "fans": 2410,
      "Disappointed": 2411,
      "knew": 2412,
      "land": 2413,
      "handy": 2414,
      "daily": 2415,
      "sizes": 2416,
      "dut": 2417,
      "trouble": 2418,
      "played": 2419,
      ".)": 2420,
      "honest": 2421,
      "necess": 2422,
      "kinda": 2423,
      "ONE": 2424,
      "check": 2425,
      "beginning": 2426,
      "test": 2427,
      "thicker": 2428,
      "customer": 2429,
      "legs": 2430,
      "inc": 2431,
      "falls": 2432,
      "bowls": 2433,
      "snap": 2434,
      "school": 2435,
      "across": 2436,
      "enjoyable": 2437,
      "candy": 2438,
      "LI": 2439,
      "ution": 2440,
      "enty": 2441,
      "office": 2442,
      "pattern": 2443,
      "anymore": 2444,
      "Go": 2445,
      "told": 2446,
      "arent": 2447,
      "ane": 2448,
      "means": 2449,
      "offer": 2450,
      "fire": 2451,
      "bal": 2452,
      "basket": 2453,
      "double": 2454,
      "hind": 2455,
      "paint": 2456,
      "books": 2457,
      "dent": 2458,
      "Way": 2459,
      "iv": 2460,
      "eps": 2461,
      "ripped": 2462,
      "impro": 2463,
      "seasons": 2464,
      "silic": 2465,
      "Act": 2466,
      "rench": 2467,
      "GH": 2468,
      "yourself": 2469,
      "number": 2470,
      "Most": 2471,
      "Pur": 2472,
      "pract": 2473,
      "glue": 2474,
      "sof": 2475,
      "mail": 2476,
      "FOR": 2477,
      "anyway": 2478,
      "LD": 2479,
      "believ": 2480,
      "girl": 2481,
      "desk": 2482,
      "attempt": 2483,
      "spray": 2484,
      "meat": 2485,
      "filters": 2486,
      "called": 2487,
      "sorry": 2488,
      "Mar": 2489,
      "idge": 2490,
      "ming": 2491,
      "treat": 2492,
      "lines": 2493,
      "future": 2494,
      "prof": 2495,
      "viol": 2496,
      "40": 2497,
      "plate": 2498,
      "timer": 2499,
      "odd": 2500,
      "shoes": 2501,
      "Blu": 2502,
      "Made": 2503,
      "mes": 2504,
      "quiet": 2505,
      "running": 2506,
      "13": 2507,
      "chan": 2508,
      "ried": 2509,
      "eason": 2510,
      "dialog": 2511,
      "bunch": 2512,
      "rate": 2513,
      "orge": 2514,
      "yellow": 2515,
      "changed": 2516,
      "written": 2517,
      "luck": 2518,
      "KE": 2519,
      "seat": 2520,
      "bath": 2521,
      "crazy": 2522,
      "dull": 2523,
      "slip": 2524,
      "powder": 2525,
      "thermo": 2526,
      "spent": 2527,
      "comforter": 2528,
      "furn": 2529,
      "chick": 2530,
      "Much": 2531,
      "ener": 2532,
      "cookies": 2533,
      "Movie": 2534,
      "directions": 2535,
      "Seems": 2536,
      "spoon": 2537,
      "aim": 2538,
      "80": 2539,
      "bing": 2540,
      "smo": 2541,
      "import": 2542,
      "outh": 2543,
      "total": 2544,
      "rock": 2545,
      "delicious": 2546,
      "pite": 2547,
      "inser": 2548,
      "lovely": 2549,
      "writing": 2550,
      "More": 2551,
      "fight": 2552,
      "behind": 2553,
      "Sp": 2554,
      "bon": 2555,
      "wed": 2556,
      "snack": 2557,
      "third": 2558,
      "ham": 2559,
      "cans": 2560,
      "China": 2561,
      "Hor": 2562,
      "iculous": 2563,
      "Quality": 2564,
      "history": 2565,
      "smells": 2566,
      "release": 2567,
      "baby": 2568,
      "Inter": 2569,
      "satisfied": 2570,
      "Me": 2571,
      "Makes": 2572,
      "pump": 2573,
      "hooks": 2574,
      "late": 2575,
      "reach": 2576,
      "irty": 2577,
      "shut": 2578,
      "packed": 2579,
      "wet": 2580,
      "placed": 2581,
      "carpet": 2582,
      "dishes": 2583,
      "expectations": 2584,
      "Wal": 2585,
      "dispen": 2586,
      "impossible": 2587,
      "duty": 2588,
      "14": 2589,
      "Used": 2590,
      "VI": 2591,
      "convenient": 2592,
      "Ser": 2593,
      "natur": 2594,
      "iness": 2595,
      "become": 2596,
      "ben": 2597,
      "subst": 2598,
      "period": 2599,
      "truly": 2600,
      "recent": 2601,
      "stated": 2602,
      "finished": 2603,
      "juice": 2604,
      "11": 2605,
      "iture": 2606,
      "appre": 2607,
      "likely": 2608,
      "flaw": 2609,
      "lightweight": 2610,
      "stories": 2611,
      "functional": 2612,
      "eper": 2613,
      "closed": 2614,
      "pressure": 2615,
      "helps": 2616,
      "electric": 2617,
      "tic": 2618,
      "suppose": 2619,
      "strange": 2620,
      "moder": 2621,
      "uni": 2622,
      "tasted": 2623,
      "popcorn": 2624,
      "van": 2625,
      "quest": 2626,
      "catch": 2627,
      "protect": 2628,
      "cush": 2629,
      "teen": 2630,
      "60": 2631,
      "loc": 2632,
      "tur": 2633,
      "absor": 2634,
      "Star": 2635,
      "early": 2636,
      "usable": 2637,
      "minute": 2638,
      "attached": 2639,
      "RI": 2640,
      "chance": 2641,
      "trick": 2642,
      "shipped": 2643,
      "fac": 2644,
      "erc": 2645,
      "terri": 2646,
      "iety": 2647,
      "cale": 2648,
      "opener": 2649,
      "standing": 2650,
      "multiple": 2651,
      "Car": 2652,
      "sold": 2653,
      "frag": 2654,
      "rant": 2655,
      "ories": 2656,
      "adding": 2657,
      "ker": 2658,
      "leaks": 2659,
      "Bet": 2660,
      "abo": 2661,
      "six": 2662,
      "furniture": 2663,
      "AD": 2664,
      "fluff": 2665,
      "Has": 2666,
      "YOU": 2667,
      "ital": 2668,
      "built": 2669,
      "spot": 2670,
      "choice": 2671,
      "ened": 2672,
      "illa": 2673,
      "cant": 2674,
      "AM": 2675,
      "none": 2676,
      "appreci": 2677,
      "Pe": 2678,
      "TI": 2679,
      "dig": 2680,
      "storyline": 2681,
      "complaint": 2682,
      "travel": 2683,
      "70": 2684,
      "esting": 2685,
      "gain": 2686,
      "tasting": 2687,
      "rup": 2688,
      "appro": 2689,
      "boxes": 2690,
      "Bro": 2691,
      "rama": 2692,
      "reviewers": 2693,
      "cub": 2694,
      "jor": 2695,
      "Any": 2696,
      "effort": 2697,
      "dou": 2698,
      "online": 2699,
      "humid": 2700,
      "graph": 2701,
      "Purchas": 2702,
      "aked": 2703,
      "tu": 2704,
      "tend": 2705,
      "owned": 2706,
      "angu": 2707,
      "places": 2708,
      "blender": 2709,
      "24": 2710,
      "Is": 2711,
      "WAS": 2712,
      "constantly": 2713,
      "moments": 2714,
      "aged": 2715,
      "chem": 2716,
      "position": 2717,
      "Worked": 2718,
      "Sor": 2719,
      "inexpensive": 2720,
      "weren": 2721,
      "hear": 2722,
      "features": 2723,
      "Ano": 2724,
      "Came": 2725,
      "Oh": 2726,
      "moves": 2727,
      "Why": 2728,
      "English": 2729,
      "Season": 2730,
      "dress": 2731,
      "kward": 2732,
      "died": 2733,
      "sharpen": 2734,
      "tomat": 2735,
      "believable": 2736,
      "sun": 2737,
      "accept": 2738,
      "sleeping": 2739,
      "construction": 2740,
      "defective": 2741,
      "GRE": 2742,
      "unfortunately": 2743,
      "shot": 2744,
      "cooker": 2745,
      "Cl": 2746,
      "Since": 2747,
      "orn": 2748,
      "thinner": 2749,
      "presso": 2750,
      "Never": 2751,
      "WH": 2752,
      "batch": 2753,
      "jars": 2754,
      "ron": 2755,
      "har": 2756,
      "stays": 2757,
      "track": 2758,
      "Once": 2759,
      "cat": 2760,
      "bitter": 2761,
      "fridge": 2762,
      "American": 2763,
      "bles": 2764,
      "evenly": 2765,
      "woman": 2766,
      "ded": 2767,
      "scale": 2768,
      "heard": 2769,
      "ied": 2770,
      "wn": 2771,
      "ines": 2772,
      "anti": 2773,
      "ities": 2774,
      "alone": 2775,
      "spots": 2776,
      "continu": 2777,
      "dimension": 2778,
      "Mr": 2779,
      "plug": 2780,
      "tasty": 2781,
      "liter": 2782,
      "silicone": 2783,
      "wear": 2784,
      "neg": 2785,
      "plates": 2786,
      "itted": 2787,
      "----": 2788,
      "era": 2789,
      "ential": 2790,
      "guys": 2791,
      "brands": 2792,
      "require": 2793,
      "chemical": 2794,
      "Two": 2795,
      "potato": 2796,
      "BU": 2797,
      "drama": 2798,
      "clearly": 2799,
      "realistic": 2800,
      "medium": 2801,
      "manufactur": 2802,
      "Buy": 2803,
      "cir": 2804,
      "flavors": 2805,
      "Terrible": 2806,
      "ully": 2807,
      "ime": 2808,
      "pitch": 2809,
      "above": 2810,
      "anguage": 2811,
      "pink": 2812,
      "silly": 2813,
      "copy": 2814,
      "everywhere": 2815,
      "delivered": 2816,
      "Bad": 2817,
      "ris": 2818,
      "reli": 2819,
      "leg": 2820,
      "blades": 2821,
      "......": 2822,
      "Another": 2823,
      "za": 2824,
      "docum": 2825,
      "plic": 2826,
      "awkward": 2827,
      "filling": 2828,
      "dough": 2829,
      "mm": 2830,
      "orable": 2831,
      "atic": 2832,
      "vet": 2833,
      "claim": 2834,
      "PO": 2835,
      "Watch": 2836,
      "fy": 2837,
      "blow": 2838,
      "bin": 2839,
      "upon": 2840,
      "comment": 2841,
      "poc": 2842,
      "ants": 2843,
      "heavier": 2844,
      "Purchased": 2845,
      "Cle": 2846,
      "ience": 2847,
      "kettle": 2848,
      "dryer": 2849,
      "stretch": 2850,
      "ID": 2851,
      "grill": 2852,
      "natural": 2853,
      "Use": 2854,
      "meal": 2855,
      "beans": 2856,
      "dered": 2857,
      "bring": 2858,
      "stores": 2859,
      "dirty": 2860,
      "ude": 2861,
      "ils": 2862,
      "prevent": 2863,
      "gold": 2864,
      "informat": 2865,
      "major": 2866,
      "proof": 2867,
      "corners": 2868,
      "sauce": 2869,
      "25": 2870,
      "iss": 2871,
      "height": 2872,
      "wob": 2873,
      "200": 2874,
      "sque": 2875,
      "orange": 2876,
      "correctly": 2877,
      "nd": 2878,
      "doesnt": 2879,
      "selves": 2880,
      "cooked": 2881,
      "Worth": 2882,
      "hangers": 2883,
      "couch": 2884,
      "human": 2885,
      "portray": 2886,
      "document": 2887,
      "mouth": 2888,
      "summer": 2889,
      "ford": 2890,
      "mom": 2891,
      "veget": 2892,
      "roast": 2893,
      "ridiculous": 2894,
      "WE": 2895,
      "mild": 2896,
      "leading": 2897,
      "redi": 2898,
      "ags": 2899,
      "starts": 2900,
      "ugly": 2901,
      "ingredi": 2902,
      "coating": 2903,
      "ries": 2904,
      "women": 2905,
      "hero": 2906,
      "soup": 2907,
      "heating": 2908,
      "basically": 2909,
      "wire": 2910,
      "effective": 2911,
      "spoons": 2912,
      "GREAT": 2913,
      "intended": 2914,
      "typical": 2915,
      "memory": 2916,
      "ences": 2917,
      "alarm": 2918,
      "lighter": 2919,
      "spir": 2920,
      "skill": 2921,
      "Interesting": 2922,
      "grip": 2923,
      "corner": 2924,
      "forever": 2925,
      "gged": 2926,
      "necessary": 2927,
      "Sorry": 2928,
      "win": 2929,
      "motor": 2930,
      "17": 2931,
      "yond": 2932,
      "prom": 2933,
      "waiting": 2934,
      "continue": 2935,
      "Sim": 2936,
      "bend": 2937,
      "fry": 2938,
      "ali": 2939,
      "serve": 2940,
      "ili": 2941,
      "pense": 2942,
      "boo": 2943,
      "bucks": 2944,
      "spon": 2945,
      "word": 2946,
      "language": 2947,
      "became": 2948,
      "craf": 2949,
      "Okay": 2950,
      "nuts": 2951,
      "UN": 2952,
      "bus": 2953,
      "hes": 2954,
      "plenty": 2955,
      "avy": 2956,
      "system": 2957,
      "Of": 2958,
      "charge": 2959,
      "Who": 2960,
      "mir": 2961,
      "pic": 2962,
      "rich": 2963,
      "dead": 2964,
      "avoid": 2965,
      "\">": 2966,
      "AP": 2967,
      "irth": 2968,
      "conut": 2969,
      "hassle": 2970,
      "assembly": 2971,
      "Should": 2972,
      "gram": 2973,
      "strain": 2974,
      "NE": 2975,
      "law": 2976,
      "male": 2977,
      "whatever": 2978,
      "scary": 2979,
      "pat": 2980,
      "espresso": 2981,
      "title": 2982,
      "Te": 2983,
      "afe": 2984,
      "autifully": 2985,
      "spring": 2986,
      "incredi": 2987,
      "99": 2988,
      "wasted": 2989,
      "ream": 2990,
      "thank": 2991,
      "saying": 2992,
      "powerful": 2993,
      "cubes": 2994,
      "Fits": 2995,
      "TER": 2996,
      "eating": 2997,
      "atul": 2998,
      "salad": 2999,
      "Ad": 3000,
      "vil": 3001,
      "seconds": 3002,
      "ATE": 3003,
      "Man": 3004,
      "__": 3005,
      "straw": 3006,
      "arp": 3007,
      "workout": 3008,
      "cleaner": 3009,
      "skin": 3010,
      "update": 3011,
      "Wonder": 3012,
      "90": 3013,
      "rot": 3014,
      "ides": 3015,
      "director": 3016,
      "Gu": 3017,
      "Jack": 3018,
      "toss": 3019,
      "meter": 3020,
      "writ": 3021,
      "magnet": 3022,
      "drinks": 3023,
      "burned": 3024,
      "considering": 3025,
      "gest": 3026,
      "vegg": 3027,
      "adult": 3028,
      "nois": 3029,
      "chairs": 3030,
      "ening": 3031,
      "damage": 3032,
      "chips": 3033,
      "Update": 3034,
      "Better": 3035,
      "lored": 3036,
      "words": 3037,
      "plays": 3038,
      "rugs": 3039,
      "queen": 3040,
      "vill": 3041,
      "write": 3042,
      "miss": 3043,
      "titles": 3044,
      "mentioned": 3045,
      "chicken": 3046,
      "important": 3047,
      "Har": 3048,
      "cing": 3049,
      "basic": 3050,
      "odor": 3051,
      "freezer": 3052,
      "results": 3053,
      "Big": 3054,
      "stack": 3055,
      "serving": 3056,
      "mistake": 3057,
      "Awesome": 3058,
      "winter": 3059,
      "Thought": 3060,
      "lemon": 3061,
      "ample": 3062,
      "everyday": 3063,
      "badly": 3064,
      "burning": 3065,
      "birth": 3066,
      "undry": 3067,
      "silver": 3068,
      "Mic": 3069,
      "trad": 3070,
      "grow": 3071,
      "warrant": 3072,
      "variety": 3073,
      "drinking": 3074,
      "fake": 3075,
      "OOD": 3076,
      "manufacturer": 3077,
      "spect": 3078,
      "despite": 3079,
      "throughout": 3080,
      "occas": 3081,
      "flex": 3082,
      "empty": 3083,
      "doub": 3084,
      "Waste": 3085,
      "stru": 3086,
      "receive": 3087,
      "personal": 3088,
      "Dr": 3089,
      "Ray": 3090,
      "apo": 3091,
      "taken": 3092,
      "Chris": 3093,
      "organic": 3094,
      "Hope": 3095,
      "gun": 3096,
      "perhaps": 3097,
      "prep": 3098,
      "suff": 3099,
      "solution": 3100,
      "healthy": 3101,
      "ites": 3102,
      "pean": 3103,
      "anger": 3104,
      "failed": 3105,
      "cardboard": 3106,
      "AST": 3107,
      "gum": 3108,
      "tv": 3109,
      "coconut": 3110,
      "tired": 3111,
      "spatul": 3112,
      "wards": 3113,
      "ARE": 3114,
      "Fin": 3115,
      "Tast": 3116,
      "step": 3117,
      "laundry": 3118,
      "narrow": 3119,
      ",,": 3120,
      "Pri": 3121,
      "fur": 3122,
      "dried": 3123,
      "Need": 3124,
      "themselves": 3125,
      "==": 3126,
      "God": 3127,
      "Sad": 3128,
      "Str": 3129,
      "ivid": 3130,
      "tip": 3131,
      "grade": 3132,
      "mini": 3133,
      "garlic": 3134,
      "fu": 3135,
      "nap": 3136,
      "rem": 3137,
      "aded": 3138,
      "uncomfortable": 3139,
      "equ": 3140,
      "core": 3141,
      "nel": 3142,
      "positive": 3143,
      "Lots": 3144,
      "gas": 3145,
      "ley": 3146,
      "utens": 3147,
      "frust": 3148,
      "develop": 3149,
      "Color": 3150,
      "anywhere": 3151,
      "square": 3152,
      "recip": 3153,
      "inted": 3154,
      "blood": 3155,
      "washes": 3156,
      "pots": 3157,
      "dialogue": 3158,
      "Our": 3159,
      "Save": 3160,
      "ban": 3161,
      "lish": 3162,
      "thor": 3163,
      "ata": 3164,
      "spout": 3165,
      "current": 3166,
      "gifts": 3167,
      "father": 3168,
      "including": 3169,
      "Ordered": 3170,
      "Horrible": 3171,
      "sister": 3172,
      "oop": 3173,
      "Exactly": 3174,
      "measuring": 3175,
      "Fo": 3176,
      "inv": 3177,
      "stable": 3178,
      "tech": 3179,
      "entertainment": 3180,
      "Probably": 3181,
      "particularly": 3182,
      "VIE": 3183,
      "2nd": 3184,
      "oooo": 3185,
      "cookie": 3186,
      "aven": 3187,
      "amic": 3188,
      "please": 3189,
      "angle": 3190,
      "BO": 3191,
      "UR": 3192,
      "pac": 3193,
      "spin": 3194,
      "omb": 3195,
      "dollar": 3196,
      "piz": 3197,
      "stri": 3198,
      "indic": 3199,
      "individ": 3200,
      "beautifully": 3201,
      "ado": 3202,
      "suck": 3203,
      "carto": 3204,
      "market": 3205,
      "graphy": 3206,
      "wedding": 3207,
      "modern": 3208,
      "literally": 3209,
      "Fl": 3210,
      "Both": 3211,
      "Mc": 3212,
      "device": 3213,
      "recently": 3214,
      "HE": 3215,
      "Tr": 3216,
      "bsp": 3217,
      "waf": 3218,
      "tools": 3219,
      "interested": 3220,
      "organiz": 3221,
      "arently": 3222,
      "esy": 3223,
      "ison": 3224,
      "ppy": 3225,
      "imagine": 3226,
      "flour": 3227,
      "images": 3228,
      "ives": 3229,
      "ples": 3230,
      "trail": 3231,
      "pressing": 3232,
      "gro": 3233,
      "range": 3234,
      "speed": 3235,
      "separate": 3236,
      "portion": 3237,
      "photos": 3238,
      "New": 3239,
      "mill": 3240,
      "acc": 3241,
      "wants": 3242,
      "reasonable": 3243,
      "Ju": 3244,
      "colored": 3245,
      "Item": 3246,
      "vibr": 3247,
      "drop": 3248,
      "bars": 3249,
      "missed": 3250,
      "negative": 3251,
      "remind": 3252,
      "pread": 3253,
      "mugs": 3254,
      "BLE": 3255,
      "eye": 3256,
      "mart": 3257,
      "invol": 3258,
      "repe": 3259,
      "cleaned": 3260,
      "master": 3261,
      "Ple": 3262,
      "cm": 3263,
      "pli": 3264,
      "darker": 3265,
      "dimensions": 3266,
      "Cu": 3267,
      "Mine": 3268,
      "force": 3269,
      "altern": 3270,
      "documentary": 3271,
      "CT": 3272,
      "sour": 3273,
      "Des": 3274,
      "Tot": 3275,
      "Tom": 3276,
      "moun": 3277,
      "icient": 3278,
      "contact": 3279,
      "insul": 3280,
      "mixer": 3281,
      "B00": 3282,
      "pound": 3283,
      "anch": 3284,
      "aging": 3285,
      "tops": 3286,
      "scratches": 3287,
      "orgeous": 3288,
      "dirt": 3289,
      "tough": 3290,
      "grab": 3291,
      "floors": 3292,
      "surprise": 3293,
      "learn": 3294,
      "explain": 3295,
      "prov": 3296,
      "aware": 3297,
      "complaints": 3298,
      "dollars": 3299,
      "ingredients": 3300,
      "King": 3301,
      "stitch": 3302,
      "lose": 3303,
      "ures": 3304,
      "prem": 3305,
      "grey": 3306,
      "eventually": 3307,
      "MY": 3308,
      "nbsp": 3309,
      "ured": 3310,
      "stock": 3311,
      "result": 3312,
      "Enjoy": 3313,
      "chipped": 3314,
      "</": 3315,
      "uf": 3316,
      "note": 3317,
      "rim": 3318,
      "doors": 3319,
      "ashed": 3320,
      "birthday": 3321,
      "Get": 3322,
      "UST": 3323,
      "estern": 3324,
      "mechan": 3325,
      "grou": 3326,
      "suit": 3327,
      "collect": 3328,
      "remote": 3329,
      "fat": 3330,
      "removed": 3331,
      "temp": 3332,
      "Coffee": 3333,
      "sens": 3334,
      "deser": 3335,
      "viewing": 3336,
      "helpful": 3337,
      "Ed": 3338,
      "dated": 3339,
      "alot": 3340,
      "vision": 3341,
      "pitcher": 3342,
      "actress": 3343,
      "gray": 3344,
      "drag": 3345,
      "cushion": 3346,
      "BUY": 3347,
      "spread": 3348,
      "leaving": 3349,
      "drawers": 3350,
      "llywood": 3351,
      "GOOD": 3352,
      "dp": 3353,
      "sits": 3354,
      "happens": 3355,
      "liner": 3356,
      "scratched": 3357,
      "information": 3358,
      "F8": 3359,
      "WAY": 3360,
      "label": 3361,
      "leep": 3362,
      "forget": 3363,
      "turning": 3364,
      "suc": 3365,
      "playing": 3366,
      "Because": 3367,
      "IF": 3368,
      "ances": 3369,
      "beyond": 3370,
      "aved": 3371,
      "Absolutely": 3372,
      "pizza": 3373,
      "cry": 3374,
      "isin": 3375,
      "orter": 3376,
      "ceived": 3377,
      "GHT": 3378,
      "moist": 3379,
      "Decent": 3380,
      "nicer": 3381,
      "alright": 3382,
      "areas": 3383,
      "wooden": 3384,
      "UTF8": 3385,
      "Keeps": 3386,
      "Plus": 3387,
      "doubt": 3388,
      "French": 3389,
      "Light": 3390,
      "lip": 3391,
      "bub": 3392,
      "listed": 3393,
      "warranty": 3394,
      "data": 3395,
      "theme": 3396,
      "purple": 3397,
      "starting": 3398,
      "carefully": 3399,
      "grees": 3400,
      "pasta": 3401,
      "Ma": 3402,
      "eyes": 3403,
      "dist": 3404,
      "obviously": 3405,
      "Bar": 3406,
      "cred": 3407,
      "cris": 3408,
      "realized": 3409,
      "DVDs": 3410,
      "Brit": 3411,
      "Couldn": 3412,
      "suspense": 3413,
      "cm_": 3414,
      "slid": 3415,
      "stale": 3416,
      "lol": 3417,
      "spice": 3418,
      "raid": 3419,
      "hardly": 3420,
      "_t": 3421,
      "ency": 3422,
      "degrees": 3423,
      "cr_": 3424,
      "finger": 3425,
      "thermometer": 3426,
      "cm_cr_": 3427,
      "pu": 3428,
      "sending": 3429,
      "thru": 3430,
      "program": 3431,
      "EX": 3432,
      "apan": 3433,
      "bling": 3434,
      "brother": 3435,
      "Perhaps": 3436,
      "situ": 3437,
      "linked": 3438,
      "Everything": 3439,
      "init": 3440,
      "quit": 3441,
      "violence": 3442,
      "tradition": 3443,
      "mally": 3444,
      "tank": 3445,
      "meant": 3446,
      "coll": 3447,
      "dogs": 3448,
      "drill": 3449,
      "relation": 3450,
      "Kitchen": 3451,
      "honey": 3452,
      "rv": 3453,
      "umin": 3454,
      "ALLY": 3455,
      "discs": 3456,
      "frozen": 3457,
      "appreciate": 3458,
      "1st": 3459,
      "regre": 3460,
      "icing": 3461,
      "log": 3462,
      "grain": 3463,
      "drying": 3464,
      "ceramic": 3465,
      "eff": 3466,
      "fish": 3467,
      "access": 3468,
      "---": 3469,
      "pulled": 3470,
      "insert": 3471,
      "gent": 3472,
      "refri": 3473,
      "aps": 3474,
      "tra": 3475,
      "regard": 3476,
      "cipe": 3477,
      "figured": 3478,
      "veggies": 3479,
      "apple": 3480,
      "holi": 3481,
      "showed": 3482,
      "melted": 3483,
      "project": 3484,
      "subject": 3485,
      "appli": 3486,
      "ught": 3487,
      "stal": 3488,
      "bored": 3489,
      "spac": 3490,
      "pricey": 3491,
      "olds": 3492,
      "ashion": 3493,
      "apartment": 3494,
      "performances": 3495,
      "hung": 3496,
      "yog": 3497,
      "lift": 3498,
      "shorter": 3499,
      "fingers": 3500,
      "Pack": 3501,
      "wrapped": 3502,
      "profess": 3503,
      "sale": 3504,
      "chew": 3505,
      "serves": 3506,
      "sealed": 3507,
      "peanut": 3508,
      "3D": 3509,
      "ino": 3510,
      "duvet": 3511,
      "content": 3512,
      "exception": 3513,
      "speak": 3514,
      "meet": 3515,
      "_d": 3516,
      "section": 3517,
      "Char": 3518,
      "stronger": 3519,
      "frequ": 3520,
      "via": 3521,
      "squee": 3522,
      "Wonderful": 3523,
      "recipe": 3524,
      "icy": 3525,
      "logy": 3526,
      "neat": 3527,
      "hanger": 3528,
      ",\"": 3529,
      "Mat": 3530,
      "_rv": 3531,
      "az": 3532,
      "w_t": 3533,
      "ids": 3534,
      "........": 3535,
      "helped": 3536,
      "message": 3537,
      "clips": 3538,
      "improve": 3539,
      "_d_rv": 3540,
      "_d_rvw_t": 3541,
      "Took": 3542,
      "War": 3543,
      "fashion": 3544,
      "href": 3545,
      "neath": 3546,
      "minim": 3547,
      "=\"/": 3548,
      "arp_d_rvw_t": 3549,
      "cm_cr_arp_d_rvw_t": 3550,
      "cm_cr_arp_d_rvw_txt": 3551,
      "Japan": 3552,
      "Tried": 3553,
      "carafe": 3554,
      "honestly": 3555,
      "isinart": 3556,
      "image": 3557,
      "below": 3558,
      "cheesy": 3559,
      "iction": 3560,
      "mixed": 3561,
      "pleasant": 3562,
      "followed": 3563,
      "various": 3564,
      "dest": 3565,
      "research": 3566,
      "adv": 3567,
      "final": 3568,
      "brought": 3569,
      "released": 3570,
      "FE": 3571,
      "os": 3572,
      "lives": 3573,
      "urig": 3574,
      "ify": 3575,
      "provide": 3576,
      "allows": 3577,
      "MOVIE": 3578,
      "Glad": 3579,
      "Sha": 3580,
      "die": 3581,
      "iving": 3582,
      "thus": 3583,
      "tian": 3584,
      "anted": 3585,
      "topper": 3586,
      "underneath": 3587,
      "talent": 3588,
      "breaking": 3589,
      "Gave": 3590,
      "Hand": 3591,
      "PRO": 3592,
      "pure": 3593,
      "emot": 3594,
      "ornam": 3595,
      "lect": 3596,
      "thanks": 3597,
      "scar": 3598,
      "Smaller": 3599,
      "dispenser": 3600,
      "noisy": 3601,
      "refriger": 3602,
      "ifier": 3603,
      "dinner": 3604,
      "Nor": 3605,
      "lint": 3606,
      "tt": 3607,
      "blu": 3608,
      "anticip": 3609,
      "prompt": 3610,
      "Pr": 3611,
      "Red": 3612,
      "accent": 3613,
      "promis": 3614,
      "afraid": 3615,
      "spices": 3616,
      "leaked": 3617,
      "ering": 3618,
      "exact": 3619,
      "tear": 3620,
      "fles": 3621,
      "showing": 3622,
      "subtitles": 3623,
      "sounds": 3624,
      "settings": 3625,
      "dropped": 3626,
      "rings": 3627,
      "user": 3628,
      "nets": 3629,
      "overpriced": 3630,
      "capt": 3631,
      "fly": 3632,
      "becomes": 3633,
      "hasn": 3634,
      "THAT": 3635,
      "Received": 3636,
      "Sturdy": 3637,
      "measurements": 3638,
      "uffin": 3639,
      "bill": 3640,
      "beware": 3641,
      "adm": 3642,
      "sticky": 3643,
      "compar": 3644,
      "direction": 3645,
      "Black": 3646,
      "Fr": 3647,
      "lif": 3648,
      "background": 3649,
      "holders": 3650,
      "Story": 3651,
      "OULD": 3652,
      "bulky": 3653,
      "group": 3654,
      "asked": 3655,
      "weigh": 3656,
      "crum": 3657,
      "lasts": 3658,
      "potential": 3659,
      "runs": 3660,
      "slice": 3661,
      "depth": 3662,
      "produced": 3663,
      "HAVE": 3664,
      "mesh": 3665,
      "Prime": 3666,
      "shame": 3667,
      "trays": 3668,
      "options": 3669,
      "Price": 3670,
      "chip": 3671,
      "comfy": 3672,
      "berry": 3673,
      "girls": 3674,
      "additional": 3675,
      "connect": 3676,
      "ued": 3677,
      "stone": 3678,
      "tooth": 3679,
      "wax": 3680,
      "confusing": 3681,
      "Am": 3682,
      "ironing": 3683,
      "ilarious": 3684,
      "lier": 3685,
      "trust": 3686,
      "hose": 3687,
      "hardware": 3688,
      "assembled": 3689,
      "scrap": 3690,
      "marks": 3691,
      "oose": 3692,
      "tries": 3693,
      "Ger": 3694,
      "WOR": 3695,
      "awhile": 3696,
      "bust": 3697,
      "stir": 3698,
      "cuts": 3699,
      "sticking": 3700,
      "arrive": 3701,
      "country": 3702,
      "thrilled": 3703,
      "CE": 3704,
      "arts": 3705,
      "adequ": 3706,
      "afford": 3707,
      "LOT": 3708,
      "Hollywood": 3709,
      "split": 3710,
      "kick": 3711,
      "teas": 3712,
      "By": 3713,
      "Ge": 3714,
      "arents": 3715,
      "seriously": 3716,
      "fragile": 3717,
      "ume": 3718,
      "tive": 3719,
      "worry": 3720,
      "greatest": 3721,
      "materials": 3722,
      "thickness": 3723,
      "bake": 3724,
      "slowly": 3725,
      "breaks": 3726,
      "DE": 3727,
      "stren": 3728,
      "cher": 3729,
      "trip": 3730,
      "finding": 3731,
      "balls": 3732,
      "individual": 3733,
      ":-": 3734,
      "rit": 3735,
      "lls": 3736,
      "crush": 3737,
      "compare": 3738,
      "craft": 3739,
      "regret": 3740,
      "Fast": 3741,
      "From": 3742,
      "agree": 3743,
      "sight": 3744,
      "heater": 3745,
      "elsewhere": 3746,
      "Please": 3747,
      "Out": 3748,
      "warped": 3749,
      "replacing": 3750,
      "painted": 3751,
      "!)": 3752,
      "faster": 3753,
      "kin": 3754,
      "respon": 3755,
      "loss": 3756,
      "example": 3757,
      "Finally": 3758,
      "exciting": 3759,
      "transfer": 3760,
      "ww": 3761,
      "remain": 3762,
      "ury": 3763,
      "talking": 3764,
      "appeared": 3765,
      "appearance": 3766,
      "audio": 3767,
      "sofa": 3768,
      "gorgeous": 3769,
      "wich": 3770,
      "pops": 3771,
      "hopes": 3772,
      "player": 3773,
      "paying": 3774,
      "Cuisinart": 3775,
      "cult": 3776,
      "thy": 3777,
      "adults": 3778,
      "unlike": 3779,
      "asty": 3780,
      "plush": 3781,
      "Wasn": 3782,
      "windows": 3783,
      "histor": 3784,
      "development": 3785,
      "gri": 3786,
      "mp": 3787,
      "stur": 3788,
      "roy": 3789,
      "tips": 3790,
      "train": 3791,
      "fancy": 3792,
      "leaking": 3793,
      "rilli": 3794,
      "cery": 3795,
      "nail": 3796,
      "parents": 3797,
      "comput": 3798,
      "cording": 3799,
      "bert": 3800,
      "compli": 3801,
      "Second": 3802,
      "normally": 3803,
      "messy": 3804,
      "whether": 3805,
      "unique": 3806,
      "acceptable": 3807,
      "recipes": 3808,
      "vibrant": 3809,
      "yr": 3810,
      "ana": 3811,
      "reality": 3812,
      "tile": 3813,
      "points": 3814,
      "stains": 3815,
      "constructed": 3816,
      "wrinkles": 3817,
      "vegetables": 3818,
      "spatula": 3819,
      "fitted": 3820,
      "seam": 3821,
      "wanting": 3822,
      "syrup": 3823,
      "harder": 3824,
      "utensils": 3825,
      "GI": 3826,
      "Ye": 3827,
      "cere": 3828,
      "Thin": 3829,
      "misleading": 3830,
      "Wouldn": 3831,
      "steamer": 3832,
      "UL": 3833,
      "bes": 3834,
      "apt": 3835,
      "shiny": 3836,
      "fol": 3837,
      "ists": 3838,
      "magnets": 3839,
      "foods": 3840,
      "Sometimes": 3841,
      "lacking": 3842,
      "relative": 3843,
      "sequel": 3844,
      "voice": 3845,
      "flexible": 3846,
      "streng": 3847,
      "sen": 3848,
      "vin": 3849,
      "telling": 3850,
      "email": 3851,
      "arti": 3852,
      "mixing": 3853,
      "ENT": 3854,
      "create": 3855,
      "earlier": 3856,
      "bac": 3857,
      "muffin": 3858,
      "ero": 3859,
      "whis": 3860,
      "ease": 3861,
      "THING": 3862,
      "slides": 3863,
      "USA": 3864,
      "tomato": 3865,
      "Fil": 3866,
      "hing": 3867,
      "mid": 3868,
      "town": 3869,
      "wid": 3870,
      "caught": 3871,
      "ruined": 3872,
      "favorites": 3873,
      "matches": 3874,
      "accident": 3875,
      "bits": 3876,
      "aspect": 3877,
      "met": 3878,
      "packing": 3879,
      "Recommend": 3880,
      "???": 3881,
      "UPD": 3882,
      "sandwich": 3883,
      "$$": 3884,
      "HS": 3885,
      "IL": 3886,
      "seams": 3887,
      "provid": 3888,
      "death": 3889,
      "somehow": 3890,
      "hadn": 3891,
      "!!!!!": 3892,
      "buttons": 3893,
      "Disappointing": 3894,
      "limited": 3895,
      ":/": 3896,
      "uc": 3897,
      "arms": 3898,
      "guests": 3899,
      "provided": 3900,
      "nood": 3901,
      "asleep": 3902,
      "grandson": 3903,
      "mechanism": 3904,
      "gross": 3905,
      "rd": 3906,
      "sick": 3907,
      "dram": 3908,
      "Disney": 3909,
      "surprising": 3910,
      "grounds": 3911,
      "produce": 3912,
      "practical": 3913,
      "question": 3914,
      "Boring": 3915,
      "toile": 3916,
      "stery": 3917,
      "aller": 3918,
      "wider": 3919,
      "scoop": 3920,
      "flash": 3921,
      "rental": 3922,
      "general": 3923,
      "songs": 3924,
      "business": 3925,
      "grocery": 3926,
      "ases": 3927,
      "uneven": 3928,
      "appy": 3929,
      "joke": 3930,
      "versions": 3931,
      "ICE": 3932,
      "zero": 3933,
      "kins": 3934,
      "lame": 3935,
      "adorable": 3936,
      "resist": 3937,
      "WITH": 3938,
      "dan": 3939,
      "oh": 3940,
      "caf": 3941,
      "backing": 3942,
      "genre": 3943,
      "developed": 3944,
      "Acting": 3945,
      "western": 3946,
      "ises": 3947,
      "upper": 3948,
      "amboo": 3949,
      "sucks": 3950,
      "slee": 3951,
      "required": 3952,
      "Cost": 3953,
      "ficial": 3954,
      "potatoes": 3955,
      "traditional": 3956,
      "PE": 3957,
      "VHS": 3958,
      "bor": 3959,
      "jer": 3960,
      "nie": 3961,
      "tables": 3962,
      "chall": 3963,
      "appeal": 3964,
      "cycle": 3965,
      "softer": 3966,
      ".,": 3967,
      "Put": 3968,
      "ium": 3969,
      "ini": 3970,
      "thrown": 3971,
      "manual": 3972,
      "attachment": 3973,
      "Keurig": 3974,
      "installed": 3975,
      "dumb": 3976,
      "vanilla": 3977,
      "strength": 3978,
      "IR": 3979,
      "pret": 3980,
      "shouldn": 3981,
      "poses": 3982,
      "prior": 3983,
      "fluffy": 3984,
      "3rd": 3985,
      "AA": 3986,
      "bi": 3987,
      "novel": 3988,
      "crit": 3989,
      "adds": 3990,
      "consum": 3991,
      "threads": 3992,
      "UPDATE": 3993,
      "SS": 3994,
      "states": 3995,
      "almon": 3996,
      "acy": 3997,
      "ung": 3998,
      "ummy": 3999,
      "tribut": 4000,
      "drip": 4001,
      "success": 4002,
      "sliding": 4003,
      "Haven": 4004,
      "theater": 4005,
      "moment": 4006,
      "ational": 4007,
      "ANY": 4008,
      "apparently": 4009,
      "ai": 4010,
      "uro": 4011,
      "accom": 4012,
      "tele": 4013,
      "teach": 4014,
      "answer": 4015,
      "extras": 4016,
      "smoke": 4017,
      "brilli": 4018,
      "faded": 4019,
      "polit": 4020,
      "THER": 4021,
      "pression": 4022,
      "garage": 4023,
      "medio": 4024,
      "throwing": 4025,
      "knock": 4026,
      "walk": 4027,
      "computer": 4028,
      "Dav": 4029,
      "Having": 4030,
      "James": 4031,
      "mint": 4032,
      "ues": 4033,
      "melt": 4034,
      "und": 4035,
      "icks": 4036,
      "picked": 4037,
      "incredibly": 4038,
      "sturdi": 4039,
      "biggest": 4040,
      "shop": 4041,
      "pouring": 4042,
      "Add": 4043,
      "Lar": 4044,
      "Such": 4045,
      "jum": 4046,
      "ered": 4047,
      "ony": 4048,
      "flu": 4049,
      "cutter": 4050,
      "heats": 4051,
      "meaning": 4052,
      "dented": 4053,
      "Bas": 4054,
      "Cons": 4055,
      "rain": 4056,
      "vs": 4057,
      "inese": 4058,
      "redu": 4059,
      "urder": 4060,
      "glued": 4061,
      "rolling": 4062,
      "avored": 4063,
      "boiling": 4064,
      "tube": 4065,
      "Del": 4066,
      "ral": 4067,
      "popped": 4068,
      "animation": 4069,
      "audience": 4070,
      "bonus": 4071,
      "Shi": 4072,
      "Wow": 4073,
      "nasty": 4074,
      "stink": 4075,
      "shaped": 4076,
      "salty": 4077,
      "rusted": 4078,
      "spoil": 4079,
      "previously": 4080,
      "incense": 4081,
      "mirror": 4082,
      "premise": 4083,
      "gust": 4084,
      "wel": 4085,
      "iously": 4086,
      "stayed": 4087,
      "learned": 4088,
      "concerned": 4089,
      "stitching": 4090,
      "danger": 4091,
      "hood": 4092,
      "rof": 4093,
      "lets": 4094,
      "compart": 4095,
      "romantic": 4096,
      "mats": 4097,
      "directed": 4098,
      "Blue": 4099,
      "digital": 4100,
      "mediocre": 4101,
      "Gl": 4102,
      "todd": 4103,
      "itty": 4104,
      "sci": 4105,
      "ished": 4106,
      "views": 4107,
      "noticeable": 4108,
      "details": 4109,
      "Tastes": 4110,
      "thorough": 4111,
      "Last": 4112,
      "gon": 4113,
      "zing": 4114,
      "eleg": 4115,
      "visual": 4116,
      "America": 4117,
      "wobbly": 4118,
      "usage": 4119,
      "aks": 4120,
      "bland": 4121,
      "makers": 4122,
      "pockets": 4123,
      "folks": 4124,
      "Make": 4125,
      "aa": 4126,
      "usion": 4127,
      "flavored": 4128,
      "knows": 4129,
      "creep": 4130,
      "attle": 4131,
      "faces": 4132,
      "IG": 4133,
      "Low": 4134,
      "Pot": 4135,
      "UCH": 4136,
      "cross": 4137,
      "game": 4138,
      "nud": 4139,
      "tends": 4140,
      "state": 4141,
      "began": 4142,
      "canister": 4143,
      "tale": 4144,
      "chop": 4145,
      "famili": 4146,
      "rolled": 4147,
      "include": 4148,
      "slices": 4149,
      "frustrating": 4150,
      "invest": 4151,
      "aid": 4152,
      "bamboo": 4153,
      "ee": 4154,
      "zed": 4155,
      "ield": 4156,
      "maint": 4157,
      "daughters": 4158,
      "himself": 4159,
      "numbers": 4160,
      "alternative": 4161,
      "collap": 4162,
      "idden": 4163,
      "adjustable": 4164,
      "camera": 4165,
      "consistent": 4166,
      "LIKE": 4167,
      "uminum": 4168,
      "Ty": 4169,
      "evil": 4170,
      "hilarious": 4171,
      "soc": 4172,
      "scrub": 4173,
      "smoothies": 4174,
      "flowers": 4175,
      "width": 4176,
      "AIN": 4177,
      "His": 4178,
      "Rus": 4179,
      "een": 4180,
      "hh": 4181,
      "tore": 4182,
      "dozen": 4183,
      "ified": 4184,
      "ooked": 4185,
      "umes": 4186,
      "commerc": 4187,
      "factory": 4188,
      "flip": 4189,
      "delicate": 4190,
      "terrific": 4191,
      "Japanese": 4192,
      "?!": 4193,
      "IM": 4194,
      "Mag": 4195,
      "zomb": 4196,
      "somewhere": 4197,
      "arrival": 4198,
      "toilet": 4199,
      "Holds": 4200,
      "uten": 4201,
      "cop": 4202,
      "coaster": 4203,
      "plu": 4204,
      "deter": 4205,
      "cupcakes": 4206,
      "berries": 4207,
      "compact": 4208,
      "smelled": 4209,
      "visible": 4210,
      "directly": 4211,
      "changes": 4212,
      "Again": 4213,
      "Bat": 4214,
      "aur": 4215,
      "pin": 4216,
      "theat": 4217,
      "beer": 4218,
      "waited": 4219,
      "See": 4220,
      "Funny": 4221,
      "writers": 4222,
      "cartoon": 4223,
      "adequate": 4224,
      "AG": 4225,
      "Mon": 4226,
      "SH": 4227,
      "cru": 4228,
      "hurt": 4229,
      "advent": 4230,
      "originally": 4231,
      "following": 4232,
      "phone": 4233,
      "grinding": 4234,
      "brewing": 4235,
      "explo": 4236,
      "requires": 4237,
      "Lu": 4238,
      "removing": 4239,
      "ester": 4240,
      "outstanding": 4241,
      "defin": 4242,
      "psy": 4243,
      "cooks": 4244,
      "frames": 4245,
      "burnt": 4246,
      "rolls": 4247,
      "laughs": 4248,
      "folded": 4249,
      "involved": 4250,
      "professional": 4251,
      "cul": 4252,
      "rap": 4253,
      "Enter": 4254,
      "Everyone": 4255,
      "trailer": 4256,
      "British": 4257,
      "stair": 4258,
      "hell": 4259,
      "pers": 4260,
      "tran": 4261,
      "cork": 4262,
      "chose": 4263,
      "personally": 4264,
      "skirt": 4265,
      "terribly": 4266,
      "moisture": 4267,
      "Su": 4268,
      "ordin": 4269,
      "aker": 4270,
      "desired": 4271,
      "cleans": 4272,
      "REALLY": 4273,
      "friendly": 4274,
      "brushes": 4275,
      "ACK": 4276,
      "Clean": 4277,
      "skillet": 4278,
      "yogurt": 4279,
      "refrigerator": 4280,
      "lling": 4281,
      "poly": 4282,
      "college": 4283,
      "musical": 4284,
      "stream": 4285,
      "COM": 4286,
      "Walmart": 4287,
      "further": 4288,
      "Diff": 4289,
      "Sent": 4290,
      "Wi": 4291,
      "cro": 4292,
      "saved": 4293,
      "tum": 4294,
      "andom": 4295,
      "therefore": 4296,
      "generally": 4297,
      "cloths": 4298,
      "signific": 4299,
      "anticipated": 4300,
      "nudity": 4301,
      "commercial": 4302,
      "utter": 4303,
      "unable": 4304,
      "exist": 4305,
      "poster": 4306,
      "string": 4307,
      "Instead": 4308,
      "ggle": 4309,
      "wake": 4310,
      "walls": 4311,
      "substanti": 4312,
      "appropri": 4313,
      "Class": 4314,
      "DU": 4315,
      "Here": 4316,
      "Picture": 4317,
      "baked": 4318,
      "rink": 4319,
      "arget": 4320,
      "ender": 4321,
      "assum": 4322,
      "reviewer": 4323,
      "talk": 4324,
      "slipper": 4325,
      "Extremely": 4326,
      "bulk": 4327,
      "clip": 4328,
      "BB": 4329,
      "Slow": 4330,
      "aluminum": 4331,
      "ads": 4332,
      "shallow": 4333,
      "dece": 4334,
      "types": 4335,
      "minor": 4336,
      "breakfast": 4337,
      "younger": 4338,
      "Amazing": 4339,
      "EM": 4340,
      "anced": 4341,
      "stat": 4342,
      "ionally": 4343,
      "agon": 4344,
      "shoot": 4345,
      "tightly": 4346,
      "bacon": 4347,
      "++": 4348,
      "45": 4349,
      "random": 4350,
      "swi": 4351,
      "resid": 4352,
      "stage": 4353,
      "hew": 4354,
      "loaf": 4355,
      "shed": 4356,
      "udd": 4357,
      "twin": 4358,
      "homemade": 4359,
      "volume": 4360,
      "Micha": 4361,
      "Day": 4362,
      "eth": 4363,
      "hur": 4364,
      "rin": 4365,
      "webs": 4366,
      "pets": 4367,
      "depressing": 4368,
      "sume": 4369,
      "Chinese": 4370,
      "decorative": 4371,
      "events": 4372,
      "Dan": 4373,
      "Gar": 4374,
      "Little": 4375,
      "PL": 4376,
      "sele": 4377,
      "choose": 4378,
      "exe": 4379,
      "reasonably": 4380,
      "sweat": 4381,
      "layer": 4382,
      "WILL": 4383,
      "Food": 4384,
      "Mel": 4385,
      "inner": 4386,
      "represent": 4387,
      "outdoor": 4388,
      "duction": 4389,
      "boys": 4390,
      "crunch": 4391,
      "rooms": 4392,
      "Always": 4393,
      "juicer": 4394,
      "MUCH": 4395,
      "Soft": 4396,
      "TR": 4397,
      "Turn": 4398,
      "bree": 4399,
      "tun": 4400,
      "repair": 4401,
      "enn": 4402,
      "max": 4403,
      "delight": 4404,
      "stored": 4405,
      "THEY": 4406,
      "element": 4407,
      "cereal": 4408,
      "Her": 4409,
      "Taste": 4410,
      "WO": 4411,
      "eli": 4412,
      "tor": 4413,
      "female": 4414,
      "served": 4415,
      "viewer": 4416,
      "changing": 4417,
      "ampire": 4418,
      "elegant": 4419,
      "QU": 4420,
      "Tru": 4421,
      "slo": 4422,
      "tong": 4423,
      "thetic": 4424,
      "overly": 4425,
      "protein": 4426,
      "apointed": 4427,
      "promised": 4428,
      "artificial": 4429,
      "75": 4430,
      "closer": 4431,
      "fixed": 4432,
      "Dy": 4433,
      "GO": 4434,
      "Let": 4435,
      "Mart": 4436,
      "ka": 4437,
      "mush": 4438,
      "arn": 4439,
      "thats": 4440,
      "boards": 4441,
      "organized": 4442,
      "footage": 4443,
      "energy": 4444,
      "strainer": 4445,
      "Ive": 4446,
      "ew": 4447,
      "hated": 4448,
      "refer": 4449,
      "upset": 4450,
      "checked": 4451,
      "watchable": 4452,
      "stands": 4453,
      "superb": 4454,
      "scenery": 4455,
      "USE": 4456,
      "twists": 4457,
      "absorbent": 4458,
      "pocket": 4459,
      "nic": 4460,
      "ander": 4461,
      "forced": 4462,
      "ief": 4463,
      "shatter": 4464,
      "packs": 4465,
      "auty": 4466,
      "reasons": 4467,
      "namon": 4468,
      "frequently": 4469,
      "sturdier": 4470,
      "website": 4471,
      "asp": 4472,
      "outer": 4473,
      "acity": 4474,
      "brac": 4475,
      "stained": 4476,
      "Cheaply": 4477,
      "'.": 4478,
      "Gi": 4479,
      "Sur": 4480,
      "dents": 4481,
      "gall": 4482,
      "stun": 4483,
      "mystery": 4484,
      "neither": 4485,
      "relationship": 4486,
      "pul": 4487,
      "rad": 4488,
      "thum": 4489,
      "verse": 4490,
      "feed": 4491,
      "worried": 4492,
      "saver": 4493,
      "ously": 4494,
      "ameter": 4495,
      "knob": 4496,
      "relatively": 4497,
      "II": 4498,
      "Show": 4499,
      "bird": 4500,
      "iber": 4501,
      "lum": 4502,
      "leather": 4503,
      "puts": 4504,
      "Que": 4505,
      "lap": 4506,
      "exerc": 4507,
      "affect": 4508,
      "purposes": 4509,
      "contacted": 4510,
      "compliments": 4511,
      "Dark": 4512,
      "Ham": 4513,
      "carri": 4514,
      "marri": 4515,
      "disgust": 4516,
      "spare": 4517,
      "alloween": 4518,
      "ginger": 4519,
      "Sadly": 4520,
      "Entertain": 4521,
      "Bre": 4522,
      "Cor": 4523,
      "Pa": 4524,
      "lbs": 4525,
      "strip": 4526,
      "rig": 4527,
      "common": 4528,
      "knowing": 4529,
      "pressive": 4530,
      "admit": 4531,
      ";<": 4532,
      "Ben": 4533,
      "El": 4534,
      "gree": 4535,
      "udes": 4536,
      "escap": 4537,
      "aro": 4538,
      "irts": 4539,
      "pol": 4540,
      "disk": 4541,
      "sucked": 4542,
      "gluten": 4543,
      "shake": 4544,
      "respect": 4545,
      "tension": 4546,
      "television": 4547,
      "Michael": 4548,
      "Dep": 4549,
      "HD": 4550,
      "Tre": 4551,
      "Water": 4552,
      "kit": 4553,
      "lts": 4554,
      "tin": 4555,
      "shots": 4556,
      "glow": 4557,
      "diameter": 4558,
      "stomach": 4559,
      "Keep": 4560,
      "Comple": 4561,
      "Feels": 4562,
      "hesit": 4563,
      "thoroughly": 4564,
      "plugged": 4565,
      "Bot": 4566,
      "DIS": 4567,
      "Euro": 4568,
      "cket": 4569,
      "dies": 4570,
      "lat": 4571,
      "vels": 4572,
      "hey": 4573,
      "soda": 4574,
      "gles": 4575,
      "trim": 4576,
      "cracks": 4577,
      "caps": 4578,
      "Smell": 4579,
      "Using": 4580,
      "ahead": 4581,
      "gers": 4582,
      "murder": 4583,
      "site": 4584,
      "wing": 4585,
      "whel": 4586,
      "enced": 4587,
      "bean": 4588,
      "roles": 4589,
      "diss": 4590,
      "inds": 4591,
      "colorful": 4592,
      "fabulous": 4593,
      "decoration": 4594,
      "cinem": 4595,
      "Broke": 4596,
      "humidifier": 4597,
      "stairs": 4598,
      "OUT": 4599,
      "PA": 4600,
      "Pan": 4601,
      "dream": 4602,
      "hidden": 4603,
      "ert": 4604,
      "Ther": 4605,
      "shred": 4606,
      "ards": 4607,
      "intro": 4608,
      "covering": 4609,
      "pulling": 4610,
      "promptly": 4611,
      "noodles": 4612,
      "slippery": 4613,
      "Happy": 4614,
      "crock": 4615,
      "tie": 4616,
      "weather": 4617,
      "ideal": 4618,
      "suppor": 4619,
      "Almost": 4620,
      "lux": 4621,
      "possibly": 4622,
      "concern": 4623,
      "graphic": 4624,
      "substantial": 4625,
      "breeze": 4626,
      "AW": 4627,
      "Hel": 4628,
      "Same": 4629,
      "Time": 4630,
      "towards": 4631,
      "comments": 4632,
      "hol": 4633,
      "gore": 4634,
      "crooked": 4635,
      "contents": 4636,
      "contains": 4637,
      "warming": 4638,
      "Pros": 4639,
      "printed": 4640,
      "Plastic": 4641,
      "execut": 4642,
      "JUST": 4643,
      "Wash": 4644,
      "saving": 4645,
      "vend": 4646,
      "anime": 4647,
      "grease": 4648,
      "Returning": 4649,
      "***": 4650,
      "Takes": 4651,
      "caused": 4652,
      "filmed": 4653,
      "automat": 4654,
      "panel": 4655,
      "pantry": 4656,
      "wonderfully": 4657,
      "costs": 4658,
      "preferred": 4659,
      "Robert": 4660,
      "creepy": 4661,
      "mount": 4662,
      "units": 4663,
      "exper": 4664,
      "amin": 4665,
      "ulty": 4666,
      "worthy": 4667,
      "END": 4668,
      "granddaughter": 4669,
      "violent": 4670,
      "situation": 4671,
      "Batman": 4672,
      "CON": 4673,
      "jud": 4674,
      "mand": 4675,
      "tier": 4676,
      "worn": 4677,
      "prec": 4678,
      "elastic": 4679,
      "gled": 4680,
      "rented": 4681,
      "hopefully": 4682,
      "AZ": 4683,
      "Cap": 4684,
      "Many": 4685,
      "stoo": 4686,
      "tan": 4687,
      "report": 4688,
      "quilt": 4689,
      "happier": 4690,
      "sleeper": 4691,
      "cabinets": 4692,
      "Grand": 4693,
      "thriller": 4694,
      "____": 4695,
      "allerg": 4696,
      "brilliant": 4697,
      "Complete": 4698,
      "Green": 4699,
      "ige": 4700,
      "ache": 4701,
      "ours": 4702,
      "icted": 4703,
      "Read": 4704,
      "ANT": 4705,
      "nights": 4706,
      "capacity": 4707,
      "entirely": 4708,
      "prime": 4709,
      "hype": 4710,
      "wrinkled": 4711,
      "ville": 4712,
      "efficient": 4713,
      "Hoo": 4714,
      "diet": 4715,
      "fal": 4716,
      "liking": 4717,
      "science": 4718,
      "dio": 4719,
      "White": 4720,
      "cookware": 4721,
      "share": 4722,
      "instant": 4723,
      "memories": 4724,
      "minimal": 4725,
      "David": 4726,
      "Queen": 4727,
      "KS": 4728,
      "Rob": 4729,
      "inf": 4730,
      "willing": 4731,
      "team": 4732,
      "foil": 4733,
      "questions": 4734,
      "comparison": 4735,
      "George": 4736,
      "maintain": 4737,
      "dad": 4738,
      "pal": 4739,
      "error": 4740,
      "seeds": 4741,
      "romance": 4742,
      "nowhere": 4743,
      "iment": 4744,
      "crust": 4745,
      "ONLY": 4746,
      "pads": 4747,
      "Meh": 4748,
      "CR": 4749,
      "fitting": 4750,
      "tad": 4751,
      "wick": 4752,
      "ctive": 4753,
      "ift": 4754,
      "sible": 4755,
      "Heavy": 4756,
      "Actually": 4757,
      "?)": 4758,
      "DID": 4759,
      "Each": 4760,
      "tab": 4761,
      "tack": 4762,
      "wre": 4763,
      "aftertaste": 4764,
      "lighting": 4765,
      "pancakes": 4766,
      "drive": 4767,
      "Simple": 4768,
      "holiday": 4769,
      "Part": 4770,
      "crew": 4771,
      "dance": 4772,
      "gad": 4773,
      "icious": 4774,
      "uts": 4775,
      "beach": 4776,
      "terms": 4777,
      "suppli": 4778,
      "Indi": 4779,
      "burner": 4780,
      "liquids": 4781,
      "taller": 4782,
      "hesive": 4783,
      "BS": 4784,
      "Fair": 4785,
      "Try": 4786,
      "torn": 4787,
      "storing": 4788,
      "heated": 4789,
      "terday": 4790,
      "comic": 4791,
      "clothing": 4792,
      "ortun": 4793,
      "wondering": 4794,
      "specific": 4795,
      "slicer": 4796,
      "securely": 4797,
      "offered": 4798,
      "balance": 4799,
      "Totally": 4800,
      "insulated": 4801,
      "dangerous": 4802,
      "Fre": 4803,
      "HU": 4804,
      "PER": 4805,
      "Wood": 4806,
      "bra": 4807,
      "fool": 4808,
      "ore": 4809,
      "pace": 4810,
      "rede": 4811,
      "meets": 4812,
      "mop": 4813,
      "ups": 4814,
      "quant": 4815,
      "combin": 4816,
      "Worst": 4817,
      "lax": 4818,
      "shoe": 4819,
      "shopping": 4820,
      "gentle": 4821,
      "Chi": 4822,
      "grew": 4823,
      "lb": 4824,
      "reorder": 4825,
      "apples": 4826,
      "aint": 4827,
      "conv": 4828,
      "brain": 4829,
      "cooler": 4830,
      "Unless": 4831,
      "skip": 4832,
      "created": 4833,
      "dining": 4834,
      "Christian": 4835,
      "====": 4836,
      "crisp": 4837,
      "affordable": 4838,
      "transp": 4839,
      "ipped": 4840,
      "olive": 4841,
      "chill": 4842,
      "bell": 4843,
      "arted": 4844,
      "spending": 4845,
      "manner": 4846,
      "worthless": 4847,
      "charm": 4848,
      "members": 4849,
      "videos": 4850,
      "mainly": 4851,
      "TOO": 4852,
      "camping": 4853,
      "expand": 4854,
      "labeled": 4855,
      "Kinda": 4856,
      "Awful": 4857,
      "tumbl": 4858,
      "NT": 4859,
      "Pill": 4860,
      "SM": 4861,
      "iling": 4862,
      "burns": 4863,
      "bene": 4864,
      "provides": 4865,
      "Sto": 4866,
      "cart": 4867,
      "stool": 4868,
      "toy": 4869,
      "shrink": 4870,
      "warmer": 4871,
      "ONG": 4872,
      "passed": 4873,
      "consistency": 4874,
      "German": 4875,
      "appropriate": 4876,
      "Fant": 4877,
      "Halloween": 4878,
      "OX": 4879,
      "Pie": 4880,
      "fond": 4881,
      "gap": 4882,
      "refill": 4883,
      "beef": 4884,
      "Ital": 4885,
      "maid": 4886,
      "exchange": 4887,
      "imm": 4888,
      "click": 4889,
      "monster": 4890,
      "cooling": 4891,
      "Willi": 4892,
      "scratchy": 4893,
      "models": 4894,
      "Guess": 4895,
      "CA": 4896,
      "ION": 4897,
      "Set": 4898,
      "ey": 4899,
      "rical": 4900,
      "remake": 4901,
      "bear": 4902,
      "term": 4903,
      "upright": 4904,
      "impressive": 4905,
      "sticker": 4906,
      "amel": 4907,
      "izing": 4908,
      "freeze": 4909,
      "cinnamon": 4910,
      "waffle": 4911,
      "historical": 4912,
      "toddler": 4913,
      "Fit": 4914,
      "Must": 4915,
      "Might": 4916,
      "Old": 4917,
      "PLE": 4918,
      "iest": 4919,
      "vampire": 4920,
      "ays": 4921,
      "folds": 4922,
      "suspect": 4923,
      "fighting": 4924,
      "DON": 4925,
      "padding": 4926,
      "itary": 4927,
      "causing": 4928,
      "discovered": 4929,
      "horri": 4930,
      "elements": 4931,
      "narr": 4932,
      "organizer": 4933,
      "300": 4934,
      "Ap": 4935,
      "Far": 4936,
      "amy": 4937,
      "oat": 4938,
      "unhappy": 4939,
      "teeth": 4940,
      "gran": 4941,
      "div": 4942,
      "Where": 4943,
      "lasting": 4944,
      "nonstick": 4945,
      "matching": 4946,
      "remembered": 4947,
      "truth": 4948,
      "cube": 4949,
      "publ": 4950,
      "Classic": 4951,
      "CAN": 4952,
      "OM": 4953,
      "bility": 4954,
      "reco": 4955,
      "lean": 4956,
      "rods": 4957,
      "acular": 4958,
      "unusable": 4959,
      "deed": 4960,
      "noon": 4961,
      "functions": 4962,
      "ships": 4963,
      "visit": 4964,
      "DOES": 4965,
      "squeeze": 4966,
      "cers": 4967,
      "kne": 4968,
      "slots": 4969,
      "arse": 4970,
      "bold": 4971,
      "chef": 4972,
      "drap": 4973,
      "killed": 4974,
      "bulb": 4975,
      "About": 4976,
      "loaded": 4977,
      "--------": 4978,
      "CD": 4979,
      "Cal": 4980,
      "den": 4981,
      "fying": 4982,
      "lon": 4983,
      "ners": 4984,
      "page": 4985,
      "loving": 4986,
      "comb": 4987,
      "degree": 4988,
      "ager": 4989,
      "spicy": 4990,
      "clum": 4991,
      "decide": 4992,
      "drawn": 4993,
      "touching": 4994,
      "mula": 4995,
      "spills": 4996,
      "sharpener": 4997,
      "Enjoyed": 4998,
      "Fli": 4999,
      "Next": 5000,
      "SA": 5001,
      "nature": 5002,
      "wow": 5003,
      "ret": 5004,
      "remov": 5005,
      "strug": 5006,
      "Three": 5007,
      "Which": 5008,
      "superior": 5009,
      "specially": 5010,
      "restaur": 5011,
      "roller": 5012,
      "bargain": 5013,
      "phys": 5014,
      "imagin": 5015,
      "Comp": 5016,
      "Looked": 5017,
      "flaws": 5018,
      "prepared": 5019,
      "repeated": 5020,
      "Aid": 5021,
      "rout": 5022,
      "vas": 5023,
      "infl": 5024,
      "theless": 5025,
      "arily": 5026,
      "metho": 5027,
      "Though": 5028,
      ".......": 5029,
      "panels": 5030,
      "liners": 5031,
      "dden": 5032,
      "credit": 5033,
      "residue": 5034,
      "CGI": 5035,
      "inj": 5036,
      "rey": 5037,
      "orm": 5038,
      "forth": 5039,
      "beauty": 5040,
      "according": 5041,
      "ules": 5042,
      "flatt": 5043,
      "focus": 5044,
      "giant": 5045,
      "inyl": 5046,
      "stops": 5047,
      "fails": 5048,
      "snapped": 5049,
      "mood": 5050,
      "mber": 5051,
      "toms": 5052,
      "road": 5053,
      "lover": 5054,
      "dete": 5055,
      "blur": 5056,
      "evening": 5057,
      "brings": 5058,
      "wrote": 5059,
      "kinds": 5060,
      "Dont": 5061,
      "plane": 5062,
      "snacks": 5063,
      "Hopefully": 5064,
      "EVERY": 5065,
      "Found": 5066,
      "WOULD": 5067,
      "ision": 5068,
      "noted": 5069,
      "notch": 5070,
      "unt": 5071,
      "timely": 5072,
      "auto": 5073,
      "regularly": 5074,
      "extended": 5075,
      "constant": 5076,
      "perform": 5077,
      "sadly": 5078,
      "yesterday": 5079,
      "incredible": 5080,
      "DER": 5081,
      "cats": 5082,
      "info": 5083,
      "sea": 5084,
      "wipe": 5085,
      "ider": 5086,
      "riend": 5087,
      "neigh": 5088,
      "cell": 5089,
      "ounces": 5090,
      "ept": 5091,
      "tons": 5092,
      "heads": 5093,
      "calories": 5094,
      "happening": 5095,
      "chemicals": 5096,
      "improvement": 5097,
      "gonna": 5098,
      "stood": 5099,
      "Par": 5100,
      "Rich": 5101,
      "Sal": 5102,
      "Sam": 5103,
      "cles": 5104,
      "hide": 5105,
      "latch": 5106,
      "rarely": 5107,
      "editing": 5108,
      "ingly": 5109,
      "adhesive": 5110,
      "unbelievable": 5111,
      "irrit": 5112,
      "excess": 5113,
      "serv": 5114,
      "highest": 5115,
      "strap": 5116,
      "enjoying": 5117,
      "solve": 5118,
      "tells": 5119,
      "Quite": 5120,
      "boyfriend": 5121,
      "resistant": 5122,
      "police": 5123,
      "Fantastic": 5124,
      "Cook": 5125,
      "kn": 5126,
      "tone": 5127,
      "ene": 5128,
      "compe": 5129,
      "distur": 5130,
      "shell": 5131,
      "slips": 5132,
      "organize": 5133,
      "BEST": 5134,
      "sexual": 5135,
      "Entertaining": 5136,
      "Hoover": 5137,
      "lef": 5138,
      "formed": 5139,
      "nels": 5140,
      "flame": 5141,
      "choices": 5142,
      "THESE": 5143,
      "Liked": 5144,
      "atography": 5145,
      "Looking": 5146,
      "wheels": 5147,
      "Total": 5148,
      "Fran": 5149,
      "Honest": 5150,
      "Pow": 5151,
      "Stain": 5152,
      "pile": 5153,
      "relax": 5154,
      "ica": 5155,
      "align": 5156,
      "unks": 5157,
      "unger": 5158,
      "ilton": 5159,
      "sudden": 5160,
      "interior": 5161,
      "tablecloth": 5162,
      "grinds": 5163,
      "killer": 5164,
      "learning": 5165,
      "posted": 5166,
      "GET": 5167,
      "mildew": 5168,
      "growing": 5169,
      "waffles": 5170,
      "pounds": 5171,
      "Paul": 5172,
      "Pillow": 5173,
      "!\"": 5174,
      "AV": 5175,
      "Cr": 5176,
      "Mis": 5177,
      "Top": 5178,
      "Your": 5179,
      "bare": 5180,
      "hint": 5181,
      "zel": 5182,
      "recl": 5183,
      "meals": 5184,
      "coat": 5185,
      "polish": 5186,
      "ubby": 5187,
      "allowed": 5188,
      "ACT": 5189,
      "destroy": 5190,
      "vendor": 5191,
      "Ac": 5192,
      "Aust": 5193,
      "Bob": 5194,
      "Luck": 5195,
      "PP": 5196,
      "SU": 5197,
      "Sun": 5198,
      "inte": 5199,
      "uted": 5200,
      "plant": 5201,
      "warning": 5202,
      "2016": 5203,
      "syn": 5204,
      "ginal": 5205,
      "safety": 5206,
      "depend": 5207,
      "://": 5208,
      "Cho": 5209,
      "Hal": 5210,
      "Mill": 5211,
      "PR": 5212,
      "city": 5213,
      "assume": 5214,
      "alk": 5215,
      "wires": 5216,
      "urch": 5217,
      "aple": 5218,
      "ounce": 5219,
      "brary": 5220,
      "closing": 5221,
      "THAN": 5222,
      "singing": 5223,
      "Colors": 5224,
      "spectacular": 5225,
      "Trek": 5226,
      "combination": 5227,
      "MA": 5228,
      "oul": 5229,
      "heck": 5230,
      "feather": 5231,
      "complic": 5232,
      "dev": 5233,
      "host": 5234,
      "buck": 5235,
      "intense": 5236,
      "smart": 5237,
      "clever": 5238,
      "ruin": 5239,
      "washings": 5240,
      "wished": 5241,
      "packages": 5242,
      "selling": 5243,
      "unky": 5244,
      "smoothly": 5245,
      "peeling": 5246,
      "strips": 5247,
      "ornament": 5248,
      "adventure": 5249,
      "La": 5250,
      "Med": 5251,
      "Pat": 5252,
      "Sand": 5253,
      "htt": 5254,
      "vinyl": 5255,
      "upside": 5256,
      "embar": 5257,
      "grams": 5258,
      "blankets": 5259,
      "sequences": 5260,
      "lady": 5261,
      "operate": 5262,
      "Anyway": 5263,
      "issors": 5264,
      "source": 5265,
      "crushed": 5266,
      "rofiber": 5267,
      "OXO": 5268,
      "Home": 5269,
      "Ori": 5270,
      "Sure": 5271,
      "mitt": 5272,
      "score": 5273,
      "tag": 5274,
      "vine": 5275,
      "wearing": 5276,
      "deeper": 5277,
      "perman": 5278,
      "afternoon": 5279,
      "Inst": 5280,
      "warned": 5281,
      "includes": 5282,
      "lacks": 5283,
      "experienced": 5284,
      "convenience": 5285,
      "frying": 5286,
      "distance": 5287,
      "surprisingly": 5288,
      "Costco": 5289,
      "Dyson": 5290,
      "disgusting": 5291,
      "Em": 5292,
      "Jan": 5293,
      "Wanted": 5294,
      "sters": 5295,
      "absolute": 5296,
      "dispos": 5297,
      "corny": 5298,
      "wouldnt": 5299,
      "tellig": 5300,
      "****": 5301,
      "rounded": 5302,
      "connection": 5303,
      "continues": 5304,
      "tossed": 5305,
      "dramatic": 5306,
      "zombie": 5307,
      "Je": 5308,
      "Jim": 5309,
      "pool": 5310,
      "ensive": 5311,
      "compet": 5312,
      "pods": 5313,
      "def": 5314,
      "trap": 5315,
      "causes": 5316,
      "tears": 5317,
      "ERE": 5318,
      "surv": 5319,
      "plots": 5320,
      "Needs": 5321,
      "searching": 5322,
      "improved": 5323,
      "absorb": 5324,
      "initially": 5325,
      "familiar": 5326,
      "Honestly": 5327,
      "CK": 5328,
      "WAT": 5329,
      "gay": 5330,
      "rist": 5331,
      "rance": 5332,
      "edition": 5333,
      "sewn": 5334,
      "otic": 5335,
      "ague": 5336,
      "mins": 5337,
      "opens": 5338,
      "closely": 5339,
      "suggested": 5340,
      "reliable": 5341,
      "Tea": 5342,
      "Air": 5343,
      "Dire": 5344,
      "Stre": 5345,
      "ax": 5346,
      "sess": 5347,
      "yummy": 5348,
      "icle": 5349,
      "concl": 5350,
      "impression": 5351,
      "grad": 5352,
      "jokes": 5353,
      "managed": 5354,
      "charged": 5355,
      "cret": 5356,
      "lazy": 5357,
      "drops": 5358,
      "carrying": 5359,
      "zzle": 5360,
      "writer": 5361,
      "Ear": 5362,
      "Sci": 5363,
      "soooo": 5364,
      "formula": 5365,
      "among": 5366,
      "dub": 5367,
      "raz": 5368,
      "describe": 5369,
      "198": 5370,
      "presentation": 5371,
      "flower": 5372,
      "earth": 5373,
      "struggle": 5374,
      "napkins": 5375,
      "reminds": 5376,
      "PRODU": 5377,
      "ordinary": 5378,
      "redeem": 5379,
      "Bru": 5380,
      "Bond": 5381,
      "Rub": 5382,
      "Sho": 5383,
      "Went": 5384,
      "dge": 5385,
      "jam": 5386,
      "rac": 5387,
      "erous": 5388,
      "ller": 5389,
      "arant": 5390,
      "hem": 5391,
      "mod": 5392,
      "sheer": 5393,
      "beds": 5394,
      "fallen": 5395,
      "solved": 5396,
      "values": 5397,
      "subtle": 5398,
      "screwed": 5399,
      "Life": 5400,
      "Rock": 5401,
      "molds": 5402,
      "fantasy": 5403,
      "humidity": 5404,
      "WHAT": 5405,
      "cinematography": 5406,
      "Tim": 5407,
      "mad": 5408,
      "pun": 5409,
      "punch": 5410,
      "pinch": 5411,
      "beige": 5412,
      "gel": 5413,
      "tial": 5414,
      "fray": 5415,
      "nia": 5416,
      "receiving": 5417,
      "guessing": 5418,
      "instruction": 5419,
      "considered": 5420,
      "slicing": 5421,
      "Delicious": 5422,
      "Flimsy": 5423,
      "Mor": 5424,
      "Room": 5425,
      "Spec": 5426,
      "TE": 5427,
      "fiction": 5428,
      "lor": 5429,
      "ose": 5430,
      "pants": 5431,
      "adapt": 5432,
      "cock": 5433,
      "shade": 5434,
      "handling": 5435,
      "funni": 5436,
      "hangs": 5437,
      "2015": 5438,
      "porary": 5439,
      "crappy": 5440,
      "Johnny": 5441,
      "balanced": 5442,
      "initial": 5443,
      "BL": 5444,
      "sag": 5445,
      "stones": 5446,
      "lived": 5447,
      "ultim": 5448,
      "istles": 5449,
      "newer": 5450,
      "Work": 5451,
      "NOW": 5452,
      "000": 5453,
      "stuffing": 5454,
      "classy": 5455,
      "lucky": 5456,
      "claims": 5457,
      "challeng": 5458,
      "HUGE": 5459,
      "lefto": 5460,
      "ILL": 5461,
      "RV": 5462,
      "bb": 5463,
      "gory": 5464,
      "library": 5465,
      "hable": 5466,
      "unnecessary": 5467,
      "quir": 5468,
      "steak": 5469,
      "protection": 5470,
      "wrinkle": 5471,
      "location": 5472,
      "TIME": 5473,
      "currently": 5474,
      "Max": 5475,
      "drilled": 5476,
      "fashioned": 5477,
      "oatmeal": 5478,
      "nu": 5479,
      "rass": 5480,
      "intellig": 5481,
      "record": 5482,
      "beli": 5483,
      "wild": 5484,
      "apply": 5485,
      "shirts": 5486,
      "lightly": 5487,
      "slipping": 5488,
      "weekend": 5489,
      "rusting": 5490,
      "oils": 5491,
      "ARS": 5492,
      "standards": 5493,
      "Seriously": 5494,
      "locally": 5495,
      "BR": 5496,
      "Down": 5497,
      "Fab": 5498,
      "House": 5499,
      "LED": 5500,
      "french": 5501,
      "ox": 5502,
      "sum": 5503,
      "reve": 5504,
      "ieve": 5505,
      "cel": 5506,
      "sip": 5507,
      "indust": 5508,
      "manage": 5509,
      "snug": 5510,
      "substit": 5511,
      "risk": 5512,
      "Watched": 5513,
      "sponge": 5514,
      "sufficient": 5515,
      "ornaments": 5516,
      "jerky": 5517,
      "almond": 5518,
      "Surpr": 5519,
      "public": 5520,
      "Back": 5521,
      "FUL": 5522,
      "Min": 5523,
      "cit": 5524,
      "ki": 5525,
      "ands": 5526,
      "addy": 5527,
      "rocks": 5528,
      "contr": 5529,
      "sage": 5530,
      "Solid": 5531,
      "THEM": 5532,
      "LOL": 5533,
      "popular": 5534,
      "picking": 5535,
      "racks": 5536,
      "shipment": 5537,
      "request": 5538,
      "peeler": 5539,
      "aroma": 5540,
      "Size": 5541,
      "battle": 5542,
      "pine": 5543,
      "saves": 5544,
      "toward": 5545,
      "lime": 5546,
      "account": 5547,
      "scissors": 5548,
      "wore": 5549,
      "thrit": 5550,
      "drips": 5551,
      "picks": 5552,
      "ARD": 5553,
      "measured": 5554,
      "portrayed": 5555,
      "suitable": 5556,
      "Long": 5557,
      "SC": 5558,
      "Sil": 5559,
      "bite": 5560,
      "bang": 5561,
      "rare": 5562,
      "indeed": 5563,
      "atives": 5564,
      "ifically": 5565,
      "bull": 5566,
      "imp": 5567,
      "grown": 5568,
      "mistry": 5569,
      "breath": 5570,
      "movement": 5571,
      "shock": 5572,
      "directing": 5573,
      "prints": 5574,
      "Smith": 5575,
      "animals": 5576,
      "ivity": 5577,
      "TION": 5578,
      "portrayal": 5579,
      "NEVER": 5580,
      "sensitive": 5581,
      "Material": 5582,
      "polyester": 5583,
      "35": 5584,
      "FO": 5585,
      "Kids": 5586,
      "camp": 5587,
      "snow": 5588,
      "llar": 5589,
      "Their": 5590,
      "quar": 5591,
      "erson": 5592,
      "returns": 5593,
      "thentic": 5594,
      "Something": 5595,
      "paste": 5596,
      "tighten": 5597,
      "frost": 5598,
      "animated": 5599,
      "building": 5600,
      "bubble": 5601,
      "Difficult": 5602,
      "BIG": 5603,
      "Cand": 5604,
      "Den": 5605,
      "Fi": 5606,
      "Pred": 5607,
      "bun": 5608,
      "coffe": 5609,
      "lamp": 5610,
      "soy": 5611,
      "entially": 5612,
      "demon": 5613,
      "whenever": 5614,
      "whose": 5615,
      "gging": 5616,
      "listing": 5617,
      "villain": 5618,
      "response": 5619,
      "accidentally": 5620,
      "22": 5621,
      "Night": 5622,
      "soo": 5623,
      "vit": 5624,
      "steps": 5625,
      "leaf": 5626,
      "fear": 5627,
      "qual": 5628,
      "distr": 5629,
      "chemistry": 5630,
      "raised": 5631,
      "closure": 5632,
      "hardwood": 5633,
      "intern": 5634,
      "INT": 5635,
      "factor": 5636,
      "Started": 5637,
      "Box": 5638,
      "presented": 5639,
      "tested": 5640,
      "substance": 5641,
      "coasters": 5642,
      "elimin": 5643,
      "complicated": 5644,
      "Ber": 5645,
      "gard": 5646,
      "ann": 5647,
      "het": 5648,
      "soever": 5649,
      "mains": 5650,
      "quart": 5651,
      "boot": 5652,
      "scare": 5653,
      "lesson": 5654,
      "divid": 5655,
      "bedding": 5656,
      "carbon": 5657,
      "sided": 5658,
      "slept": 5659,
      "childhood": 5660,
      "Ended": 5661,
      "advertising": 5662,
      "planning": 5663,
      "cumber": 5664,
      "continued": 5665,
      "vegetable": 5666,
      "Harry": 5667,
      "occasional": 5668,
      "supporting": 5669,
      "PRODUCT": 5670,
      "Cool": 5671,
      "Vac": 5672,
      "bri": 5673,
      "kers": 5674,
      "mb": 5675,
      "pum": 5676,
      "rots": 5677,
      "yed": 5678,
      "rex": 5679,
      "toler": 5680,
      "hearing": 5681,
      "exter": 5682,
      "prop": 5683,
      "poon": 5684,
      "canvas": 5685,
      "sian": 5686,
      "whatsoever": 5687,
      "eless": 5688,
      "diffic": 5689,
      "thinks": 5690,
      "sons": 5691,
      "crime": 5692,
      "LOOK": 5693,
      "faith": 5694,
      "microfiber": 5695,
      "soups": 5696,
      "connected": 5697,
      "graphics": 5698,
      "cartoons": 5699,
      "compartment": 5700,
      "26": 5701,
      "slot": 5702,
      "tes": 5703,
      "yan": 5704,
      "versat": 5705,
      "copper": 5706,
      "unusual": 5707,
      "justice": 5708,
      "ravel": 5709,
      "strings": 5710,
      "World": 5711,
      "players": 5712,
      "magic": 5713,
      "painful": 5714,
      "countertop": 5715,
      "pulls": 5716,
      "stylish": 5717,
      "opera": 5718,
      "Despite": 5719,
      "dancing": 5720,
      "SMALL": 5721,
      "Bruce": 5722,
      "Cre": 5723,
      "Especially": 5724,
      "Fam": 5725,
      "SI": 5726,
      "Target": 5727,
      "hr": 5728,
      "rush": 5729,
      "swee": 5730,
      "yard": 5731,
      "ona": 5732,
      "soak": 5733,
      "amoun": 5734,
      "authentic": 5735,
      "basis": 5736,
      "baskets": 5737,
      "sym": 5738,
      "depending": 5739,
      "motion": 5740,
      "Seemed": 5741,
      "void": 5742,
      "turkey": 5743,
      "Peter": 5744,
      "Needed": 5745,
      "Strong": 5746,
      ":-)": 5747,
      "Cer": 5748,
      "None": 5749,
      "cable": 5750,
      "gau": 5751,
      "hall": 5752,
      "ost": 5753,
      "ram": 5754,
      "wheat": 5755,
      "levels": 5756,
      "cozy": 5757,
      "Think": 5758,
      "tire": 5759,
      "Note": 5760,
      "lessly": 5761,
      "carrots": 5762,
      "flavorful": 5763,
      "shaker": 5764,
      "Expect": 5765,
      "costumes": 5766,
      "marked": 5767,
      "creative": 5768,
      "CHE": 5769,
      "hydr": 5770,
      "wheel": 5771,
      "AMAZ": 5772,
      "holidays": 5773,
      "tongs": 5774,
      "Rubber": 5775,
      "21": 5776,
      "Sc": 5777,
      "cow": 5778,
      "cha": 5779,
      "church": 5780,
      "bucket": 5781,
      "spark": 5782,
      "overwhel": 5783,
      "foc": 5784,
      "placing": 5785,
      "stuffed": 5786,
      "lining": 5787,
      "!!!!!!!!": 5788,
      "engine": 5789,
      "laying": 5790,
      "numerous": 5791,
      "Plan": 5792,
      "walking": 5793,
      "magnetic": 5794,
      "muffins": 5795,
      "shattered": 5796,
      "Stainless": 5797,
      "Bis": 5798,
      "Jer": 5799,
      "PS": 5800,
      "Rather": 5801,
      "dam": 5802,
      "gle": 5803,
      "ik": 5804,
      "env": 5805,
      "lla": 5806,
      "station": 5807,
      "chunks": 5808,
      "coarse": 5809,
      "ieved": 5810,
      "defe": 5811,
      "prices": 5812,
      "offers": 5813,
      "gry": 5814,
      "backs": 5815,
      "commun": 5816,
      "seasoning": 5817,
      "lined": 5818,
      "engaging": 5819,
      "pushed": 5820,
      "occur": 5821,
      "crunchy": 5822,
      "Cali": 5823,
      "Hot": 5824,
      "Ob": 5825,
      "YE": 5826,
      "amaz": 5827,
      "hill": 5828,
      "ugh": 5829,
      "llo": 5830,
      "ican": 5831,
      "coated": 5832,
      "ateur": 5833,
      "blah": 5834,
      "bottoms": 5835,
      "lfriend": 5836,
      "Chan": 5837,
      "basement": 5838,
      "famous": 5839,
      "2017": 5840,
      "LOW": 5841,
      "casting": 5842,
      "fireplace": 5843,
      "amounts": 5844,
      "bends": 5845,
      "eld": 5846,
      "mate": 5847,
      "ride": 5848,
      "iner": 5849,
      "inspir": 5850,
      "remains": 5851,
      "rome": 5852,
      "distribut": 5853,
      "jointed": 5854,
      "herbs": 5855,
      "credi": 5856,
      "RET": 5857,
      "tedious": 5858,
      "letter": 5859,
      "soundtrack": 5860,
      "satisfying": 5861,
      "Going": 5862,
      "People": 5863,
      "spaces": 5864,
      "Glass": 5865,
      "Typical": 5866,
      "rinse": 5867,
      "gadget": 5868,
      "Junk": 5869,
      "Less": 5870,
      "Met": 5871,
      "Py": 5872,
      "fau": 5873,
      "gal": 5874,
      "opp": 5875,
      "oured": 5876,
      "former": 5877,
      "depart": 5878,
      "disaster": 5879,
      "intact": 5880,
      "Cannot": 5881,
      "fiber": 5882,
      "Colle": 5883,
      "hooked": 5884,
      "separated": 5885,
      "Poorly": 5886,
      "thermos": 5887,
      "commentary": 5888,
      "mounted": 5889,
      "Large": 5890,
      "sloppy": 5891,
      "false": 5892,
      "Italian": 5893,
      "method": 5894,
      "App": 5895,
      "Gets": 5896,
      "Mom": 5897,
      "Scot": 5898,
      "wan": 5899,
      "ths": 5900,
      "fornia": 5901,
      "ools": 5902,
      "coco": 5903,
      "smallest": 5904,
      "overnight": 5905,
      "grate": 5906,
      "study": 5907,
      "staying": 5908,
      "Kevin": 5909,
      "listen": 5910,
      "military": 5911,
      "Buyer": 5912,
      "Clo": 5913,
      "aver": 5914,
      "hits": 5915,
      "pins": 5916,
      "va": 5917,
      "itter": 5918,
      "sel": 5919,
      "chain": 5920,
      "modate": 5921,
      "acid": 5922,
      "decaf": 5923,
      "shel": 5924,
      "berg": 5925,
      "news": 5926,
      "enjoys": 5927,
      "chopping": 5928,
      "letting": 5929,
      "specifically": 5930,
      "HAD": 5931,
      "bubbles": 5932,
      "gallon": 5933,
      "quantity": 5934,
      "embarrass": 5935,
      "Du": 5936,
      "Either": 5937,
      "Ice": 5938,
      "Open": 5939,
      "gni": 5940,
      "onions": 5941,
      "tox": 5942,
      "needing": 5943,
      "handed": 5944,
      "straps": 5945,
      "Being": 5946,
      "durability": 5947,
      "runner": 5948,
      "wrapping": 5949,
      "practice": 5950,
      "occasionally": 5951,
      "assumed": 5952,
      "Luckily": 5953,
      "Cru": 5954,
      "arthrit": 5955,
      "belt": 5956,
      "sore": 5957,
      "applic": 5958,
      "progre": 5959,
      "goods": 5960,
      "teal": 5961,
      "penny": 5962,
      "ousy": 5963,
      "designs": 5964,
      "ashes": 5965,
      "painting": 5966,
      "shocked": 5967,
      "silent": 5968,
      "196": 5969,
      "customers": 5970,
      "cherry": 5971,
      "tomatoes": 5972,
      "Piece": 5973,
      "NY": 5974,
      "Sound": 5975,
      "fus": 5976,
      "ascin": 5977,
      "ghost": 5978,
      "keeper": 5979,
      "web": 5980,
      "losing": 5981,
      "prot": 5982,
      "god": 5983,
      "viewed": 5984,
      "posite": 5985,
      "actions": 5986,
      "object": 5987,
      "decorations": 5988,
      "reflect": 5989,
      "separately": 5990,
      "relig": 5991,
      "hinge": 5992,
      "dissapointed": 5993,
      "48": 5994,
      "?\"": 5995,
      "Bed": 5996,
      "FIN": 5997,
      "Nic": 5998,
      "Sy": 5999,
      "ips": 6000,
      "virt": 6001,
      "washable": 6002,
      "usive": 6003,
      "nose": 6004,
      "bugs": 6005,
      "condens": 6006,
      "RED": 6007,
      "Dead": 6008,
      "crackers": 6009,
      "seals": 6010,
      "attachments": 6011,
      "ratings": 6012,
      "pushing": 6013,
      "blows": 6014,
      "removable": 6015,
      "Cus": 6016,
      "Cont": 6017,
      "Gold": 6018,
      "Haw": 6019,
      "MI": 6020,
      "Net": 6021,
      "Wo": 6022,
      "dred": 6023,
      "gins": 6024,
      "han": 6025,
      "ians": 6026,
      "uine": 6027,
      "resp": 6028,
      "forgot": 6029,
      "ched": 6030,
      "lying": 6031,
      "pla": 6032,
      "plunger": 6033,
      "makeup": 6034,
      "gling": 6035,
      "crow": 6036,
      "lowest": 6037,
      "Real": 6038,
      "Beware": 6039,
      "Deli": 6040,
      "household": 6041,
      "pleasantly": 6042,
      "leads": 6043,
      "girlfriend": 6044,
      "fruits": 6045,
      "batches": 6046,
      "techno": 6047,
      "situations": 6048,
      "Basically": 6049,
      "investment": 6050,
      "benefit": 6051,
      "disturbing": 6052,
      "environ": 6053,
      "500": 6054,
      "FRO": 6055,
      "field": 6056,
      "ano": 6057,
      "refresh": 6058,
      "aling": 6059,
      "becoming": 6060,
      "popping": 6061,
      "nold": 6062,
      "smashed": 6063,
      "waterproof": 6064,
      "cupcake": 6065,
      "pillowcases": 6066,
      "seasoned": 6067,
      "halfway": 6068,
      "ledge": 6069,
      "folding": 6070,
      "voir": 6071,
      "Steel": 6072,
      "cushions": 6073,
      "rupt": 6074,
      "approx": 6075,
      "emotional": 6076,
      "Frank": 6077,
      "political": 6078,
      "significant": 6079,
      "Gir": 6080,
      "Jane": 6081,
      "evid": 6082,
      "lav": 6083,
      "pit": 6084,
      "rat": 6085,
      "invent": 6086,
      "sections": 6087,
      "ches": 6088,
      "butt": 6089,
      "Those": 6090,
      "explan": 6091,
      "canned": 6092,
      "conve": 6093,
      "cupboard": 6094,
      "silky": 6095,
      "splatter": 6096,
      "manufacturing": 6097,
      "labels": 6098,
      "confused": 6099,
      "benef": 6100,
      "dresser": 6101,
      "ASTE": 6102,
      "appealing": 6103,
      "tumbler": 6104,
      "restaurant": 6105,
      "BAD": 6106,
      "Kept": 6107,
      "gang": 6108,
      "mos": 6109,
      "exposed": 6110,
      "themed": 6111,
      "rail": 6112,
      "herself": 6113,
      "finds": 6114,
      "studio": 6115,
      "lifetime": 6116,
      "Lee": 6117,
      "SOME": 6118,
      "Without": 6119,
      "ONEY": 6120,
      "URN": 6121,
      "mounting": 6122,
      "psycho": 6123,
      "recogni": 6124,
      "California": 6125,
      "Lid": 6126,
      "Mary": 6127,
      "Ryan": 6128,
      "Ugh": 6129,
      "Van": 6130,
      "bis": 6131,
      "mare": 6132,
      "mere": 6133,
      "nons": 6134,
      "reser": 6135,
      "itor": 6136,
      "onion": 6137,
      "aside": 6138,
      "toys": 6139,
      "eded": 6140,
      "adap": 6141,
      "compan": 6142,
      "goodness": 6143,
      "bleach": 6144,
      "cling": 6145,
      "horse": 6146,
      "ITY": 6147,
      "memorable": 6148,
      "talented": 6149,
      "Bottom": 6150,
      "Smells": 6151,
      "Cra": 6152,
      "EVER": 6153,
      "jump": 6154,
      "tick": 6155,
      "enge": 6156,
      "seg": 6157,
      "ading": 6158,
      "weld": 6159,
      "blown": 6160,
      "viewers": 6161,
      "creamy": 6162,
      "cracking": 6163,
      "viously": 6164,
      "laughed": 6165,
      "controls": 6166,
      "hundred": 6167,
      "YOUR": 6168,
      "appreciated": 6169,
      "alien": 6170,
      "Flavor": 6171,
      "advant": 6172,
      "Recommended": 6173,
      "convinc": 6174,
      "vinegar": 6175,
      "Special": 6176,
      "environment": 6177,
      "4th": 6178,
      "Bill": 6179,
      "IE": 6180,
      "Lor": 6181,
      "pically": 6182,
      "ald": 6183,
      "alco": 6184,
      "wasting": 6185,
      "kel": 6186,
      "unrealistic": 6187,
      "apron": 6188,
      "ifi": 6189,
      "amps": 6190,
      "amateur": 6191,
      "flon": 6192,
      "handled": 6193,
      "Lovely": 6194,
      "comfortably": 6195,
      "matched": 6196,
      "sooner": 6197,
      "imagined": 6198,
      "laughing": 6199,
      "MORE": 6200,
      "Steve": 6201,
      "limit": 6202,
      "appliance": 6203,
      "culture": 6204,
      "Wife": 6205,
      "Men": 6206,
      "Sher": 6207,
      "Wa": 6208,
      "ga": 6209,
      "ike": 6210,
      "ration": 6211,
      "meh": 6212,
      "chrome": 6213,
      "robot": 6214,
      "polic": 6215,
      "scoo": 6216,
      "scared": 6217,
      "address": 6218,
      "shamp": 6219,
      "creen": 6220,
      "attack": 6221,
      "vacuuming": 6222,
      "porn": 6223,
      "OUGHT": 6224,
      "micro": 6225,
      "Quick": 6226,
      "LOVED": 6227,
      "ios": 6228,
      "checking": 6229,
      "RIBLE": 6230,
      "dressing": 6231,
      "spatulas": 6232,
      "reminded": 6233,
      "repeat": 6234,
      "whisk": 6235,
      "Film": 6236,
      "exercise": 6237,
      "reservoir": 6238,
      "shampoo": 6239,
      "Cur": 6240,
      "Mus": 6241,
      "MONEY": 6242,
      "Non": 6243,
      "Wr": 6244,
      "caddy": 6245,
      "glo": 6246,
      "wit": 6247,
      "une": 6248,
      "amer": 6249,
      "acts": 6250,
      "disjointed": 6251,
      "intri": 6252,
      "purchases": 6253,
      "brittle": 6254,
      "orders": 6255,
      "guard": 6256,
      "Disc": 6257,
      "phen": 6258,
      "processor": 6259,
      "spilling": 6260,
      "boiled": 6261,
      "silverware": 6262,
      "crystal": 6263,
      "logical": 6264,
      "flying": 6265,
      "stunning": 6266,
      "brighter": 6267,
      "versatile": 6268,
      "Fine": 6269,
      "Sub": 6270,
      "Uni": 6271,
      "induction": 6272,
      "asking": 6273,
      "lex": 6274,
      "advice": 6275,
      "rips": 6276,
      "doctor": 6277,
      "ideas": 6278,
      "goof": 6279,
      "pointless": 6280,
      "filming": 6281,
      "izer": 6282,
      "Seller": 6283,
      "performed": 6284,
      "stopper": 6285,
      "fragrance": 6286,
      "credits": 6287,
      "selection": 6288,
      "tortill": 6289,
      "Family": 6290,
      "cocoa": 6291,
      "AF": 6292,
      "Are": 6293,
      "Swe": 6294,
      "Ul": 6295,
      "bins": 6296,
      "goo": 6297,
      "nest": 6298,
      "shine": 6299,
      "hosp": 6300,
      "essential": 6301,
      "ountain": 6302,
      "grass": 6303,
      "renting": 6304,
      "cents": 6305,
      "Before": 6306,
      "medic": 6307,
      "facts": 6308,
      "ITE": 6309,
      "picky": 6310,
      "creating": 6311,
      "generic": 6312,
      "killing": 6313,
      "HOW": 6314,
      "70s": 6315,
      "busy": 6316,
      "patio": 6317,
      "Juli": 6318,
      "dragged": 6319,
      "grainy": 6320,
      ":-(": 6321,
      "Robin": 6322,
      "Stopped": 6323,
      "Richard": 6324,
      "intrigu": 6325,
      "Au": 6326,
      "Cup": 6327,
      "Ken": 6328,
      "Vide": 6329,
      "dess": 6330,
      "eight": 6331,
      "zzy": 6332,
      "insight": 6333,
      "resem": 6334,
      "unexpected": 6335,
      "blem": 6336,
      "aken": 6337,
      "jobs": 6338,
      "chopper": 6339,
      "driver": 6340,
      "entertained": 6341,
      "parties": 6342,
      "sweetener": 6343,
      "Joe": 6344,
      "Comfort": 6345,
      "producers": 6346,
      "bump": 6347,
      "hamper": 6348,
      "suspenseful": 6349,
      "statement": 6350,
      "thumb": 6351,
      "WATCH": 6352,
      "hetti": 6353,
      "PUR": 6354,
      "TY": 6355,
      "fascin": 6356,
      "gie": 6357,
      "ius": 6358,
      "retain": 6359,
      "ators": 6360,
      "stress": 6361,
      "china": 6362,
      "entry": 6363,
      "ifer": 6364,
      "ceiling": 6365,
      "greatly": 6366,
      "igno": 6367,
      "owning": 6368,
      "Weird": 6369,
      "smelling": 6370,
      "Organ": 6371,
      "camper": 6372,
      "bummed": 6373,
      "consistently": 6374,
      "Series": 6375,
      "WELL": 6376,
      "deserves": 6377,
      "regarding": 6378,
      "chewy": 6379,
      "reduce": 6380,
      "allergies": 6381,
      "Half": 6382,
      "Apparently": 6383,
      "respond": 6384,
      "FROM": 6385,
      "Bull": 6386,
      "Rem": 6387,
      "TS": 6388,
      "hubby": 6389,
      "nur": 6390,
      "zilla": 6391,
      "cture": 6392,
      "root": 6393,
      "rive": 6394,
      "convers": 6395,
      "downside": 6396,
      "caramel": 6397,
      "surfaces": 6398,
      "Stupid": 6399,
      "blackout": 6400,
      "paring": 6401,
      "genuine": 6402,
      "allowing": 6403,
      "eaten": 6404,
      "lacked": 6405,
      "ballo": 6406,
      "named": 6407,
      "bench": 6408,
      "paced": 6409,
      "besides": 6410,
      "Martin": 6411,
      "precise": 6412,
      "wreath": 6413,
      "horribly": 6414,
      "cumbersome": 6415,
      "policy": 6416,
      "Fan": 6417,
      "Hen": 6418,
      "dre": 6419,
      "ek": 6420,
      "mary": 6421,
      "pil": 6422,
      "insp": 6423,
      "retail": 6424,
      "ork": 6425,
      "beverage": 6426,
      "ilities": 6427,
      "aghetti": 6428,
      "boat": 6429,
      "flush": 6430,
      "recommendation": 6431,
      "manship": 6432,
      "steep": 6433,
      "2014": 6434,
      "inspect": 6435,
      "ferior": 6436,
      "Under": 6437,
      "cali": 6438,
      "????": 6439,
      "Boy": 6440,
      "sequence": 6441,
      "identical": 6442,
      "England": 6443,
      "tricky": 6444,
      "utensil": 6445,
      "lifting": 6446,
      "Shipping": 6447,
      "https": 6448,
      "disposable": 6449,
      "redeeming": 6450,
      "belief": 6451,
      "convincing": 6452,
      "36": 6453,
      ">&": 6454,
      "Burn": 6455,
      "Hall": 6456,
      "Sever": 6457,
      "Saw": 6458,
      "bc": 6459,
      "foul": 6460,
      "pup": 6461,
      "skept": 6462,
      "wand": 6463,
      "aries": 6464,
      "beads": 6465,
      "upgrade": 6466,
      "teens": 6467,
      "joint": 6468,
      "rend": 6469,
      "Beach": 6470,
      "severe": 6471,
      "sounded": 6472,
      "BET": 6473,
      "Simply": 6474,
      "salads": 6475,
      "sleek": 6476,
      "accommodate": 6477,
      "AGAIN": 6478,
      "escape": 6479,
      "introdu": 6480,
      "substitute": 6481,
      "difficulty": 6482,
      "CI": 6483,
      "Mad": 6484,
      "West": 6485,
      "WWI": 6486,
      "bat": 6487,
      "gag": 6488,
      "hat": 6489,
      "yo": 6490,
      "anas": 6491,
      "lli": 6492,
      "static": 6493,
      "outs": 6494,
      "dislike": 6495,
      "icky": 6496,
      "gover": 6497,
      "orted": 6498,
      "ipment": 6499,
      "shapes": 6500,
      "machines": 6501,
      "messed": 6502,
      "Shark": 6503,
      "blocks": 6504,
      "necessarily": 6505,
      "practically": 6506,
      "spective": 6507,
      "automatically": 6508,
      "amazed": 6509,
      "Mur": 6510,
      "TA": 6511,
      "URE": 6512,
      "born": 6513,
      "darn": 6514,
      "hon": 6515,
      "pages": 6516,
      "vic": 6517,
      "iding": 6518,
      "istle": 6519,
      "Lost": 6520,
      "hotel": 6521,
      "NOTHING": 6522,
      "survi": 6523,
      "fills": 6524,
      "steady": 6525,
      "path": 6526,
      "Somewhat": 6527,
      "decision": 6528,
      "jewel": 6529,
      "OUR": 6530,
      "creates": 6531,
      "sexy": 6532,
      "dump": 6533,
      "nails": 6534,
      "irritating": 6535,
      "suddenly": 6536,
      "conclusion": 6537,
      "technology": 6538,
      "Sweet": 6539,
      "32": 6540,
      "400": 6541,
      "Bur": 6542,
      "Ir": 6543,
      "Jason": 6544,
      "OVER": 6545,
      "bone": 6546,
      "anda": 6547,
      "fork": 6548,
      "beha": 6549,
      "ida": 6550,
      "uster": 6551,
      "tied": 6552,
      "poons": 6553,
      "amed": 6554,
      "typically": 6555,
      "silk": 6556,
      "planned": 6557,
      "steaming": 6558,
      "vari": 6559,
      "melon": 6560,
      "tuce": 6561,
      "equipment": 6562,
      "explained": 6563,
      "lumpy": 6564,
      "impact": 6565,
      "Bes": 6566,
      "Eas": 6567,
      "Mac": 6568,
      "Oscar": 6569,
      "Plot": 6570,
      "Run": 6571,
      "Right": 6572,
      "damp": 6573,
      "hous": 6574,
      "san": 6575,
      "sam": 6576,
      "ining": 6577,
      "remark": 6578,
      "secret": 6579,
      "idi": 6580,
      "shirt": 6581,
      "scents": 6582,
      "setup": 6583,
      "yeah": 6584,
      "bris": 6585,
      "career": 6586,
      "omen": 6587,
      "starter": 6588,
      "opposite": 6589,
      "ASE": 6590,
      "protector": 6591,
      "related": 6592,
      "refunded": 6593,
      "splinter": 6594,
      "bothered": 6595,
      "animal": 6596,
      "tched": 6597,
      "ADE": 6598,
      "sharpening": 6599,
      "straws": 6600,
      "banana": 6601,
      "sensor": 6602,
      "sandwiches": 6603,
      "birds": 6604,
      "married": 6605,
      "Williams": 6606,
      "FL": 6607,
      "HI": 6608,
      "Law": 6609,
      "Person": 6610,
      "Wild": 6611,
      "rise": 6612,
      "witch": 6613,
      "inno": 6614,
      "ita": 6615,
      "seed": 6616,
      "album": 6617,
      "begins": 6618,
      "sole": 6619,
      "myster": 6620,
      "nostal": 6621,
      "buff": 6622,
      "epic": 6623,
      "smile": 6624,
      "blinds": 6625,
      "rave": 6626,
      "raise": 6627,
      "pted": 6628,
      "brut": 6629,
      "ictor": 6630,
      "shoulder": 6631,
      "interviews": 6632,
      "pillowcase": 6633,
      "Been": 6634,
      "ashing": 6635,
      "weights": 6636,
      "strongly": 6637,
      "portable": 6638,
      "portions": 6639,
      "2013": 6640,
      "vacy": 6641,
      "vacation": 6642,
      "semi": 6643,
      "mattresses": 6644,
      "slap": 6645,
      "layers": 6646,
      "street": 6647,
      "lunches": 6648,
      "traveling": 6649,
      "circum": 6650,
      "POINT": 6651,
      "fryer": 6652,
      "bananas": 6653,
      "Yeah": 6654,
      "compartments": 6655,
      "Roomba": 6656,
      "Several": 6657,
      "Iron": 6658,
      "econ": 6659,
      "vary": 6660,
      "rein": 6661,
      "quil": 6662,
      "groo": 6663,
      "suited": 6664,
      "student": 6665,
      "shams": 6666,
      "Stand": 6667,
      "paired": 6668,
      "classics": 6669,
      "snag": 6670,
      "marily": 6671,
      "decades": 6672,
      "toasted": 6673,
      "detailed": 6674,
      "80s": 6675,
      "caffe": 6676,
      "execution": 6677,
      "Earth": 6678,
      "Predictable": 6679,
      "coffees": 6680,
      "Obviously": 6681,
      "Ball": 6682,
      "EL": 6683,
      "Off": 6684,
      "UM": 6685,
      "phew": 6686,
      "tissue": 6687,
      "vies": 6688,
      "wis": 6689,
      "rever": 6690,
      "gem": 6691,
      "rian": 6692,
      "shad": 6693,
      "probe": 6694,
      "bolts": 6695,
      "grat": 6696,
      "shells": 6697,
      "recei": 6698,
      "complex": 6699,
      "lettuce": 6700,
      "dealing": 6701,
      "photography": 6702,
      "locking": 6703,
      "supposedly": 6704,
      "Brown": 6705,
      "adjustment": 6706,
      "twisted": 6707,
      "squish": 6708,
      "UPS": 6709,
      "Handle": 6710,
      "crumbs": 6711,
      "shredded": 6712,
      "judge": 6713,
      "Cover": 6714,
      "Di": 6715,
      "Dam": 6716,
      "Fro": 6717,
      "Tow": 6718,
      "WW": 6719,
      "Wars": 6720,
      "cto": 6721,
      "cig": 6722,
      "puff": 6723,
      "ture": 6724,
      "xious": 6725,
      "rose": 6726,
      "nephew": 6727,
      "extreme": 6728,
      "author": 6729,
      "placement": 6730,
      "ggy": 6731,
      "surround": 6732,
      "region": 6733,
      "pathetic": 6734,
      "opposed": 6735,
      "powering": 6736,
      "197": 6737,
      "rubb": 6738,
      "slick": 6739,
      "Fell": 6740,
      "attempts": 6741,
      "uniform": 6742,
      "teenage": 6743,
      "gasket": 6744,
      "July": 6745,
      "relationships": 6746,
      "FECT": 6747,
      "challenge": 6748,
      "WOW": 6749,
      "gauge": 6750,
      "Pyrex": 6751,
      "advantage": 6752,
      "Video": 6753,
      "28": 6754,
      "Jes": 6755,
      "Kir": 6756,
      "Sus": 6757,
      "jug": 6758,
      "rors": 6759,
      "recall": 6760,
      "itation": 6761,
      "onze": 6762,
      "dele": 6763,
      "ulated": 6764,
      "emer": 6765,
      "gritty": 6766,
      "sett": 6767,
      "coloring": 6768,
      "cleanup": 6769,
      "largest": 6770,
      "guarant": 6771,
      "franch": 6772,
      "chopped": 6773,
      "halon": 6774,
      "odors": 6775,
      "Assem": 6776,
      "privacy": 6777,
      "installation": 6778,
      "releases": 6779,
      "particle": 6780,
      "pairs": 6781,
      "tender": 6782,
      "packets": 6783,
      "regardless": 6784,
      "WORK": 6785,
      "niece": 6786,
      "pulp": 6787,
      "Hamilton": 6788,
      "Power": 6789,
      "Besides": 6790,
      "Based": 6791,
      "Cant": 6792,
      "Dou": 6793,
      "Full": 6794,
      "Ha": 6795,
      "Hum": 6796,
      "fif": 6797,
      "stools": 6798,
      "inferior": 6799,
      "edited": 6800,
      "ada": 6801,
      "coal": 6802,
      "urious": 6803,
      "Threw": 6804,
      "warp": 6805,
      "hotter": 6806,
      "mission": 6807,
      "waist": 6808,
      "nightmare": 6809,
      "linen": 6810,
      "rusty": 6811,
      "smoothie": 6812,
      "functionality": 6813,
      "moral": 6814,
      "produces": 6815,
      "switched": 6816,
      "prepare": 6817,
      "techn": 6818,
      "KitchenAid": 6819,
      "spacing": 6820,
      "stirring": 6821,
      "deceiving": 6822,
      "neighbor": 6823,
      "destroyed": 6824,
      "quirky": 6825,
      "Expected": 6826,
      "overwhelming": 6827,
      "23": 6828,
      "Avoid": 6829,
      "Mark": 6830,
      "bru": 6831,
      "gloves": 6832,
      "zard": 6833,
      "enh": 6834,
      "arre": 6835,
      "iche": 6836,
      "forms": 6837,
      "dom": 6838,
      "asted": 6839,
      "dip": 6840,
      "awn": 6841,
      "stickers": 6842,
      "cares": 6843,
      "fries": 6844,
      "tilt": 6845,
      "obsess": 6846,
      "assembling": 6847,
      "extension": 6848,
      "ASS": 6849,
      "frother": 6850,
      "concert": 6851,
      "zippers": 6852,
      "Spend": 6853,
      "vanity": 6854,
      "blowing": 6855,
      "spiral": 6856,
      "promise": 6857,
      "routine": 6858,
      "compelling": 6859,
      "survive": 6860,
      "ultimately": 6861,
      "Rubbermaid": 6862,
      "RETURN": 6863,
      "hospital": 6864,
      "Ali": 6865,
      "AGE": 6866,
      "Batter": 6867,
      "Free": 6868,
      "SER": 6869,
      "SUP": 6870,
      "Take": 6871,
      "hence": 6872,
      "mass": 6873,
      "pies": 6874,
      "sav": 6875,
      "island": 6876,
      "encounter": 6877,
      "seven": 6878,
      "sewing": 6879,
      "oty": 6880,
      "forgotten": 6881,
      "chest": 6882,
      "unravel": 6883,
      "ape": 6884,
      "comend": 6885,
      "detach": 6886,
      "workmanship": 6887,
      "essentially": 6888,
      "intage": 6889,
      "boots": 6890,
      "sman": 6891,
      "pale": 6892,
      "headboard": 6893,
      "pleasure": 6894,
      "visually": 6895,
      "follows": 6896,
      "primarily": 6897,
      "decorating": 6898,
      "grandchildren": 6899,
      "understanding": 6900,
      "expired": 6901,
      "Thanksgiving": 6902,
      "operation": 6903,
      "treats": 6904,
      "facing": 6905,
      "informative": 6906,
      "Godzilla": 6907,
      "Design": 6908,
      "accents": 6909,
      "toxic": 6910,
      "refreshing": 6911,
      "BETTER": 6912,
      "!).": 6913,
      "aes": 6914,
      "biz": 6915,
      "fav": 6916,
      "gently": 6917,
      "lan": 6918,
      "lamin": 6919,
      "task": 6920,
      "recy": 6921,
      "repet": 6922,
      "reusable": 6923,
      "envelo": 6924,
      "christ": 6925,
      "asts": 6926,
      "activ": 6927,
      "pregn": 6928,
      "spaghetti": 6929,
      "branch": 6930,
      "cutters": 6931,
      "reviewed": 6932,
      "charging": 6933,
      "REAL": 6934,
      "candies": 6935,
      "Chef": 6936,
      "touched": 6937,
      "dvds": 6938,
      "toasting": 6939,
      "bummer": 6940,
      "Mostly": 6941,
      "spirit": 6942,
      "stocking": 6943,
      "scrape": 6944,
      "remaining": 6945,
      "novelty": 6946,
      "almonds": 6947,
      "experiment": 6948,
      "drapes": 6949,
      "Original": 6950,
      "Fabric": 6951,
      "victim": 6952,
      "franchise": 6953,
      "Gener": 6954,
      "JO": 6955,
      "Satur": 6956,
      "Washed": 6957,
      "dar": 6958,
      "fare": 6959,
      "faint": 6960,
      "gather": 6961,
      "vate": 6962,
      "yn": 6963,
      "orice": 6964,
      "lips": 6965,
      "mosp": 6966,
      "iel": 6967,
      "active": 6968,
      "scient": 6969,
      "clogged": 6970,
      "everybody": 6971,
      "funnel": 6972,
      "sweetness": 6973,
      "preference": 6974,
      "particles": 6975,
      "ICK": 6976,
      "campy": 6977,
      "treated": 6978,
      "Starbucks": 6979,
      "claimed": 6980,
      "roasted": 6981,
      "million": 6982,
      "spoiled": 6983,
      "York": 6984,
      "bending": 6985,
      "gate": 6986,
      "navy": 6987,
      "poured": 6988,
      "rus": 6989,
      "tuck": 6990,
      "stere": 6991,
      "acqu": 6992,
      "abor": 6993,
      "unstable": 6994,
      "lovers": 6995,
      "shif": 6996,
      "agre": 6997,
      "eman": 6998,
      "purse": 6999,
      "matic": 7000,
      "pointed": 7001,
      "crank": 7002,
      "charming": 7003,
      "shakes": 7004,
      "Nicely": 7005,
      "omic": 7006,
      "letters": 7007,
      "valu": 7008,
      "contained": 7009,
      "complained": 7010,
      "expir": 7011,
      "treatment": 7012,
      "stretched": 7013,
      "Fox": 7014,
      "actresses": 7015,
      "applied": 7016,
      "exceptional": 7017,
      "Potter": 7018,
      "OMG": 7019,
      "recliner": 7020,
      "opportun": 7021,
      "explanation": 7022,
      "alcohol": 7023,
      "skeptical": 7024,
      "WWII": 7025,
      "DC": 7026,
      "Ku": 7027,
      "Mir": 7028,
      "Mil": 7029,
      "TWO": 7030,
      "Usu": 7031,
      "bab": 7032,
      "dense": 7033,
      "pse": 7034,
      "patch": 7035,
      "pics": 7036,
      "phalon": 7037,
      "tte": 7038,
      "reset": 7039,
      "sew": 7040,
      "forks": 7041,
      "amber": 7042,
      "cker": 7043,
      "blends": 7044,
      "pens": 7045,
      "reads": 7046,
      "bristles": 7047,
      "airy": 7048,
      "Lodge": 7049,
      "stevia": 7050,
      "soften": 7051,
      "frank": 7052,
      "helping": 7053,
      "flix": 7054,
      "brea": 7055,
      "ITS": 7056,
      "freezing": 7057,
      "dripping": 7058,
      "temporary": 7059,
      "names": 7060,
      "bulbs": 7061,
      "creamer": 7062,
      "channel": 7063,
      "inserts": 7064,
      "EXCE": 7065,
      "challenging": 7066,
      "Certain": 7067,
      "Action": 7068,
      "EP": 7069,
      "Eh": 7070,
      "Lon": 7071,
      "RONG": 7072,
      "Sch": 7073,
      "Yet": 7074,
      "jour": 7075,
      "yy": 7076,
      "iter": 7077,
      "lever": 7078,
      "bever": 7079,
      "belts": 7080,
      "unpleasant": 7081,
      "loy": 7082,
      "dehydr": 7083,
      "discus": 7084,
      "blind": 7085,
      "grater": 7086,
      "broad": 7087,
      "students": 7088,
      "gia": 7089,
      "chore": 7090,
      "filler": 7091,
      "slim": 7092,
      "collector": 7093,
      "pleasing": 7094,
      "powered": 7095,
      "delivers": 7096,
      "measurement": 7097,
      "HOT": 7098,
      "ivory": 7099,
      "pumpkin": 7100,
      "winner": 7101,
      "social": 7102,
      "scrubbing": 7103,
      "True": 7104,
      "PERFECT": 7105,
      "christmas": 7106,
      "Cast": 7107,
      "FIR": 7108,
      "HOR": 7109,
      "Les": 7110,
      "Tex": 7111,
      "Vi": 7112,
      "dorm": 7113,
      "nment": 7114,
      "ole": 7115,
      "ya": 7116,
      "zes": 7117,
      "atmosp": 7118,
      "encour": 7119,
      "llen": 7120,
      "sey": 7121,
      "champ": 7122,
      "cos": 7123,
      "fee": 7124,
      "loses": 7125,
      "shades": 7126,
      "pole": 7127,
      "perspective": 7128,
      "scream": 7129,
      "blending": 7130,
      "bronze": 7131,
      "whom": 7132,
      "minus": 7133,
      "trips": 7134,
      "aches": 7135,
      "originals": 7136,
      "Movies": 7137,
      "subscri": 7138,
      "VEN": 7139,
      "surprises": 7140,
      "!!!!!!": 7141,
      "slightest": 7142,
      "fourth": 7143,
      "froth": 7144,
      "wobbles": 7145,
      "fuzz": 7146,
      "recipient": 7147,
      "comparable": 7148,
      "imagination": 7149,
      "Instant": 7150,
      "leftovers": 7151,
      "quarter": 7152,
      "Saturday": 7153,
      "beverages": 7154,
      "DI": 7155,
      "Neat": 7156,
      "Pep": 7157,
      "San": 7158,
      "Span": 7159,
      "Tur": 7160,
      "Val": 7161,
      "Western": 7162,
      "bby": 7163,
      "bio": 7164,
      "cone": 7165,
      "games": 7166,
      "roo": 7167,
      "sco": 7168,
      "input": 7169,
      "incess": 7170,
      "ston": 7171,
      "ara": 7172,
      "versal": 7173,
      "acle": 7174,
      "peace": 7175,
      "demand": 7176,
      "venge": 7177,
      "chase": 7178,
      "drags": 7179,
      "Beyond": 7180,
      "laid": 7181,
      "sellers": 7182,
      "vacuums": 7183,
      "replacements": 7184,
      "Attract": 7185,
      "generous": 7186,
      "Consider": 7187,
      "knocked": 7188,
      "spilled": 7189,
      "sauces": 7190,
      "gundy": 7191,
      "accessories": 7192,
      "dividers": 7193,
      "condensation": 7194,
      "Honey": 7195,
      "Hol": 7196,
      "NICE": 7197,
      "Ve": 7198,
      "ube": 7199,
      "vul": 7200,
      "vintage": 7201,
      "educ": 7202,
      "lik": 7203,
      "wides": 7204,
      "Thom": 7205,
      "fetched": 7206,
      "outlet": 7207,
      "rib": 7208,
      "blew": 7209,
      "sake": 7210,
      "magn": 7211,
      "Stars": 7212,
      "Dece": 7213,
      "STOR": 7214,
      "ART": 7215,
      "decorate": 7216,
      "protected": 7217,
      "adjusting": 7218,
      "satisfactory": 7219,
      "Superman": 7220,
      "temperatures": 7221,
      "displayed": 7222,
      "kernels": 7223,
      "WHEN": 7224,
      "Strange": 7225,
      "Follow": 7226,
      "insulation": 7227,
      "Shame": 7228,
      "critic": 7229,
      "consuming": 7230,
      "teacher": 7231,
      "Shipped": 7232,
      "significantly": 7233,
      "Turned": 7234,
      "Completely": 7235,
      "detective": 7236,
      "internal": 7237,
      "department": 7238,
      "progress": 7239,
      "approxim": 7240,
      "caffeine": 7241,
      "Average": 7242,
      "BT": 7243,
      "Bummer": 7244,
      "Cut": 7245,
      "Dig": 7246,
      "Four": 7247,
      "Five": 7248,
      "Mer": 7249,
      "MADE": 7250,
      "Pol": 7251,
      "Tem": 7252,
      "aired": 7253,
      "cars": 7254,
      "drug": 7255,
      "fade": 7256,
      "jac": 7257,
      "lers": 7258,
      "rang": 7259,
      "tas": 7260,
      "incorrect": 7261,
      "ensure": 7262,
      "meats": 7263,
      "chap": 7264,
      "combo": 7265,
      "amped": 7266,
      "ulate": 7267,
      "artist": 7268,
      "overflow": 7269,
      "wolf": 7270,
      "brief": 7271,
      "hip": 7272,
      "manually": 7273,
      "reek": 7274,
      "foreign": 7275,
      "award": 7276,
      "Nope": 7277,
      "fried": 7278,
      "ization": 7279,
      "sells": 7280,
      "performs": 7281,
      "pork": 7282,
      "cashew": 7283,
      "OUS": 7284,
      "brushed": 7285,
      "failure": 7286,
      "flicks": 7287,
      "signs": 7288,
      "HOWE": 7289,
      "silicon": 7290,
      "accompl": 7291,
      "brackets": 7292,
      "Europe": 7293,
      "CHEAP": 7294,
      "benefits": 7295,
      "bizarre": 7296,
      "opportunity": 7297,
      "HOWEVER": 7298,
      "\")": 7299,
      "Apri": 7300,
      "BACK": 7301,
      "Frid": 7302,
      "Fortun": 7303,
      "HAS": 7304,
      "Lin": 7305,
      "Park": 7306,
      "PRE": 7307,
      "Son": 7308,
      "TLE": 7309,
      "Victor": 7310,
      "WN": 7311,
      "las": 7312,
      "lousy": 7313,
      "erent": 7314,
      "thet": 7315,
      "keys": 7316,
      "coats": 7317,
      "dos": 7318,
      "poach": 7319,
      "traf": 7320,
      "discount": 7321,
      "discolored": 7322,
      "serial": 7323,
      "Weak": 7324,
      "coffeemaker": 7325,
      "guide": 7326,
      "render": 7327,
      "creases": 7328,
      "quicker": 7329,
      "insane": 7330,
      "shortly": 7331,
      "mixes": 7332,
      "parti": 7333,
      "velcro": 7334,
      "sealing": 7335,
      "juicing": 7336,
      "safely": 7337,
      "electrical": 7338,
      "increase": 7339,
      "hammer": 7340,
      "harsh": 7341,
      "equal": 7342,
      "B000": 7343,
      "distin": 7344,
      "Charlie": 7345,
      "visuals": 7346,
      "Given": 7347,
      "hesitate": 7348,
      "tacky": 7349,
      "Fresh": 7350,
      "frosting": 7351,
      "Collection": 7352,
      "expiration": 7353,
      "AK": 7354,
      "Kurt": 7355,
      "RY": 7356,
      "Ru": 7357,
      "utral": 7358,
      "metall": 7359,
      "beats": 7360,
      "ows": 7361,
      "whistle": 7362,
      "code": 7363,
      "ural": 7364,
      "amusing": 7365,
      "teap": 7366,
      "desire": 7367,
      "ruit": 7368,
      "handful": 7369,
      "tasteless": 7370,
      "clar": 7371,
      "THIN": 7372,
      "download": 7373,
      "ERS": 7374,
      "Reg": 7375,
      "compon": 7376,
      "slower": 7377,
      "drinker": 7378,
      "extract": 7379,
      "vertical": 7380,
      "genius": 7381,
      "LESS": 7382,
      "chili": 7383,
      "Brad": 7384,
      "melts": 7385,
      "deserve": 7386,
      "appliances": 7387,
      "hinges": 7388,
      "ucch": 7389,
      "COMM": 7390,
      "QUAL": 7391,
      "luxurious": 7392,
      "physical": 7393,
      "distracting": 7394,
      "damn": 7395,
      "arthritis": 7396,
      "East": 7397,
      "FUN": 7398,
      "Id": 7399,
      "Ike": 7400,
      "Jeff": 7401,
      "Lou": 7402,
      "Match": 7403,
      "OP": 7404,
      "Sort": 7405,
      "Vin": 7406,
      "gger": 7407,
      "mac": 7408,
      "maple": 7409,
      "pouch": 7410,
      "angry": 7411,
      "rear": 7412,
      "engl": 7413,
      "haha": 7414,
      "thers": 7415,
      "aming": 7416,
      "canning": 7417,
      "concent": 7418,
      "intention": 7419,
      "mature": 7420,
      "desper": 7421,
      "vesti": 7422,
      "club": 7423,
      "century": 7424,
      "crimin": 7425,
      "Stay": 7426,
      "Stone": 7427,
      "horiz": 7428,
      "porch": 7429,
      "tapes": 7430,
      "annoyed": 7431,
      "fuzzy": 7432,
      "premium": 7433,
      "cryst": 7434,
      "frequent": 7435,
      "upperware": 7436,
      "rainy": 7437,
      "reduced": 7438,
      "DISAP": 7439,
      "========": 7440,
      "excessive": 7441,
      "virtually": 7442,
      "conversation": 7443,
      "Personally": 7444,
      "Certainly": 7445,
      "Attractive": 7446,
      "April": 7447,
      "metallic": 7448,
      "',": 7449,
      "BY": 7450,
      "Fall": 7451,
      "LLE": 7452,
      "March": 7453,
      "Miss": 7454,
      "Rid": 7455,
      "Sk": 7456,
      "Yuck": 7457,
      "Zip": 7458,
      "pi": 7459,
      "target": 7460,
      "uary": 7461,
      "yle": 7462,
      "ooper": 7463,
      "moon": 7464,
      "wears": 7465,
      "undone": 7466,
      "logo": 7467,
      "updated": 7468,
      "nobody": 7469,
      "anytime": 7470,
      "oking": 7471,
      "supply": 7472,
      "simpl": 7473,
      "instantly": 7474,
      "humans": 7475,
      "filtered": 7476,
      "photograph": 7477,
      "195": 7478,
      "slats": 7479,
      "dropping": 7480,
      "gyp": 7481,
      "healthier": 7482,
      "Goes": 7483,
      "inserted": 7484,
      "circul": 7485,
      "relief": 7486,
      "majority": 7487,
      "veggie": 7488,
      "individually": 7489,
      "Breville": 7490,
      "Depp": 7491,
      "integr": 7492,
      "feathers": 7493,
      "razor": 7494,
      "behavi": 7495,
      "Fortunately": 7496,
      "partially": 7497,
      "Bun": 7498,
      "BPA": 7499,
      "Dad": 7500,
      "GL": 7501,
      "Ill": 7502,
      "MAN": 7503,
      "Matt": 7504,
      "naked": 7505,
      "ptive": 7506,
      "aylor": 7507,
      "unplug": 7508,
      "pod": 7509,
      "hollow": 7510,
      "disks": 7511,
      "aft": 7512,
      "orts": 7513,
      "corpor": 7514,
      "steal": 7515,
      "shakers": 7516,
      "INE": 7517,
      "magaz": 7518,
      "surd": 7519,
      "greasy": 7520,
      "fortunate": 7521,
      "popper": 7522,
      "satin": 7523,
      "clocks": 7524,
      "generation": 7525,
      "Comes": 7526,
      "OFF": 7527,
      "grinders": 7528,
      "skills": 7529,
      "equally": 7530,
      "Lasted": 7531,
      "bracket": 7532,
      "________": 7533,
      "polished": 7534,
      "Scott": 7535,
      "shelving": 7536,
      "inspired": 7537,
      "envelope": 7538,
      "ucchini": 7539,
      "95": 7540,
      "Brew": 7541,
      "Come": 7542,
      "FA": 7543,
      "Husband": 7544,
      "Pal": 7545,
      "Pay": 7546,
      "Spe": 7547,
      "Tri": 7548,
      "Vol": 7549,
      "Zomb": 7550,
      "bie": 7551,
      "cial": 7552,
      "ko": 7553,
      "investi": 7554,
      "loaves": 7555,
      "neutral": 7556,
      "umb": 7557,
      "buyer": 7558,
      "wok": 7559,
      "broth": 7560,
      "minis": 7561,
      "internet": 7562,
      "strict": 7563,
      "fron": 7564,
      "2012": 7565,
      "headache": 7566,
      "temps": 7567,
      "installing": 7568,
      "adjusted": 7569,
      "melting": 7570,
      "recieved": 7571,
      "ridiculously": 7572,
      "NEED": 7573,
      "frustrated": 7574,
      "crispy": 7575,
      "yoga": 7576,
      "peanuts": 7577,
      "www": 7578,
      "Russell": 7579,
      "retro": 7580,
      "flatten": 7581,
      "elder": 7582,
      "application": 7583,
      "merely": 7584,
      "Comfortable": 7585,
      "Spanish": 7586,
      "widescreen": 7587,
      "DISAPPOINT": 7588,
      "Barely": 7589,
      "CL": 7590,
      "Kni": 7591,
      "MUST": 7592,
      "ND": 7593,
      "Res": 7594,
      "SP": 7595,
      "Sat": 7596,
      "dread": 7597,
      "eu": 7598,
      "oam": 7599,
      "oily": 7600,
      "pend": 7601,
      "vap": 7602,
      "inaccurate": 7603,
      "chor": 7604,
      "soaking": 7605,
      "hazard": 7606,
      "plants": 7607,
      "convin": 7608,
      "inema": 7609,
      "clutter": 7610,
      "pancake": 7611,
      "charcoal": 7612,
      "achieve": 7613,
      "Doctor": 7614,
      "softness": 7615,
      "contem": 7616,
      "licorice": 7617,
      "snugly": 7618,
      "marvel": 7619,
      "drawback": 7620,
      "chipping": 7621,
      "grandkids": 7622,
      "accuracy": 7623,
      "sorts": 7624,
      "burgundy": 7625,
      "Space": 7626,
      "ingredient": 7627,
      "effectively": 7628,
      "stacked": 7629,
      "yrs": 7630,
      "Addition": 7631,
      "stinks": 7632,
      "theaters": 7633,
      "Fairly": 7634,
      "knees": 7635,
      "repeatedly": 7636,
      "permanent": 7637,
      "adaptation": 7638,
      "plaus": 7639,
      "Wrong": 7640,
      "english": 7641,
      "33": 7642,
      "Bon": 7643,
      "Clar": 7644,
      "Give": 7645,
      "Hanks": 7646,
      "eh": 7647,
      "ech": 7648,
      "gli": 7649,
      "ssive": 7650,
      "tage": 7651,
      "vase": 7652,
      "anity": 7653,
      "oration": 7654,
      "belong": 7655,
      "robust": 7656,
      "thern": 7657,
      "anta": 7658,
      "graded": 7659,
      "ishes": 7660,
      "boxed": 7661,
      "carb": 7662,
      "ola": 7663,
      "udge": 7664,
      "twenty": 7665,
      "rustic": 7666,
      "fibers": 7667,
      "150": 7668,
      "sprink": 7669,
      "amazingly": 7670,
      "creature": 7671,
      "taped": 7672,
      "matters": 7673,
      "brewed": 7674,
      "Wayne": 7675,
      "attempted": 7676,
      "Anyone": 7677,
      "circle": 7678,
      "golden": 7679,
      "indicated": 7680,
      "organizing": 7681,
      "mastered": 7682,
      "minimum": 7683,
      "collapse": 7684,
      "ennifer": 7685,
      "radio": 7686,
      "infuser": 7687,
      "tabs": 7688,
      "Calphalon": 7689,
      "Chocolate": 7690,
      "intriguing": 7691,
      "Usually": 7692,
      "QUALITY": 7693,
      "Ikea": 7694,
      "Boo": 7695,
      "Call": 7696,
      "Fal": 7697,
      "Hill": 7698,
      "Lad": 7699,
      "Scar": 7700,
      "Taylor": 7701,
      "dye": 7702,
      "rr": 7703,
      "uit": 7704,
      "eral": 7705,
      "asing": 7706,
      "secur": 7707,
      "socks": 7708,
      "deck": 7709,
      "cones": 7710,
      "contri": 7711,
      "nozzle": 7712,
      "boss": 7713,
      "colander": 7714,
      "everytime": 7715,
      "clue": 7716,
      "stew": 7717,
      "STILL": 7718,
      "Hey": 7719,
      "launder": 7720,
      "Someone": 7721,
      "weekly": 7722,
      "locked": 7723,
      "litter": 7724,
      "listening": 7725,
      "Didnt": 7726,
      "Roy": 7727,
      "excuse": 7728,
      "relate": 7729,
      "titled": 7730,
      "truck": 7731,
      "conditioner": 7732,
      "ladies": 7733,
      "defects": 7734,
      "Upon": 7735,
      "Jackson": 7736,
      "BBQ": 7737,
      "supplies": 7738,
      "blurry": 7739,
      "reveal": 7740,
      "lavender": 7741,
      "goofy": 7742,
      "Organic": 7743,
      "teapot": 7744,
      ");": 7745,
      "72": 7746,
      "DAY": 7747,
      "Gor": 7748,
      "MS": 7749,
      "Ph": 7750,
      "Spr": 7751,
      "UGH": 7752,
      "park": 7753,
      "tort": 7754,
      "thro": 7755,
      "chic": 7756,
      "shark": 7757,
      "sheds": 7758,
      "express": 7759,
      "ademy": 7760,
      "offic": 7761,
      "floating": 7762,
      "Press": 7763,
      "apparent": 7764,
      "bumps": 7765,
      "knobs": 7766,
      "operated": 7767,
      "flawed": 7768,
      "Cleans": 7769,
      "mildly": 7770,
      "NEW": 7771,
      "thumbs": 7772,
      "January": 7773,
      "funnier": 7774,
      "jewelry": 7775,
      "likable": 7776,
      "27": 7777,
      "DES": 7778,
      "Hate": 7779,
      "Jones": 7780,
      "Jennifer": 7781,
      "Mix": 7782,
      "Pac": 7783,
      "Sep": 7784,
      "Sty": 7785,
      "TRE": 7786,
      "aer": 7787,
      "border": 7788,
      "ipping": 7789,
      "lou": 7790,
      "luster": 7791,
      "ras": 7792,
      "vity": 7793,
      "zucchini": 7794,
      "inger": 7795,
      "select": 7796,
      "soaked": 7797,
      "thermost": 7798,
      "thermal": 7799,
      "unfinished": 7800,
      "amper": 7801,
      "dud": 7802,
      "discover": 7803,
      "aky": 7804,
      "flan": 7805,
      "flap": 7806,
      "funky": 7807,
      "cheapest": 7808,
      "perfection": 7809,
      "Butter": 7810,
      "stein": 7811,
      "Ange": 7812,
      "trees": 7813,
      "curve": 7814,
      "understood": 7815,
      "differently": 7816,
      "Check": 7817,
      "Today": 7818,
      "springs": 7819,
      "phy": 7820,
      "speaking": 7821,
      "motiv": 7822,
      "ocado": 7823,
      "sliced": 7824,
      "cino": 7825,
      "offering": 7826,
      "sunlight": 7827,
      "UNK": 7828,
      "patience": 7829,
      "bloody": 7830,
      "families": 7831,
      "crude": 7832,
      "trapped": 7833,
      "Surprising": 7834,
      "contrast": 7835,
      "hrs": 7836,
      "defeats": 7837,
      "PURCH": 7838,
      "government": 7839,
      "HIGH": 7840,
      "Holmes": 7841,
      "Friday": 7842,
      "Brian": 7843,
      "Eli": 7844,
      "EAS": 7845,
      "Fel": 7846,
      "Grey": 7847,
      "Hold": 7848,
      "HARD": 7849,
      "Master": 7850,
      "TIN": 7851,
      "mi": 7852,
      "sac": 7853,
      "tart": 7854,
      "chalk": 7855,
      "abuse": 7856,
      "shall": 7857,
      "themes": 7858,
      "trou": 7859,
      "previews": 7860,
      "anybody": 7861,
      "blame": 7862,
      "grav": 7863,
      "griddle": 7864,
      "rage": 7865,
      "dium": 7866,
      "monsters": 7867,
      "feelings": 7868,
      "stellar": 7869,
      "ffle": 7870,
      "curved": 7871,
      "Instru": 7872,
      "heavily": 7873,
      "Therefore": 7874,
      "sham": 7875,
      "instance": 7876,
      "Dec": 7877,
      "starring": 7878,
      "valent": 7879,
      "Unlike": 7880,
      "Sheets": 7881,
      "calls": 7882,
      "Sharp": 7883,
      "depicted": 7884,
      "toasts": 7885,
      "textured": 7886,
      "occasion": 7887,
      "collects": 7888,
      "emotion": 7889,
      "training": 7890,
      "aspects": 7891,
      "successful": 7892,
      "rofoam": 7893,
      "streaming": 7894,
      "delightful": 7895,
      "transport": 7896,
      "relaxing": 7897,
      "PRICE": 7898,
      "exterior": 7899,
      "Bissell": 7900,
      "fascinating": 7901,
      "remarkable": 7902,
      "Assembly": 7903,
      "frankly": 7904,
      "29": 7905,
      "AB": 7906,
      "ABLE": 7907,
      "Cot": 7908,
      "Cha": 7909,
      "Dur": 7910,
      "Gorgeous": 7911,
      "IES": 7912,
      "IMO": 7913,
      "Lef": 7914,
      "Oz": 7915,
      "UD": 7916,
      "Vel": 7917,
      "gloss": 7918,
      "mit": 7919,
      "ratt": 7920,
      "wound": 7921,
      "ancy": 7922,
      "rev": 7923,
      "stro": 7924,
      "icles": 7925,
      "heaven": 7926,
      "alive": 7927,
      "ieties": 7928,
      "ulation": 7929,
      "somebody": 7930,
      "tearing": 7931,
      "buyers": 7932,
      "owner": 7933,
      "cliche": 7934,
      "supple": 7935,
      "dying": 7936,
      "asonic": 7937,
      "farm": 7938,
      "RECOMM": 7939,
      "slipped": 7940,
      "personality": 7941,
      "ORDER": 7942,
      "vivid": 7943,
      "martial": 7944,
      "Allen": 7945,
      "complaining": 7946,
      "directors": 7947,
      "Doesnt": 7948,
      "swing": 7949,
      "secured": 7950,
      "approach": 7951,
      "prevents": 7952,
      "skinny": 7953,
      "advise": 7954,
      "assuming": 7955,
      "randomly": 7956,
      "aligned": 7957,
      "eliminate": 7958,
      "companies": 7959,
      "dessert": 7960,
      "SUPER": 7961,
      "FIRST": 7962,
      "Texas": 7963,
      "traffic": 7964,
      "gyptian": 7965,
      "convinced": 7966,
      "Afr": 7967,
      "Alex": 7968,
      "Ep": 7969,
      "Fer": 7970,
      "IKE": 7971,
      "June": 7972,
      "Oster": 7973,
      "Sleep": 7974,
      "UE": 7975,
      "mile": 7976,
      "rick": 7977,
      "rank": 7978,
      "sin": 7979,
      "inconvenient": 7980,
      "esti": 7981,
      "utch": 7982,
      "vember": 7983,
      "mets": 7984,
      "lies": 7985,
      "abs": 7986,
      "pled": 7987,
      "shift": 7988,
      "prove": 7989,
      "defl": 7990,
      "justify": 7991,
      "sometime": 7992,
      "finest": 7993,
      "umber": 7994,
      "aff": 7995,
      "sche": 7996,
      "cking": 7997,
      "assist": 7998,
      "gotta": 7999,
      "runk": 8000,
      "dries": 8001,
      "locks": 8002,
      "speeds": 8003,
      "versus": 8004,
      "versary": 8005,
      "Thankfully": 8006,
      "powdered": 8007,
      "shuts": 8008,
      "nonetheless": 8009,
      "workouts": 8010,
      "anchors": 8011,
      "Lightweight": 8012,
      "westerns": 8013,
      "sleeve": 8014,
      "intelligent": 8015,
      "industry": 8016,
      "Custom": 8017,
      "calibr": 8018,
      "December": 8019,
      "elderly": 8020,
      "louder": 8021,
      "Left": 8022,
      "RECOMMEND": 8023,
      "$.": 8024,
      "3d": 8025,
      "Bow": 8026,
      "FI": 8027,
      "Kid": 8028,
      "Ms": 8029,
      "Mex": 8030,
      "Pure": 8031,
      "Ron": 8032,
      "gaps": 8033,
      "race": 8034,
      "tles": 8035,
      "wart": 8036,
      "thous": 8037,
      "reverse": 8038,
      "chamber": 8039,
      "kee": 8040,
      "url": 8041,
      "cele": 8042,
      "ureka": 8043,
      "cave": 8044,
      "anyways": 8045,
      "flakes": 8046,
      "grace": 8047,
      "gravy": 8048,
      "woven": 8049,
      "charger": 8050,
      "trilogy": 8051,
      "curious": 8052,
      "Incredi": 8053,
      "presses": 8054,
      "massive": 8055,
      "finishing": 8056,
      "sharper": 8057,
      "mixture": 8058,
      "gency": 8059,
      "advertis": 8060,
      "scratching": 8061,
      "Robot": 8062,
      "supports": 8063,
      "futon": 8064,
      "profile": 8065,
      "packet": 8066,
      "busted": 8067,
      "hurry": 8068,
      "rigid": 8069,
      "Washing": 8070,
      "fooled": 8071,
      "----------------": 8072,
      "Salt": 8073,
      "pineapple": 8074,
      "AMAZON": 8075,
      "Lord": 8076,
      "approximately": 8077,
      "thermostat": 8078,
      "!.": 8079,
      "Bel": 8080,
      "LIT": 8081,
      "Main": 8082,
      "Sending": 8083,
      "SHE": 8084,
      "Tube": 8085,
      "WASTE": 8086,
      "YI": 8087,
      "cid": 8088,
      "muted": 8089,
      "padded": 8090,
      "vous": 8091,
      "resolution": 8092,
      "vegan": 8093,
      "alle": 8094,
      "tiles": 8095,
      "debris": 8096,
      "prison": 8097,
      "purifier": 8098,
      "afterwards": 8099,
      "mental": 8100,
      "tains": 8101,
      "airtight": 8102,
      "clou": 8103,
      "cords": 8104,
      "flavoring": 8105,
      "weighted": 8106,
      "Stick": 8107,
      "powers": 8108,
      "media": 8109,
      "jection": 8110,
      "=\"\"": 8111,
      "grandmother": 8112,
      "molded": 8113,
      "screenplay": 8114,
      "Americans": 8115,
      "flee": 8116,
      "firmly": 8117,
      "Blood": 8118,
      "cards": 8119,
      "HAPP": 8120,
      "burgers": 8121,
      "located": 8122,
      "Brothers": 8123,
      "wobble": 8124,
      "Jackie": 8125,
      "servings": 8126,
      "remotely": 8127,
      "Packaging": 8128,
      "copies": 8129,
      "Suction": 8130,
      "Within": 8131,
      "BBC": 8132,
      "hurts": 8133,
      "automatic": 8134,
      "Appe": 8135,
      "struggles": 8136,
      "sweeper": 8137,
      "Cruise": 8138,
      "crowd": 8139,
      "Easily": 8140,
      "guarantee": 8141,
      "smanship": 8142,
      "stereoty": 8143,
      "contrived": 8144,
      "Aug": 8145,
      "CLE": 8146,
      "Ever": 8147,
      "Kore": 8148,
      "Mid": 8149,
      "Ni": 8150,
      "Ox": 8151,
      "OTHER": 8152,
      "South": 8153,
      "Tor": 8154,
      "Ver": 8155,
      "WAR": 8156,
      "ears": 8157,
      "mud": 8158,
      "wrench": 8159,
      "threat": 8160,
      "thed": 8161,
      "thew": 8162,
      "ader": 8163,
      "rif": 8164,
      "trade": 8165,
      "avocado": 8166,
      "bomb": 8167,
      "inding": 8168,
      "glor": 8169,
      "timate": 8170,
      "knowledge": 8171,
      "chosen": 8172,
      "izes": 8173,
      "flop": 8174,
      "sky": 8175,
      "jelly": 8176,
      "planet": 8177,
      "electron": 8178,
      "stems": 8179,
      "peeled": 8180,
      "attempting": 8181,
      "Marvel": 8182,
      "fights": 8183,
      "rotate": 8184,
      "trailers": 8185,
      "thusi": 8186,
      "zombies": 8187,
      "Different": 8188,
      "William": 8189,
      "protagon": 8190,
      "religious": 8191,
      "convection": 8192,
      "atmosphere": 8193,
      "celebr": 8194,
      "Bath": 8195,
      "Da": 8196,
      "Easter": 8197,
      "Live": 8198,
      "Neither": 8199,
      "PG": 8200,
      "PT": 8201,
      "Rac": 8202,
      "Win": 8203,
      "mason": 8204,
      "rum": 8205,
      "vot": 8206,
      "yer": 8207,
      "rell": 8208,
      "reput": 8209,
      "revenge": 8210,
      "orient": 8211,
      "eness": 8212,
      "chy": 8213,
      "bey": 8214,
      "soci": 8215,
      "whim": 8216,
      "habit": 8217,
      "absurd": 8218,
      "weave": 8219,
      "Thick": 8220,
      "unknown": 8221,
      "unevenly": 8222,
      "lov": 8223,
      "domin": 8224,
      "pless": 8225,
      "quie": 8226,
      "acter": 8227,
      "ula": 8228,
      "ultra": 8229,
      "enda": 8230,
      "confl": 8231,
      "scre": 8232,
      "blank": 8233,
      "overpowering": 8234,
      "suits": 8235,
      "ssl": 8236,
      "mented": 8237,
      "November": 8238,
      "surg": 8239,
      "breaker": 8240,
      "ISH": 8241,
      "Willis": 8242,
      "parch": 8243,
      "faulty": 8244,
      "deals": 8245,
      "styles": 8246,
      "figur": 8247,
      "functioning": 8248,
      "Joan": 8249,
      "Bodum": 8250,
      "depends": 8251,
      "accurately": 8252,
      "brews": 8253,
      "manufacture": 8254,
      "smoking": 8255,
      "dispense": 8256,
      "naturally": 8257,
      "electricity": 8258,
      "protective": 8259,
      "Mrs": 8260,
      "Watching": 8261,
      "patient": 8262,
      "Needless": 8263,
      "indicate": 8264,
      "projects": 8265,
      "fondant": 8266,
      "Company": 8267,
      "qualities": 8268,
      "rushed": 8269,
      "focused": 8270,
      "brutal": 8271,
      "circumst": 8272,
      "HORRIBLE": 8273,
      "STORY": 8274,
      "crystals": 8275,
      "Additionally": 8276,
      "plausible": 8277,
      "IKEA": 8278,
      "Customer": 8279,
      "39": 8280,
      "Fill": 8281,
      "JUNK": 8282,
      "Kill": 8283,
      "PBS": 8284,
      "Sn": 8285,
      "Santa": 8286,
      "Youn": 8287,
      "cate": 8288,
      "dic": 8289,
      "gig": 8290,
      "jack": 8291,
      "mant": 8292,
      "rasp": 8293,
      "tour": 8294,
      "wrest": 8295,
      "theory": 8296,
      "keting": 8297,
      "rial": 8298,
      "nex": 8299,
      "plat": 8300,
      "expense": 8301,
      "quo": 8302,
      "noxious": 8303,
      "bore": 8304,
      "handsome": 8305,
      "timing": 8306,
      "cooktop": 8307,
      "arrives": 8308,
      "niversary": 8309,
      "REE": 8310,
      "ensity": 8311,
      "mustard": 8312,
      "snags": 8313,
      "capable": 8314,
      "breads": 8315,
      "listened": 8316,
      "50s": 8317,
      "LOVES": 8318,
      "varieties": 8319,
      "producer": 8320,
      "1000": 8321,
      "searched": 8322,
      "sched": 8323,
      "humorous": 8324,
      "tubes": 8325,
      "markings": 8326,
      "snaps": 8327,
      "Service": 8328,
      "mmmm": 8329,
      "aliens": 8330,
      "provoking": 8331,
      "collecting": 8332,
      "brothers": 8333,
      "Shakes": 8334,
      "tribute": 8335,
      "welcome": 8336,
      "shooting": 8337,
      "Indian": 8338,
      "clumsy": 8339,
      "permanently": 8340,
      "bullet": 8341,
      "Netflix": 8342,
      "Woman": 8343,
      "tortillas": 8344,
      "deleted": 8345,
      "Pepper": 8346,
      "investig": 8347,
      "uitous": 8348,
      "parchment": 8349,
      "\"...": 8350,
      "120": 8351,
      "CTION": 8352,
      "Eureka": 8353,
      "GR": 8354,
      "Gift": 8355,
      "PIC": 8356,
      "RU": 8357,
      "Ra": 8358,
      "Sar": 8359,
      "Scr": 8360,
      "Wall": 8361,
      "WON": 8362,
      "cular": 8363,
      "drugs": 8364,
      "fers": 8365,
      "grom": 8366,
      "plo": 8367,
      "pip": 8368,
      "vague": 8369,
      "enthusi": 8370,
      "lled": 8371,
      "liber": 8372,
      "acry": 8373,
      "outcome": 8374,
      "unwatchable": 8375,
      "ifying": 8376,
      "sher": 8377,
      "del": 8378,
      "ulting": 8379,
      "caution": 8380,
      "sia": 8381,
      "artwork": 8382,
      "watery": 8383,
      "buds": 8384,
      "offensive": 8385,
      "brick": 8386,
      "dynam": 8387,
      "worthwhile": 8388,
      "trem": 8389,
      "kidding": 8390,
      "calling": 8391,
      "199": 8392,
      "Overpriced": 8393,
      "Short": 8394,
      "comedies": 8395,
      "roughly": 8396,
      "SEE": 8397,
      "suggestion": 8398,
      "oddly": 8399,
      "moderate": 8400,
      "catches": 8401,
      "Useless": 8402,
      "bringing": 8403,
      "structure": 8404,
      "Yeti": 8405,
      "answered": 8406,
      "jumped": 8407,
      "canisters": 8408,
      "society": 8409,
      "deceptive": 8410,
      "Garbage": 8411,
      "carried": 8412,
      "marriage": 8413,
      "Helen": 8414,
      "Director": 8415,
      "demonstr": 8416,
      "sooo": 8417,
      "wanna": 8418,
      "Girl": 8419,
      "ratio": 8420,
      "biscu": 8421,
      "AFTER": 8422,
      "Digital": 8423,
      "flannel": 8424,
      "Instructions": 8425,
      "Shakespe": 8426,
      "acrylic": 8427,
      "Dun": 8428,
      "FIL": 8429,
      "Lind": 8430,
      "Ri": 8431,
      "Rust": 8432,
      "Tiny": 8433,
      "file": 8434,
      "glove": 8435,
      "ibility": 8436,
      "lace": 8437,
      "qt": 8438,
      "saf": 8439,
      "indoor": 8440,
      "resc": 8441,
      "revol": 8442,
      "itude": 8443,
      "oops": 8444,
      "ripping": 8445,
      "unscrew": 8446,
      "illust": 8447,
      "percent": 8448,
      "spy": 8449,
      "spins": 8450,
      "fective": 8451,
      "brid": 8452,
      "glitter": 8453,
      "clich": 8454,
      "shoulders": 8455,
      "aws": 8456,
      "trigger": 8457,
      "addle": 8458,
      "carpets": 8459,
      "chops": 8460,
      "flim": 8461,
      "flies": 8462,
      "Expensive": 8463,
      "driving": 8464,
      "warmth": 8465,
      "costly": 8466,
      "rests": 8467,
      "weaker": 8468,
      "touches": 8469,
      "loosely": 8470,
      "comedic": 8471,
      "scented": 8472,
      "centered": 8473,
      "burger": 8474,
      "hearted": 8475,
      "60s": 8476,
      "VIEW": 8477,
      "accid": 8478,
      "prettier": 8479,
      "aaaa": 8480,
      "swivel": 8481,
      "palm": 8482,
      "dependent": 8483,
      "Sandra": 8484,
      "Vacuum": 8485,
      "embarrassed": 8486,
      "nonsense": 8487,
      "vulgar": 8488,
      "Cage": 8489,
      "Hun": 8490,
      "Nut": 8491,
      "OME": 8492,
      "Pain": 8493,
      "Silly": 8494,
      "SHOW": 8495,
      "Wind": 8496,
      "WERE": 8497,
      "blo": 8498,
      "ja": 8499,
      "rition": 8500,
      "sne": 8501,
      "yuck": 8502,
      "anal": 8503,
      "resolved": 8504,
      "stab": 8505,
      "alter": 8506,
      "ching": 8507,
      "vered": 8508,
      "costu": 8509,
      "gear": 8510,
      "Third": 8511,
      "useable": 8512,
      "peach": 8513,
      "prong": 8514,
      "lessons": 8515,
      "partner": 8516,
      "manip": 8517,
      "maneu": 8518,
      "interview": 8519,
      "placem": 8520,
      "counts": 8521,
      "THEN": 8522,
      "husbands": 8523,
      "sizing": 8524,
      "eats": 8525,
      "primary": 8526,
      "ridges": 8527,
      "measures": 8528,
      "experiences": 8529,
      "moldy": 8530,
      "passes": 8531,
      "manufactured": 8532,
      "voices": 8533,
      "believably": 8534,
      "Adam": 8535,
      "techni": 8536,
      "Enjoyable": 8537,
      "capture": 8538,
      "scraping": 8539,
      "++++": 8540,
      "GOT": 8541,
      "hesitant": 8542,
      "executed": 8543,
      "inja": 8544,
      "funniest": 8545,
      "FORE": 8546,
      "Denzel": 8547,
      "inspiring": 8548,
      "fauce": 8549,
      "fuss": 8550,
      "Jesus": 8551,
      "behavior": 8552,
      "Episo": 8553,
      "quieter": 8554,
      "costume": 8555,
      "City": 8556,
      "Egg": 8557,
      "FYI": 8558,
      "MIN": 8559,
      "Ware": 8560,
      "cass": 8561,
      "hen": 8562,
      "tro": 8563,
      "inconsistent": 8564,
      "recharge": 8565,
      "inge": 8566,
      "ico": 8567,
      "veh": 8568,
      "bells": 8569,
      "lil": 8570,
      "sodium": 8571,
      "haust": 8572,
      "aca": 8573,
      "abilities": 8574,
      "dose": 8575,
      "exhaust": 8576,
      "poss": 8577,
      "agers": 8578,
      "agger": 8579,
      "agged": 8580,
      "greater": 8581,
      "pricing": 8582,
      "impress": 8583,
      "sug": 8584,
      "ruins": 8585,
      "dia": 8586,
      "watermelon": 8587,
      "trial": 8588,
      "Already": 8589,
      "compat": 8590,
      "nervous": 8591,
      "izz": 8592,
      "Ford": 8593,
      "Extra": 8594,
      "EDIT": 8595,
      "installment": 8596,
      "ESOME": 8597,
      "sinks": 8598,
      "bagel": 8599,
      "MOST": 8600,
      "loads": 8601,
      "Feel": 8602,
      "tendency": 8603,
      "legend": 8604,
      ",,,": 8605,
      "spinning": 8606,
      "Flor": 8607,
      "weighs": 8608,
      "craftsmanship": 8609,
      "royal": 8610,
      "theatrical": 8611,
      "European": 8612,
      "AWESOME": 8613,
      "garden": 8614,
      "balloons": 8615,
      "introduced": 8616,
      "Leslie": 8617,
      "Considering": 8618,
      "Surprisingly": 8619,
      "advertisement": 8620,
      "Billy": 8621,
      "Cop": 8622,
      "Dor": 8623,
      "Dry": 8624,
      "Egyptian": 8625,
      "Gre": 8626,
      "Hist": 8627,
      "Hob": 8628,
      "Mason": 8629,
      "Nick": 8630,
      "Photo": 8631,
      "Rent": 8632,
      "Rod": 8633,
      "Reason": 8634,
      "Tw": 8635,
      "gic": 8636,
      "harm": 8637,
      "ng": 8638,
      "oval": 8639,
      "issa": 8640,
      "orrow": 8641,
      "forts": 8642,
      "withstand": 8643,
      "fellow": 8644,
      "tighter": 8645,
      "ille": 8646,
      "intend": 8647,
      "firmer": 8648,
      "serrated": 8649,
      "filmmakers": 8650,
      "cleaners": 8651,
      "thoughts": 8652,
      "pills": 8653,
      "central": 8654,
      "ANG": 8655,
      "STARS": 8656,
      "valve": 8657,
      "drib": 8658,
      "salted": 8659,
      "bows": 8660,
      "ironed": 8661,
      "lays": 8662,
      "discard": 8663,
      "soul": 8664,
      "splash": 8665,
      "Granted": 8666,
      "cuz": 8667,
      "Spider": 8668,
      "reached": 8669,
      "circles": 8670,
      "tossing": 8671,
      "lemons": 8672,
      "Tasty": 8673,
      "napkin": 8674,
      "organization": 8675,
      "scarves": 8676,
      "references": 8677,
      "nickel": 8678,
      "stripes": 8679,
      "Hawai": 8680,
      "cigare": 8681,
      "TINY": 8682,
      "quoise": 8683,
      "Asian": 8684,
      "Cham": 8685,
      "DA": 8686,
      "FU": 8687,
      "Jr": 8688,
      "MM": 8689,
      "Mother": 8690,
      "Wil": 8691,
      "WANT": 8692,
      "aqu": 8693,
      "cil": 8694,
      "cools": 8695,
      "osc": 8696,
      "sers": 8697,
      "tones": 8698,
      "asha": 8699,
      "arian": 8700,
      "utili": 8701,
      "mob": 8702,
      "haun": 8703,
      "urb": 8704,
      "gee": 8705,
      "iler": 8706,
      "conver": 8707,
      "convent": 8708,
      "disappeared": 8709,
      "bras": 8710,
      "icts": 8711,
      "Anna": 8712,
      "pilling": 8713,
      "talks": 8714,
      "framed": 8715,
      "shaking": 8716,
      "efforts": 8717,
      "States": 8718,
      "snoo": 8719,
      "marketing": 8720,
      "extend": 8721,
      "bookcase": 8722,
      "fairy": 8723,
      "Roman": 8724,
      "creatures": 8725,
      "Order": 8726,
      "flicker": 8727,
      "Stewart": 8728,
      "ification": 8729,
      "Horror": 8730,
      "tracks": 8731,
      "ASTIC": 8732,
      "Tasted": 8733,
      "grains": 8734,
      "scarf": 8735,
      "latest": 8736,
      "AVOR": 8737,
      "evidence": 8738,
      "Craig": 8739,
      "31": 8740,
      "350": 8741,
      ";)": 8742,
      "ABO": 8743,
      "Bright": 8744,
      "Camp": 8745,
      "LA": 8746,
      "PC": 8747,
      "WARE": 8748,
      "Zero": 8749,
      "cinema": 8750,
      "dairy": 8751,
      "nude": 8752,
      "pon": 8753,
      "recording": 8754,
      "icated": 8755,
      "beep": 8756,
      "Thor": 8757,
      "ifes": 8758,
      "bug": 8759,
      "oversized": 8760,
      "sideways": 8761,
      "ortment": 8762,
      "cloud": 8763,
      "Goodwill": 8764,
      "Remember": 8765,
      "ires": 8766,
      "gible": 8767,
      "greed": 8768,
      "Stu": 8769,
      "scenar": 8770,
      "ATED": 8771,
      "resulting": 8772,
      "Enough": 8773,
      "cient": 8774,
      "caly": 8775,
      "menu": 8776,
      "pushes": 8777,
      "hunt": 8778,
      "teenager": 8779,
      "RIGHT": 8780,
      "strawberry": 8781,
      "spinner": 8782,
      "caption": 8783,
      "borrow": 8784,
      "SHOULD": 8785,
      "existing": 8786,
      "shedding": 8787,
      "represented": 8788,
      "mushy": 8789,
      "combined": 8790,
      "industrial": 8791,
      "pumps": 8792,
      "econom": 8793,
      "components": 8794,
      "Velcro": 8795,
      "fleece": 8796,
      "maneuver": 8797,
      "''": 8798,
      "85": 8799,
      "Cooks": 8800,
      "Chair": 8801,
      "Huge": 8802,
      "Isl": 8803,
      "KNOW": 8804,
      "Moo": 8805,
      "Octo": 8806,
      "Pop": 8807,
      "Tupperware": 8808,
      "dates": 8809,
      "pap": 8810,
      "orie": 8811,
      "seas": 8812,
      "icting": 8813,
      "terror": 8814,
      "youth": 8815,
      "shrunk": 8816,
      "trag": 8817,
      "dual": 8818,
      "pra": 8819,
      "bleed": 8820,
      "saur": 8821,
      "imperfect": 8822,
      "span": 8823,
      "indent": 8824,
      "grasp": 8825,
      "clunky": 8826,
      "monitor": 8827,
      "corks": 8828,
      "timers": 8829,
      "angular": 8830,
      "awake": 8831,
      "YouTube": 8832,
      "carpe": 8833,
      "Rey": 8834,
      "Decker": 8835,
      "Somehow": 8836,
      "marble": 8837,
      "decides": 8838,
      "warehouse": 8839,
      "visiting": 8840,
      "rubbed": 8841,
      "Plenty": 8842,
      "Core": 8843,
      "bagels": 8844,
      "processed": 8845,
      "walmart": 8846,
      "emphas": 8847,
      "patterns": 8848,
      "bathtub": 8849,
      "protects": 8850,
      "dimensional": 8851,
      "manufacturers": 8852,
      "heroes": 8853,
      "winning": 8854,
      "strawberries": 8855,
      "Dragon": 8856,
      "Christop": 8857,
      "indicator": 8858,
      "neatly": 8859,
      "flesh": 8860,
      "grips": 8861,
      "carrier": 8862,
      "reported": 8863,
      "narrative": 8864,
      "inflated": 8865,
      "Jerry": 8866,
      "housing": 8867,
      "branches": 8868,
      "roomy": 8869,
      "Felt": 8870,
      "65": 8871,
      "Bay": 8872,
      "COULD": 8873,
      "Dian": 8874,
      "Event": 8875,
      "MON": 8876,
      "Nespresso": 8877,
      "Odd": 8878,
      "Sw": 8879,
      "Tony": 8880,
      "bound": 8881,
      "bund": 8882,
      "flight": 8883,
      "ji": 8884,
      "map": 8885,
      "sif": 8886,
      "uk": 8887,
      "ule": 8888,
      "uality": 8889,
      "tote": 8890,
      "edible": 8891,
      "stability": 8892,
      "seats": 8893,
      "melo": 8894,
      "alas": 8895,
      "alert": 8896,
      "bears": 8897,
      "rol": 8898,
      "roaster": 8899,
      "idence": 8900,
      "Thus": 8901,
      "upe": 8902,
      "uset": 8903,
      "embro": 8904,
      "sier": 8905,
      "disapointed": 8906,
      "blast": 8907,
      "destru": 8908,
      "settle": 8909,
      "sions": 8910,
      "angel": 8911,
      "ITEM": 8912,
      "Perry": 8913,
      "tember": 8914,
      "blocking": 8915,
      "Impossible": 8916,
      "WHERE": 8917,
      "suffer": 8918,
      "masterpiece": 8919,
      "deserved": 8920,
      "succe": 8921,
      "captured": 8922,
      "noodle": 8923,
      "commercials": 8924,
      "tongue": 8925,
      "feedback": 8926,
      "exercises": 8927,
      "Thermos": 8928,
      "Woody": 8929,
      "bearable": 8930,
      "neighb": 8931,
      "frayed": 8932,
      "citrus": 8933,
      "gratuitous": 8934,
      "receipt": 8935,
      "rubbery": 8936,
      "settled": 8937,
      "technical": 8938,
      "obsessed": 8939,
      "pregnant": 8940,
      "agreed": 8941,
      "cashews": 8942,
      "September": 8943,
      "Young": 8944,
      "October": 8945,
      "Bag": 8946,
      "BOR": 8947,
      "Ca": 8948,
      "CUT": 8949,
      "Cran": 8950,
      "Cooper": 8951,
      "Daughter": 8952,
      "Fred": 8953,
      "Morgan": 8954,
      "Tit": 8955,
      "Tal": 8956,
      "baker": 8957,
      "hitting": 8958,
      "ns": 8959,
      "nine": 8960,
      "west": 8961,
      "wings": 8962,
      "influ": 8963,
      "restored": 8964,
      "otto": 8965,
      "beater": 8966,
      "ctors": 8967,
      "weap": 8968,
      "discolor": 8969,
      "aka": 8970,
      "imal": 8971,
      "backup": 8972,
      "colour": 8973,
      "shears": 8974,
      "dios": 8975,
      "bedspread": 8976,
      "surely": 8977,
      "openings": 8978,
      "addicted": 8979,
      "Hell": 8980,
      "Sean": 8981,
      "United": 8982,
      "elev": 8983,
      "Liam": 8984,
      "hopeful": 8985,
      "1500": 8986,
      "throws": 8987,
      "ridge": 8988,
      "Shar": 8989,
      "printing": 8990,
      "passion": 8991,
      "ACE": 8992,
      "burr": 8993,
      "sprayed": 8994,
      "profanity": 8995,
      "reaching": 8996,
      "IDE": 8997,
      "Brita": 8998,
      "emotions": 8999,
      "providing": 9000,
      "chopsticks": 9001,
      "determin": 9002,
      "Melissa": 9003,
      "Truly": 9004,
      "expert": 9005,
      "community": 9006,
      "nolds": 9007,
      "recognize": 9008,
      "Sherlock": 9009,
      "Irish": 9010,
      "grooves": 9011,
      "aesthet": 9012,
      "journey": 9013,
      "DISAPPOINTED": 9014,
      "Cotton": 9015,
      "LITTLE": 9016,
      "Rachel": 9017,
      "Shakespeare": 9018,
      "ABOUT": 9019,
      "(\"": 9020,
      "34": 9021,
      "Clock": 9022,
      "Dish": 9023,
      "GAR": 9024,
      "Lids": 9025,
      "Spo": 9026,
      "Ted": 9027,
      "Tree": 9028,
      "UK": 9029,
      "bones": 9030,
      "bank": 9031,
      "gly": 9032,
      "hors": 9033,
      "nes": 9034,
      "ock": 9035,
      "sno": 9036,
      "tact": 9037,
      "wers": 9038,
      "xy": 9039,
      "estive": 9040,
      "staple": 9041,
      "chron": 9042,
      "som": 9043,
      "soph": 9044,
      "irgin": 9045,
      "pros": 9046,
      "compressed": 9047,
      "perfu": 9048,
      "noir": 9049,
      "sig": 9050,
      "ders": 9051,
      "disappear": 9052,
      "dissatisfied": 9053,
      "buzz": 9054,
      "woke": 9055,
      "crink": 9056,
      "itement": 9057,
      "comparing": 9058,
      "magical": 9059,
      "ierce": 9060,
      "counting": 9061,
      "supermarket": 9062,
      "Forget": 9063,
      "wondered": 9064,
      "skim": 9065,
      "Others": 9066,
      "calorie": 9067,
      "featured": 9068,
      "excitement": 9069,
      "satisfy": 9070,
      "nutrition": 9071,
      "conditions": 9072,
      "kills": 9073,
      "Blade": 9074,
      "Terri": 9075,
      "transl": 9076,
      "burst": 9077,
      "Clint": 9078,
      "noises": 9079,
      "Mickey": 9080,
      "sucker": 9081,
      "toddlers": 9082,
      "uddle": 9083,
      "concerns": 9084,
      "granola": 9085,
      "knifes": 9086,
      "Sunday": 9087,
      "synthetic": 9088,
      "celain": 9089,
      "amateurish": 9090,
      "medicine": 9091,
      "pilot": 9092,
      "shadow": 9093,
      "squishy": 9094,
      "Kirk": 9095,
      "laminate": 9096,
      "vapor": 9097,
      "circumstances": 9098,
      "possess": 9099,
      "compatible": 9100,
      "55": 9101,
      "Clad": 9102,
      "ET": 9103,
      "FER": 9104,
      "HH": 9105,
      "Hitch": 9106,
      "MENT": 9107,
      "OLD": 9108,
      "Seas": 9109,
      "Table": 9110,
      "ell": 9111,
      "hers": 9112,
      "hats": 9113,
      "mut": 9114,
      "vast": 9115,
      "wave": 9116,
      "oral": 9117,
      "orang": 9118,
      "eners": 9119,
      "arrange": 9120,
      "chuck": 9121,
      "unsure": 9122,
      "tipped": 9123,
      "explic": 9124,
      "devil": 9125,
      "agent": 9126,
      "cancer": 9127,
      "affair": 9128,
      "cheer": 9129,
      "chees": 9130,
      "backwards": 9131,
      "glas": 9132,
      "Ann": 9133,
      "nylon": 9134,
      "rence": 9135,
      "completed": 9136,
      "believed": 9137,
      "screwdriver": 9138,
      "VED": 9139,
      "cracker": 9140,
      "loop": 9141,
      "casing": 9142,
      "LES": 9143,
      "refused": 9144,
      "presents": 9145,
      "MOVI": 9146,
      "cordless": 9147,
      "SET": 9148,
      "Serves": 9149,
      "turquoise": 9150,
      "alike": 9151,
      "boost": 9152,
      "Teflon": 9153,
      "stitched": 9154,
      "Getting": 9155,
      "WORKS": 9156,
      "AAA": 9157,
      "jumps": 9158,
      "delighted": 9159,
      "reference": 9160,
      "laptop": 9161,
      "crockpot": 9162,
      "luxury": 9163,
      "tumblers": 9164,
      "Austral": 9165,
      "cocktail": 9166,
      "intelligence": 9167,
      "recorded": 9168,
      "scares": 9169,
      "segments": 9170,
      "phenomen": 9171,
      "repetitive": 9172,
      "rendering": 9173,
      "horizon": 9174,
      "surgery": 9175,
      "diabet": 9176,
      "Florida": 9177,
      "?).": 9178,
      "Aven": 9179,
      "Baby": 9180,
      "BOUGHT": 9181,
      "Crack": 9182,
      "LONG": 9183,
      "Ren": 9184,
      "Row": 9185,
      "Twin": 9186,
      "cash": 9187,
      "uh": 9188,
      "reaction": 9189,
      "stripped": 9190,
      "chunk": 9191,
      "proud": 9192,
      "intent": 9193,
      "bom": 9194,
      "productions": 9195,
      "watches": 9196,
      "clog": 9197,
      "bites": 9198,
      "seemingly": 9199,
      ".........": 9200,
      "watered": 9201,
      "wrist": 9202,
      "newly": 9203,
      "REVIEW": 9204,
      "sleeps": 9205,
      "rusts": 9206,
      "spoken": 9207,
      "1970": 9208,
      "relev": 9209,
      "juices": 9210,
      "Smart": 9211,
      "Leg": 9212,
      "peppers": 9213,
      "confident": 9214,
      "Broken": 9215,
      "2000": 9216,
      "crafted": 9217,
      "Adorable": 9218,
      "rotating": 9219,
      "apoint": 9220,
      "Warner": 9221,
      "toothbrush": 9222,
      "teaspoon": 9223,
      "gripping": 9224,
      "critical": 9225,
      "Russian": 9226,
      "Panasonic": 9227,
      "CAUSE": 9228,
      "MAKE": 9229,
      "Patrick": 9230,
      "mitts": 9231,
      "dubbed": 9232,
      "faux": 9233,
      "Neato": 9234,
      "Lady": 9235,
      "August": 9236,
      "Oxo": 9237,
      "category": 9238,
      "MOVIES": 9239,
      "CLO": 9240,
      "During": 9241,
      "FF": 9242,
      "Inex": 9243,
      "Making": 9244,
      "TURE": 9245,
      "cies": 9246,
      "iers": 9247,
      "oy": 9248,
      "opted": 9249,
      "sq": 9250,
      "tid": 9251,
      "tint": 9252,
      "rely": 9253,
      "remastered": 9254,
      "tower": 9255,
      "stall": 9256,
      "stamped": 9257,
      "users": 9258,
      "tigo": 9259,
      "iful": 9260,
      "shod": 9261,
      "pricy": 9262,
      "disassemble": 9263,
      "plex": 9264,
      "expectation": 9265,
      "handheld": 9266,
      "manages": 9267,
      "angers": 9268,
      "happily": 9269,
      "openers": 9270,
      "Init": 9271,
      "Chic": 9272,
      "chocol": 9273,
      "Death": 9274,
      "register": 9275,
      "bands": 9276,
      "sweep": 9277,
      "scraper": 9278,
      "Problem": 9279,
      "End": 9280,
      "freshness": 9281,
      "decorated": 9282,
      "considerably": 9283,
      "deeply": 9284,
      "gym": 9285,
      "sequels": 9286,
      "Hardy": 9287,
      "Johnson": 9288,
      "locations": 9289,
      "Anything": 9290,
      "sharpened": 9291,
      "Clearly": 9292,
      "Guy": 9293,
      "Bigger": 9294,
      "adore": 9295,
      "alternate": 9296,
      "Charles": 9297,
      "definition": 9298,
      "Trying": 9299,
      "transparent": 9300,
      "detect": 9301,
      "Install": 9302,
      "Street": 9303,
      "Downton": 9304,
      "requested": 9305,
      "Metal": 9306,
      "adapter": 9307,
      "nostalgia": 9308,
      "throat": 9309,
      "Washington": 9310,
      "faucet": 9311,
      "Reynolds": 9312,
      "Christopher": 9313,
      "4x": 9314,
      "Cin": 9315,
      "Care": 9316,
      "Fur": 9317,
      "Hilarious": 9318,
      "Jam": 9319,
      "Land": 9320,
      "Pen": 9321,
      "Port": 9322,
      "Squ": 9323,
      "Wat": 9324,
      "Want": 9325,
      "Winter": 9326,
      "WHO": 9327,
      "Wasted": 9328,
      "WRONG": 9329,
      "cs": 9330,
      "dow": 9331,
      "gam": 9332,
      "nation": 9333,
      "pir": 9334,
      "uous": 9335,
      "thir": 9336,
      "angles": 9337,
      "associ": 9338,
      "esp": 9339,
      "ctic": 9340,
      "advan": 9341,
      "whip": 9342,
      "plans": 9343,
      "excl": 9344,
      "poke": 9345,
      "amb": 9346,
      "teflon": 9347,
      "bolt": 9348,
      "sausage": 9349,
      "mation": 9350,
      "assortment": 9351,
      "clamp": 9352,
      "Whate": 9353,
      "enjoyment": 9354,
      "cription": 9355,
      "medy": 9356,
      "medical": 9357,
      "ugs": 9358,
      "breakable": 9359,
      "Until": 9360,
      "skipped": 9361,
      "velvet": 9362,
      "counters": 9363,
      "fresher": 9364,
      "casual": 9365,
      "attaching": 9366,
      "attaches": 9367,
      "Arnold": 9368,
      "slate": 9369,
      "refle": 9370,
      "Brand": 9371,
      "ESS": 9372,
      "Hoping": 9373,
      "depiction": 9374,
      "BEWARE": 9375,
      "brewer": 9376,
      "firmness": 9377,
      "boils": 9378,
      "testing": 9379,
      "periods": 9380,
      "teenagers": 9381,
      "thankfully": 9382,
      "pacing": 9383,
      "indicates": 9384,
      "HEPA": 9385,
      "chewing": 9386,
[...]
